<unk>	0
<pad>	0
<s>	0
</s>	0
<ASST>	0
<USER>	0
▁t	-0
▁a	-1
he	-2
in	-3
re	-4
▁the	-5
on	-6
er	-7
▁s	-8
▁o	-9
at	-10
en	-11
▁c	-12
es	-13
▁w	-14
is	-15
nd	-16
it	-17
or	-18
▁p	-19
al	-20
▁b	-21
an	-22
ed	-23
▁f	-24
▁of	-25
ing	-26
▁in	-27
ar	-28
ou	-29
▁m	-30
▁and	-31
▁to	-32
ic	-33
▁d	-34
ion	-35
▁क	-36
le	-37
ro	-38
as	-39
▁h	-40
ent	-41
▁th	-42
ct	-43
▁e	-44
il	-45
▁re	-46
▁T	-47
om	-48
▁l	-49
ve	-50
▁n	-51
st	-52
ly	-53
▁be	-54
▁is	-55
se	-56
▁A	-57
ol	-58
▁g	-59
ation	-60
▁स	-61
im	-62
▁ह	-63
id	-64
et	-65
ut	-66
▁S	-67
ce	-68
ur	-69
ot	-70
ra	-71
ch	-72
▁I	-73
ow	-74
▁for	-75
ig	-76
▁u	-77
▁C	-78
▁म	-79
▁on	-80
▁that	-81
▁st	-82
ver	-83
▁y	-84
▁The	-85
ir	-86
▁प	-87
ul	-88
am	-89
ay	-90
el	-91
▁as	-92
ith	-93
ad	-94
▁pro	-95
her	-96
▁are	-97
▁con	-98
▁an	-99
▁M	-100
▁with	-101
▁(	-102
▁you	-103
▁1	-104
if	-105
▁wh	-106
▁or	-107
▁P	-108
▁it	-109
▁al	-110
od	-111
ter	-112
ें	-113
▁B	-114
ment	-115
ge	-116
▁de	-117
th	-118
▁के	-119
▁W	-120
▁है	-121
op	-122
ate	-123
ist	-124
▁H	-125
ers	-126
ार	-127
्र	-128
▁ब	-129
ess	-130
ab	-131
ill	-132
ies	-133
▁he	-134
▁ex	-135
ने	-136
▁su	-137
▁com	-138
ect	-139
us	-140
▁we	-141
ore	-142
▁ज	-143
▁v	-144
ity	-145
est	-146
ac	-147
res	-148
os	-149
▁D	-150
ive	-151
▁ha	-152
um	-153
qu	-154
rom	-155
ld	-156
ke	-157
ant	-158
▁E	-159
em	-160
▁F	-161
▁by	-162
iv	-163
या	-164
▁2	-165
▁R	-166
ain	-167
nt	-168
▁at	-169
pp	-170
▁-	-171
▁अ	-172
igh	-173
▁ch	-174
▁can	-175
ud	-176
▁द	-177
▁was	-178
oc	-179
▁from	-180
▁में	-181
▁r	-182
ort	-183
and	-184
▁व	-185
▁ल	-186
▁ne	-187
▁N	-188
▁se	-189
ial	-190
▁G	-191
▁र	-192
▁L	-193
ure	-194
un	-195
▁le	-196
▁not	-197
ों	-198
art	-199
ical	-200
▁have	-201
ri	-202
og	-203
▁en	-204
▁sh	-205
▁sp	-206
▁न	-207
▁की	-208
00	-209
▁this	-210
▁O	-211
▁ab	-212
pt	-213
▁In	-214
ight	-215
▁wor	-216
ता	-217
rou	-218
ich	-219
all	-220
red	-221
▁आ	-222
our	-223
ost	-224
▁को	-225
ions	-226
ould	-227
ther	-228
र्	-229
gh	-230
ome	-231
du	-232
▁im	-233
ated	-234
per	-235
ine	-236
ag	-237
▁us	-238
▁pl	-239
out	-240
ard	-241
act	-242
ell	-243
ide	-244
ff	-245
▁their	-246
▁k	-247
▁उ	-248
▁से	-249
pl	-250
▁U	-251
▁int	-252
▁J	-253
▁कर	-254
ak	-255
▁त	-256
▁Th	-257
ans	-258
age	-259
▁इ	-260
ast	-261
ान	-262
▁ग	-263
ear	-264
▁your	-265
ous	-266
ust	-267
▁which	-268
▁भ	-269
iz	-270
▁whe	-271
▁का	-272
▁कि	-273
ec	-274
▁they	-275
▁ad	-276
ood	-277
▁cont	-278
ult	-279
ib	-280
▁will	-281
▁all	-282
end	-283
▁औ	-284
▁inc	-285
▁“	-286
cc	-287
ap	-288
▁dis	-289
ru	-290
▁और	-291
▁comp	-292
ong	-293
ia	-294
▁res	-295
▁more	-296
ip	-297
ew	-298
vel	-299
ations	-300
ere	-301
▁has	-302
ary	-303
▁do	-304
िक	-305
so	-306
orm	-307
ना	-308
ater	-309
्य	-310
are	-311
able	-312
ence	-313
ind	-314
▁man	-315
▁cl	-316
ild	-317
ual	-318
ks	-319
▁other	-320
▁te	-321
▁but	-322
ry	-323
▁were	-324
▁per	-325
ep	-326
▁पर	-327
▁me	-328
▁imp	-329
▁19	-330
ents	-331
ाल	-332
ance	-333
ach	-334
स्	-335
▁ए	-336
▁also	-337
▁"	-338
▁one	-339
..	-340
ign	-341
ose	-342
reat	-343
ake	-344
au	-345
▁j	-346
ass	-347
ase	-348
▁un	-349
ress	-350
av	-351
▁St	-352
▁ar	-353
▁प्र	-354
▁so	-355
▁च	-356
ction	-357
ition	-358
▁It	-359
ice	-360
▁out	-361
ber	-362
one	-363
▁app	-364
ime	-365
▁part	-366
very	-367
▁K	-368
▁श	-369
▁about	-370
▁This	-371
ord	-372
ang	-373
ace	-374
▁stud	-375
ens	-376
ok	-377
▁qu	-378
▁ev	-379
ire	-380
ory	-381
ish	-382
ame	-383
▁हो	-384
ount	-385
ack	-386
▁pe	-387
िल	-388
).	-389
▁who	-390
▁हैं	-391
▁inf	-392
▁20	-393
▁ने	-394
ue	-395
ite	-396
▁sy	-397
ub	-398
▁comm	-399
▁them	-400
▁his	-401
ors	-402
क्	-403
▁sc	-404
ces	-405
▁य	-406
▁pre	-407
▁इस	-408
low	-409
ही	-410
▁3	-411
ike	-412
ree	-413
ound	-414
olog	-415
▁Ch	-416
now	-417
▁bec	-418
▁up	-419
ric	-420
▁may	-421
ie	-422
ते	-423
▁than	-424
iff	-425
ile	-426
ड़	-427
▁थ	-428
▁V	-429
▁rec	-430
ays	-431
ople	-432
ail	-433
▁some	-434
▁Y	-435
▁year	-436
▁when	-437
ates	-438
nder	-439
▁been	-440
ian	-441
▁there	-442
ings	-443
mer	-444
▁its	-445
हा	-446
ren	-447
▁tra	-448
rit	-449
▁go	-450
▁into	-451
▁ag	-452
▁work	-453
ough	-454
ित	-455
ph	-456
▁tr	-457
▁time	-458
vers	-459
te	-460
िए	-461
▁diff	-462
▁over	-463
▁how	-464
▁these	-465
erv	-466
▁ro	-467
▁people	-468
ons	-469
ove	-470
▁जा	-471
ally	-472
rough	-473
▁col	-474
▁ra	-475
▁cons	-476
lud	-477
ause	-478
▁use	-479
ond	-480
ll	-481
ific	-482
ms	-483
▁फ	-484
न्	-485
tern	-486
▁act	-487
▁our	-488
▁most	-489
▁bet	-490
▁had	-491
we	-492
int	-493
▁des	-494
irst	-495
िया	-496
alth	-497
ys	-498
▁like	-499
ities	-500
ious	-501
▁sa	-502
▁know	-503
▁under	-504
▁bl	-505
िय	-506
lect	-507
lic	-508
▁acc	-509
ments	-510
les	-511
ook	-512
ning	-513
row	-514
▁भी	-515
ject	-516
▁would	-517
velop	-518
▁ख	-519
stem	-520
▁new	-521
▁एक	-522
▁need	-523
▁tw	-524
ffect	-525
▁rel	-526
ाम	-527
▁such	-528
ती	-529
▁Wh	-530
के	-531
▁if	-532
ient	-533
▁rep	-534
▁gen	-535
▁hel	-536
ob	-537
▁ph	-538
▁child	-539
▁201	-540
▁includ	-541
▁any	-542
cess	-543
ational	-544
ple	-545
▁pr	-546
वा	-547
ंग	-548
ative	-549
ng	-550
ular	-551
▁what	-552
▁स्	-553
▁help	-554
▁no	-555
hed	-556
▁only	-557
▁produ	-558
▁4	-559
▁used	-560
▁Un	-561
ced	-562
),	-563
yp	-564
ool	-565
ating	-566
ov	-567
▁ind	-568
से	-569
▁am	-570
▁prov	-571
▁वि	-572
▁बा	-573
▁off	-574
▁first	-575
▁many	-576
▁di	-577
▁develop	-578
▁fe	-579
▁5	-580
▁em	-581
री	-582
▁through	-583
▁ac	-584
▁spec	-585
ath	-586
ला	-587
▁As	-588
▁–	-589
ise	-590
fter	-591
oss	-592
ark	-593
uc	-594
round	-595
ics	-596
ne	-597
▁reg	-598
▁po	-599
▁exp	-600
eth	-601
uring	-602
हीं	-603
▁differe	-604
ful	-605
erm	-606
▁system	-607
ts	-608
▁two	-609
rib	-610
oth	-611
▁He	-612
iss	-613
▁ob	-614
ink	-615
▁दे	-616
ले	-617
rop	-618
hen	-619
ility	-620
▁dec	-621
▁अप	-622
▁ass	-623
als	-624
old	-625
ति	-626
▁लिए	-627
ible	-628
त्र	-629
▁add	-630
नी	-631
ased	-632
रा	-633
▁sur	-634
▁att	-635
ange	-636
ten	-637
ower	-638
ract	-639
▁should	-640
arch	-641
ures	-642
ife	-643
▁well	-644
▁200	-645
ert	-646
ble	-647
▁सा	-648
fore	-649
▁fl	-650
xt	-651
▁supp	-652
▁rem	-653
ween	-654
aw	-655
ram	-656
▁water	-657
▁सम	-658
gan	-659
▁co	-660
own	-661
▁inv	-662
▁sub	-663
▁health	-664
▁years	-665
त्	-666
ade	-667
▁नहीं	-668
sel	-669
▁sm	-670
ied	-671
▁between	-672
▁pres	-673
ution	-674
hes	-675
▁high	-676
िन	-677
▁रा	-678
its	-679
▁could	-680
▁where	-681
cy	-682
▁trans	-683
ick	-684
सी	-685
▁If	-686
ever	-687
▁make	-688
▁pers	-689
ily	-690
ants	-691
▁bu	-692
uch	-693
▁get	-694
▁rese	-695
▁सं	-696
▁import	-697
ोग	-698
wn	-699
ology	-700
▁We	-701
chool	-702
chn	-703
form	-704
ont	-705
ural	-706
▁her	-707
▁form	-708
ident	-709
ience	-710
▁mod	-711
▁inter	-712
▁ear	-713
▁inst	-714
का	-715
▁How	-716
iet	-717
▁num	-718
्या	-719
ins	-720
▁pol	-721
ited	-722
meric	-723
▁Al	-724
ting	-725
▁exam	-726
ines	-727
ef	-728
▁An	-729
ata	-730
▁ले	-731
▁disc	-732
▁18	-733
▁different	-734
कर	-735
▁car	-736
land	-737
▁sim	-738
▁long	-739
▁For	-740
ness	-741
▁lear	-742
ict	-743
▁effect	-744
▁found	-745
▁because	-746
▁med	-747
ists	-748
ually	-749
▁6	-750
▁ही	-751
▁exper	-752
▁then	-753
▁ट	-754
▁after	-755
ism	-756
▁det	-757
ft	-758
▁lar	-759
oy	-760
▁world	-761
▁ke	-762
▁cent	-763
gy	-764
▁just	-765
▁incre	-766
ature	-767
कार	-768
▁ed	-769
▁very	-770
▁even	-771
cept	-772
गा	-773
▁मु	-774
▁आप	-775
▁way	-776
...	-777
▁typ	-778
▁resp	-779
▁hum	-780
▁हु	-781
urn	-782
get	-783
▁count	-784
▁Americ	-785
▁inform	-786
▁art	-787
▁fol	-788
aking	-789
▁sign	-790
vent	-791
▁gener	-792
other	-793
▁var	-794
ically	-795
▁see	-796
्ट	-797
iew	-798
ivers	-799
▁ref	-800
▁Re	-801
ives	-802
▁ड	-803
▁those	-804
▁|	-805
▁pat	-806
▁Pro	-807
ेश	-808
▁ext	-809
▁तो	-810
▁Com	-811
▁prog	-812
▁soc	-813
ros	-814
cer	-815
▁result	-816
▁every	-817
ck	-818
▁call	-819
ली	-820
▁ca	-821
▁pub	-822
▁process	-823
arm	-824
ps	-825
िस	-826
▁gra	-827
▁said	-828
ases	-829
▁children	-830
ुर	-831
ues	-832
▁fact	-833
▁sec	-834
▁loc	-835
.”	-836
▁being	-837
ds	-838
led	-839
▁each	-840
▁There	-841
▁था	-842
▁They	-843
▁important	-844
ages	-845
ody	-846
▁requ	-847
ruct	-848
iron	-849
▁techn	-850
▁life	-851
▁partic	-852
▁ent	-853
ork	-854
▁dist	-855
▁रह	-856
▁commun	-857
▁set	-858
की	-859
▁same	-860
▁follow	-861
▁much	-862
▁mon	-863
ved	-864
▁she	-865
tle	-866
▁cre	-867
▁dep	-868
ized	-869
क्ष	-870
▁def	-871
▁fam	-872
▁during	-873
▁किया	-874
ather	-875
▁read	-876
cent	-877
imes	-878
▁sk	-879
ward	-880
▁students	-881
▁10	-882
gg	-883
▁lead	-884
▁Ar	-885
▁level	-886
▁food	-887
▁aut	-888
ize	-889
ices	-890
▁own	-891
any	-892
▁my	-893
vern	-894
▁study	-895
io	-896
▁information	-897
ंद	-898
▁person	-899
▁You	-900
▁‘	-901
▁right	-902
▁min	-903
▁good	-904
▁does	-905
्व	-906
ection	-907
▁7	-908
20	-909
▁data	-910
▁grow	-911
▁proble	-912
▁made	-913
hip	-914
▁cur	-915
▁But	-916
▁av	-917
▁find	-918
▁school	-919
▁end	-920
▁str	-921
ale	-922
▁che	-923
▁using	-924
▁ins	-925
▁back	-926
onom	-927
000	-928
▁Ind	-929
▁both	-930
▁cor	-931
▁Sp	-932
▁And	-933
ah	-934
▁expl	-935
und	-936
ality	-937
▁पा	-938
ted	-939
्म	-940
▁पह	-941
▁New	-942
▁pop	-943
▁show	-944
.,	-945
▁यह	-946
▁comple	-947
▁hist	-948
▁8	-949
▁before	-950
viron	-951
▁(1	-952
ivid	-953
read	-954
▁gl	-955
▁grou	-956
▁test	-957
iel	-958
▁small	-959
ially	-960
stand	-961
▁What	-962
▁main	-963
▁bo	-964
ix	-965
▁sol	-966
▁Sc	-967
▁ma	-968
ock	-969
ाय	-970
▁treat	-971
▁br	-972
▁उन	-973
inal	-974
▁val	-975
ince	-976
▁करने	-977
ien	-978
ined	-979
▁mem	-980
▁often	-981
▁again	-982
▁less	-983
der	-984
▁char	-985
omen	-986
▁prot	-987
rol	-988
nce	-989
▁poss	-990
ars	-991
▁day	-992
▁est	-993
▁नि	-994
▁while	-995
▁उस	-996
-1	-997
▁take	-998
ergy	-999
ty	-1000
▁गया	-1001
▁dise	-1002
▁state	-1003
ute	-1004
imate	-1005
ier	-1006
▁lit	-1007
akes	-1008
▁number	-1009
ished	-1010
▁research	-1011
iqu	-1012
▁serv	-1013
▁ec	-1014
ज़	-1015
▁occ	-1016
||	-1017
up	-1018
oh	-1019
सा	-1020
ex	-1021
▁power	-1022
ral	-1023
▁9	-1024
▁now	-1025
ियों	-1026
▁कु	-1027
com	-1028
मा	-1029
▁body	-1030
▁ris	-1031
▁organ	-1032
▁fun	-1033
▁cell	-1034
▁activ	-1035
▁vis	-1036
ides	-1037
न्ह	-1038
ulation	-1039
▁him	-1040
ंड	-1041
dition	-1042
vironment	-1043
iety	-1044
▁design	-1045
ury	-1046
▁human	-1047
irect	-1048
रे	-1049
▁hand	-1050
▁class	-1051
▁down	-1052
▁These	-1053
▁या	-1054
▁around	-1055
▁When	-1056
▁redu	-1057
air	-1058
▁support	-1059
▁three	-1060
iversity	-1061
iving	-1062
ves	-1063
▁हम	-1064
ered	-1065
▁bel	-1066
▁ser	-1067
▁सक	-1068
ारी	-1069
▁conf	-1070
▁common	-1071
▁घ	-1072
▁start	-1073
ger	-1074
ital	-1075
hers	-1076
ters	-1077
ium	-1078
uss	-1079
▁must	-1080
▁कार	-1081
▁look	-1082
▁elect	-1083
ven	-1084
▁Is	-1085
▁साथ	-1086
ल्	-1087
rent	-1088
▁cle	-1089
▁point	-1090
acter	-1091
0.	-1092
▁Se	-1093
ave	-1094
▁great	-1095
▁To	-1096
ains	-1097
,”	-1098
ross	-1099
day	-1100
▁plan	-1101
दी	-1102
▁op	-1103
cl	-1104
ving	-1105
▁example	-1106
कि	-1107
▁did	-1108
."	-1109
iven	-1110
▁large	-1111
the	-1112
▁जो	-1113
▁care	-1114
▁contin	-1115
self	-1116
▁govern	-1117
▁report	-1118
▁land	-1119
▁writ	-1120
ional	-1121
gen	-1122
rain	-1123
ull	-1124
ouse	-1125
▁वाल	-1126
itions	-1127
orn	-1128
▁'	-1129
anc	-1130
▁adv	-1131
ron	-1132
ared	-1133
दा	-1134
▁allow	-1135
▁equ	-1136
▁ret	-1137
ash	-1138
▁अपने	-1139
▁including	-1140
▁met	-1141
icle	-1142
▁understand	-1143
way	-1144
▁De	-1145
▁const	-1146
The	-1147
me	-1148
▁educ	-1149
▁cour	-1150
▁called	-1151
▁though	-1152
िर	-1153
eng	-1154
्री	-1155
ax	-1156
ner	-1157
▁dr	-1158
outh	-1159
▁build	-1160
▁At	-1161
iver	-1162
▁कहा	-1163
▁quest	-1164
▁known	-1165
de	-1166
▁pract	-1167
ividual	-1168
▁still	-1169
▁som	-1170
aterial	-1171
▁public	-1172
▁beh	-1173
ां	-1174
▁gu	-1175
ik	-1176
▁Res	-1177
els	-1178
ids	-1179
,000	-1180
oms	-1181
▁eas	-1182
ential	-1183
▁place	-1184
▁Ad	-1185
ired	-1186
ider	-1187
▁few	-1188
erest	-1189
▁ide	-1190
▁199	-1191
▁par	-1192
reen	-1193
iod	-1194
oci	-1195
inc	-1196
ets	-1197
▁tem	-1198
▁might	-1199
ाह	-1200
▁However	-1201
lish	-1202
ries	-1203
▁उन्ह	-1204
ected	-1205
osed	-1206
▁mat	-1207
▁Eng	-1208
▁appro	-1209
itive	-1210
▁caus	-1211
ank	-1212
▁think	-1213
ization	-1214
िला	-1215
▁Con	-1216
ption	-1217
▁अन	-1218
angu	-1219
▁present	-1220
ination	-1221
▁chang	-1222
▁dem	-1223
raph	-1224
▁et	-1225
ior	-1226
▁Ex	-1227
▁लोग	-1228
▁stand	-1229
▁want	-1230
▁छ	-1231
▁pur	-1232
▁within	-1233
ources	-1234
▁individual	-1235
▁राज	-1236
▁ध	-1237
▁product	-1238
oun	-1239
▁environment	-1240
▁change	-1241
▁energy	-1242
bers	-1243
ration	-1244
▁Sh	-1245
▁पू	-1246
ording	-1247
line	-1248
ense	-1249
▁without	-1250
ffic	-1251
▁ve	-1252
▁बाद	-1253
ढ़	-1254
▁सु	-1255
▁Ph	-1256
▁prof	-1257
▁cap	-1258
▁development	-1259
▁phys	-1260
▁sym	-1261
ethod	-1262
▁air	-1263
▁iss	-1264
ived	-1265
▁impro	-1266
▁material	-1267
▁pass	-1268
▁play	-1269
▁University	-1270
ason	-1271
ertain	-1272
▁pot	-1273
▁imm	-1274
ug	-1275
▁light	-1276
▁15	-1277
▁.	-1278
▁ident	-1279
agn	-1280
▁pos	-1281
man	-1282
▁spe	-1283
▁भार	-1284
▁don	-1285
▁[	-1286
▁ben	-1287
▁project	-1288
▁American	-1289
sp	-1290
▁sl	-1291
▁es	-1292
alk	-1293
▁learn	-1294
▁sit	-1295
▁bre	-1296
iness	-1297
▁disease	-1298
▁दो	-1299
▁another	-1300
▁&	-1301
▁area	-1302
▁eng	-1303
less	-1304
eral	-1305
▁direct	-1306
िव	-1307
▁ant	-1308
arent	-1309
▁अध	-1310
▁social	-1311
gin	-1312
bs	-1313
jor	-1314
ental	-1315
भा	-1316
भी	-1317
▁men	-1318
▁best	-1319
▁anal	-1320
ton	-1321
▁थी	-1322
▁Q	-1323
▁meas	-1324
स्ट	-1325
ال	-1326
▁मै	-1327
▁el	-1328
ological	-1329
ield	-1330
ability	-1331
erc	-1332
▁women	-1333
orth	-1334
▁interest	-1335
az	-1336
▁bas	-1337
▁blood	-1338
▁On	-1339
▁Be	-1340
▁Cl	-1341
illion	-1342
▁रहे	-1343
ified	-1344
▁home	-1345
▁include	-1346
▁pain	-1347
▁सि	-1348
ians	-1349
च्	-1350
▁law	-1351
▁cult	-1352
▁mus	-1353
ering	-1354
ris	-1355
atural	-1356
ify	-1357
▁mark	-1358
▁belie	-1359
▁तक	-1360
▁ter	-1361
▁desc	-1362
ained	-1363
▁Le	-1364
▁मे	-1365
▁rest	-1366
▁control	-1367
atic	-1368
▁become	-1369
▁risk	-1370
ccess	-1371
rodu	-1372
गी	-1373
▁12	-1374
ुल	-1375
्रे	-1376
▁opp	-1377
ently	-1378
▁Pl	-1379
▁econom	-1380
ining	-1381
तर	-1382
▁better	-1383
▁low	-1384
▁proper	-1385
▁So	-1386
▁ess	-1387
▁early	-1388
▁old	-1389
▁method	-1390
arc	-1391
ern	-1392
▁program	-1393
hor	-1394
▁anim	-1395
ारा	-1396
ats	-1397
▁sever	-1398
▁move	-1399
ource	-1400
▁leg	-1401
ways	-1402
▁war	-1403
tt	-1404
▁unt	-1405
▁—	-1406
▁Can	-1407
ision	-1408
▁mil	-1409
amp	-1410
ware	-1411
ills	-1412
▁against	-1413
lished	-1414
▁ऐ	-1415
▁ele	-1416
ients	-1417
lu	-1418
▁last	-1419
▁langu	-1420
here	-1421
▁keep	-1422
▁fore	-1423
ंत्र	-1424
▁oper	-1425
▁tre	-1426
▁real	-1427
▁here	-1428
ories	-1429
▁government	-1430
rap	-1431
▁second	-1432
▁Col	-1433
▁too	-1434
▁top	-1435
▁history	-1436
ओं	-1437
▁cause	-1438
गे	-1439
▁means	-1440
▁order	-1441
view	-1442
▁occur	-1443
ission	-1444
▁major	-1445
▁provide	-1446
rist	-1447
ाइ	-1448
▁dev	-1449
▁avail	-1450
▁group	-1451
str	-1452
▁family	-1453
▁perform	-1454
▁particular	-1455
ples	-1456
▁indu	-1457
ention	-1458
ina	-1459
▁possible	-1460
ards	-1461
▁current	-1462
▁saf	-1463
▁दिया	-1464
▁United	-1465
▁17	-1466
▁learning	-1467
▁cal	-1468
▁period	-1469
▁addition	-1470
▁say	-1471
par	-1472
use	-1473
ograph	-1474
▁Z	-1475
▁invol	-1476
ote	-1477
▁near	-1478
irc	-1479
▁plant	-1480
द्	-1481
▁species	-1482
▁hig	-1483
▁mean	-1484
▁bus	-1485
▁several	-1486
▁orig	-1487
▁signific	-1488
ष्ट	-1489
▁fin	-1490
गर	-1491
ंच	-1492
▁benef	-1493
▁Comm	-1494
ीन	-1495
oid	-1496
▁percent	-1497
▁able	-1498
▁lim	-1499
▁affect	-1500
किन	-1501
▁En	-1502
▁non	-1503
▁All	-1504
▁prom	-1505
▁थे	-1506
ानी	-1507
▁happ	-1508
ator	-1509
▁मह	-1510
▁God	-1511
idence	-1512
▁open	-1513
▁del	-1514
ane	-1515
ogn	-1516
▁cost	-1517
▁बी	-1518
▁feel	-1519
sy	-1520
▁One	-1521
▁lo	-1522
▁since	-1523
ilar	-1524
▁सर	-1525
था	-1526
▁mar	-1527
▁Te	-1528
▁scient	-1529
▁things	-1530
urop	-1531
ole	-1532
प्	-1533
▁areas	-1534
टी	-1535
▁चु	-1536
ret	-1537
टर	-1538
▁following	-1539
▁among	-1540
▁ال	-1541
▁treatment	-1542
osp	-1543
▁others	-1544
ends	-1545
1.	-1546
though	-1547
▁says	-1548
ots	-1549
देश	-1550
▁मा	-1551
ames	-1552
ended	-1553
▁country	-1554
▁based	-1555
▁times	-1556
▁हुए	-1557
▁prevent	-1558
▁fac	-1559
ek	-1560
▁four	-1561
को	-1562
elf	-1563
une	-1564
▁head	-1565
▁लेकिन	-1566
aper	-1567
▁fre	-1568
▁available	-1569
▁cond	-1570
▁prop	-1571
▁जी	-1572
▁With	-1573
▁bi	-1574
▁कुछ	-1575
▁name	-1576
ling	-1577
▁बार	-1578
ocus	-1579
▁access	-1580
ances	-1581
urther	-1582
▁Or	-1583
▁case	-1584
ox	-1585
sc	-1586
ेल	-1587
ww	-1588
▁come	-1589
▁free	-1590
वि	-1591
cing	-1592
▁Some	-1593
▁States	-1594
▁problem	-1595
फ़	-1596
▁short	-1597
▁month	-1598
▁struct	-1599
ाना	-1600
ploy	-1601
ably	-1602
ised	-1603
में	-1604
▁16	-1605
▁करें	-1606
▁conn	-1607
,"	-1608
▁list	-1609
▁certain	-1610
▁रहा	-1611
जी	-1612
▁object	-1613
▁age	-1614
▁बना	-1615
▁type	-1616
▁post	-1617
▁gr	-1618
वी	-1619
▁lab	-1620
ास	-1621
2.	-1622
▁view	-1623
vious	-1624
▁natural	-1625
ones	-1626
ूर	-1627
ूप	-1628
▁rece	-1629
▁जिस	-1630
▁put	-1631
▁press	-1632
eg	-1633
oint	-1634
to	-1635
▁Cent	-1636
▁भा	-1637
▁local	-1638
▁intern	-1639
▁सी	-1640
ring	-1641
▁vol	-1642
▁la	-1643
▁run	-1644
▁bro	-1645
▁ये	-1646
▁creat	-1647
ression	-1648
be	-1649
urope	-1650
▁problems	-1651
▁cho	-1652
▁text	-1653
▁book	-1654
▁levels	-1655
olution	-1656
▁article	-1657
▁success	-1658
▁मिल	-1659
▁hard	-1660
▁provid	-1661
▁above	-1662
▁associ	-1663
▁cells	-1664
▁impact	-1665
▁कह	-1666
▁mult	-1667
▁amount	-1668
▁National	-1669
▁Af	-1670
icult	-1671
br	-1672
▁bir	-1673
ggest	-1674
▁little	-1675
▁significant	-1676
▁flow	-1677
work	-1678
ope	-1679
▁जब	-1680
resent	-1681
por	-1682
▁उप	-1683
▁let	-1684
▁making	-1685
10	-1686
्ष	-1687
▁far	-1688
▁vir	-1689
▁later	-1690
▁due	-1691
▁language	-1692
▁comput	-1693
िश	-1694
ething	-1695
खा	-1696
ledge	-1697
▁young	-1698
▁until	-1699
ortun	-1700
▁Fr	-1701
▁By	-1702
▁sw	-1703
▁तर	-1704
▁turn	-1705
atory	-1706
ither	-1707
▁sum	-1708
ोज	-1709
▁focus	-1710
oks	-1711
▁US	-1712
▁invest	-1713
▁suggest	-1714
ication	-1715
▁Europe	-1716
stit	-1717
▁along	-1718
▁कम	-1719
▁बह	-1720
▁given	-1721
ately	-1722
▁Christ	-1723
▁Wor	-1724
▁सब	-1725
ged	-1726
uture	-1727
▁बात	-1728
yd	-1729
ured	-1730
▁Bl	-1731
▁behav	-1732
▁determ	-1733
hem	-1734
ार्	-1735
▁function	-1736
omm	-1737
स्त	-1738
▁circ	-1739
ोंने	-1740
▁rad	-1741
ead	-1742
pec	-1743
▁education	-1744
▁systems	-1745
▁Med	-1746
जा	-1747
▁polit	-1748
▁fil	-1749
▁seem	-1750
over	-1751
cle	-1752
▁likely	-1753
face	-1754
▁days	-1755
agement	-1756
aken	-1757
▁obs	-1758
▁heart	-1759
not	-1760
▁comb	-1761
aps	-1762
▁enc	-1763
▁consider	-1764
pect	-1765
__	-1766
▁course	-1767
▁appear	-1768
3.	-1769
▁past	-1770
oph	-1771
▁$	-1772
▁sing	-1773
orts	-1774
▁give	-1775
ending	-1776
▁death	-1777
▁teac	-1778
▁something	-1779
▁(2	-1780
▁increase	-1781
▁technology	-1782
pr	-1783
▁चाह	-1784
▁usually	-1785
▁rele	-1786
▁results	-1787
ried	-1788
▁community	-1789
ohn	-1790
▁always	-1791
▁dra	-1792
▁सरकार	-1793
▁Ear	-1794
बा	-1795
ौर	-1796
ann	-1797
▁similar	-1798
▁consum	-1799
▁रही	-1800
ape	-1801
▁words	-1802
▁हि	-1803
▁specific	-1804
▁वह	-1805
aster	-1806
ड़ी	-1807
▁temper	-1808
etic	-1809
▁character	-1810
▁create	-1811
▁ey	-1812
▁clear	-1813
▁वे	-1814
▁difficult	-1815
▁cr	-1816
ode	-1817
ember	-1818
4.	-1819
ique	-1820
▁author	-1821
asing	-1822
af	-1823
ym	-1824
▁begin	-1825
ours	-1826
▁conditions	-1827
▁experience	-1828
50	-1829
▁space	-1830
▁works	-1831
▁1.	-1832
1,	-1833
isc	-1834
▁पहले	-1835
▁record	-1836
▁That	-1837
▁effective	-1838
▁exist	-1839
ptoms	-1840
▁ill	-1841
पी	-1842
ड़ा	-1843
▁parent	-1844
▁century	-1845
▁गई	-1846
▁,	-1847
▁population	-1848
▁needs	-1849
▁profess	-1850
sw	-1851
ler	-1852
▁crit	-1853
ators	-1854
of	-1855
▁across	-1856
▁why	-1857
▁today	-1858
▁cancer	-1859
idd	-1860
▁Afric	-1861
▁line	-1862
▁brain	-1863
▁necess	-1864
pecially	-1865
▁भारत	-1866
min	-1867
▁discuss	-1868
aining	-1869
▁er	-1870
▁Ab	-1871
▁dam	-1872
▁इन	-1873
rug	-1874
▁Im	-1875
▁changes	-1876
▁While	-1877
▁applic	-1878
obal	-1879
▁special	-1880
mit	-1881
▁Brit	-1882
▁million	-1883
▁higher	-1884
▁various	-1885
ored	-1886
▁describ	-1887
▁future	-1888
▁try	-1889
▁next	-1890
ेट	-1891
▁gre	-1892
ruction	-1893
▁अधिक	-1894
▁however	-1895
iation	-1896
ribut	-1897
ateg	-1898
▁mov	-1899
▁strong	-1900
▁working	-1901
▁toget	-1902
▁together	-1903
ysis	-1904
▁business	-1905
पा	-1906
▁least	-1907
5.	-1908
put	-1909
▁kind	-1910
▁countries	-1911
▁side	-1912
▁लगा	-1913
▁कोई	-1914
atch	-1915
▁require	-1916
▁ask	-1917
▁respons	-1918
ung	-1919
▁30	-1920
▁अपनी	-1921
▁mot	-1922
नों	-1923
▁improve	-1924
▁दी	-1925
▁Gen	-1926
ued	-1927
▁Dr	-1928
▁बता	-1929
▁198	-1930
ray	-1931
▁उन्होंने	-1932
▁estab	-1933
▁John	-1934
▁Go	-1935
▁plants	-1936
▁patients	-1937
▁left	-1938
▁effects	-1939
most	-1940
बर	-1941
▁away	-1942
▁फ़	-1943
▁wr	-1944
▁tool	-1945
▁never	-1946
ilities	-1947
ंध	-1948
▁researc	-1949
▁complete	-1950
oney	-1951
▁colle	-1952
▁sal	-1953
selves	-1954
lo	-1955
▁term	-1956
▁cy	-1957
acy	-1958
र्म	-1959
aves	-1960
▁ways	-1961
▁enough	-1962
▁especially	-1963
omes	-1964
ये	-1965
िंग	-1966
▁sens	-1967
▁prim	-1968
▁After	-1969
ुत	-1970
▁tru	-1971
▁key	-1972
ilt	-1973
▁करते	-1974
▁z	-1975
▁net	-1976
▁team	-1977
aces	-1978
हर	-1979
▁14	-1980
let	-1981
▁below	-1982
▁chem	-1983
▁वर्	-1984
oot	-1985
▁general	-1986
▁होने	-1987
रो	-1988
▁Germ	-1989
nal	-1990
▁relations	-1991
ires	-1992
ument	-1993
्ल	-1994
▁अब	-1995
▁full	-1996
▁influ	-1997
iting	-1998
▁स्थ	-1999
amm	-2000
aching	-2001
ush	-2002
alf	-2003
▁cases	-2004
▁किसी	-2005
▁norm	-2006
▁English	-2007
▁War	-2008
lement	-2009
▁studies	-2010
▁Ne	-2011
▁मो	-2012
duct	-2013
द्र	-2014
port	-2015
▁account	-2016
//	-2017
▁(19	-2018
acc	-2019
▁opt	-2020
▁Am	-2021
ley	-2022
▁types	-2023
thing	-2024
▁subject	-2025
▁having	-2026
ges	-2027
▁step	-2028
▁lower	-2029
aring	-2030
▁whether	-2031
शन	-2032
▁question	-2033
▁knowledge	-2034
ipp	-2035
▁वाले	-2036
▁role	-2037
▁लोगों	-2038
side	-2039
▁11	-2040
▁Tr	-2041
▁going	-2042
chie	-2043
oman	-2044
▁World	-2045
▁Cont	-2046
ned	-2047
▁further	-2048
▁became	-2049
▁self	-2050
▁symptoms	-2051
▁physical	-2052
▁=	-2053
▁अनु	-2054
istic	-2055
▁Car	-2056
▁Stud	-2057
बी	-2058
▁represent	-2059
icro	-2060
▁ला	-2061
itor	-2062
▁pred	-2063
▁city	-2064
▁protect	-2065
ites	-2066
▁mind	-2067
म्	-2068
ड़े	-2069
app	-2070
▁makes	-2071
ency	-2072
ables	-2073
ification	-2074
▁reason	-2075
aim	-2076
▁production	-2077
▁polic	-2078
▁concer	-2079
▁Mar	-2080
NA	-2081
▁Health	-2082
▁science	-2083
cul	-2084
▁house	-2085
ैसे	-2086
ready	-2087
▁sure	-2088
▁13	-2089
▁ens	-2090
6.	-2091
▁रूप	-2092
ae	-2093
ott	-2094
▁She	-2095
▁dig	-2096
atures	-2097
▁live	-2098
ery	-2099
sych	-2100
aut	-2101
://	-2102
▁value	-2103
▁chall	-2104
8.	-2105
▁ground	-2106
eds	-2107
▁paper	-2108
ूस	-2109
▁fund	-2110
▁range	-2111
▁toward	-2112
bon	-2113
▁गए	-2114
▁Do	-2115
iol	-2116
▁Pr	-2117
▁big	-2118
▁जाता	-2119
ोल	-2120
▁activity	-2121
2,	-2122
▁model	-2123
▁Resear	-2124
edi	-2125
▁nut	-2126
▁employ	-2127
ibility	-2128
▁जाए	-2129
▁growth	-2130
▁indic	-2131
▁दिन	-2132
▁Intern	-2133
▁2.	-2134
9.	-2135
▁potential	-2136
▁Ge	-2137
for	-2138
▁बि	-2139
▁quality	-2140
▁activities	-2141
▁देश	-2142
▁eff	-2143
ream	-2144
▁particip	-2145
7.	-2146
▁seen	-2147
ंप	-2148
▁मैं	-2149
by	-2150
▁lot	-2151
▁बे	-2152
verage	-2153
unt	-2154
▁wind	-2155
▁देख	-2156
▁stat	-2157
▁already	-2158
र्व	-2159
erence	-2160
▁loss	-2161
ird	-2162
हां	-2163
ोट	-2164
urch	-2165
▁close	-2166
uation	-2167
▁detail	-2168
augh	-2169
▁विश	-2170
▁done	-2171
▁story	-2172
▁offic	-2173
rel	-2174
osis	-2175
▁field	-2176
ils	-2177
mber	-2178
ai	-2179
iple	-2180
▁groups	-2181
▁बै	-2182
▁rather	-2183
▁neg	-2184
▁word	-2185
▁really	-2186
▁fall	-2187
▁resources	-2188
▁developed	-2189
▁either	-2190
▁उत्	-2191
ee	-2192
oura	-2193
etimes	-2194
▁prob	-2195
▁recogn	-2196
▁products	-2197
amin	-2198
▁पी	-2199
▁साम	-2200
▁single	-2201
ask	-2202
▁South	-2203
apt	-2204
▁Cal	-2205
▁phot	-2206
क्र	-2207
▁achie	-2208
ands	-2209
▁May	-2210
▁deg	-2211
▁ver	-2212
▁mass	-2213
▁abs	-2214
ंत्री	-2215
▁according	-2216
▁Acc	-2217
▁bat	-2218
fact	-2219
overed	-2220
▁तरह	-2221
leep	-2222
ison	-2223
▁sent	-2224
▁skills	-2225
▁event	-2226
▁North	-2227
▁fr	-2228
▁medical	-2229
rect	-2230
▁...	-2231
▁ur	-2232
yl	-2233
iam	-2234
wh	-2235
▁indust	-2236
▁source	-2237
▁observ	-2238
▁ओ	-2239
ER	-2240
▁surface	-2241
ival	-2242
द्ध	-2243
▁tradition	-2244
▁drug	-2245
▁reduce	-2246
▁flu	-2247
▁site	-2248
yn	-2249
▁once	-2250
▁concept	-2251
▁national	-2252
idered	-2253
्यों	-2254
▁rate	-2255
▁collect	-2256
▁red	-2257
val	-2258
▁climate	-2259
▁Ass	-2260
▁init	-2261
▁काम	-2262
▁जान	-2263
rams	-2264
▁issues	-2265
▁America	-2266
▁building	-2267
▁tot	-2268
eter	-2269
▁100	-2270
▁five	-2271
201	-2272
ma	-2273
ule	-2274
▁address	-2275
▁197	-2276
5,	-2277
▁questions	-2278
▁dom	-2279
ales	-2280
▁ज़	-2281
ivil	-2282
▁recomm	-2283
▁होता	-2284
ivity	-2285
▁ann	-2286
rict	-2287
roll	-2288
▁सो	-2289
्यू	-2290
▁researchers	-2291
fer	-2292
▁taken	-2293
▁introdu	-2294
▁द्व	-2295
▁Rep	-2296
▁whole	-2297
स्ता	-2298
urity	-2299
क्त	-2300
▁fail	-2301
▁इसके	-2302
▁evidence	-2303
▁fri	-2304
च्च	-2305
▁size	-2306
plic	-2307
▁cut	-2308
▁members	-2309
▁Man	-2310
▁साल	-2311
▁associated	-2312
-2	-2313
▁sun	-2314
30	-2315
▁No	-2316
▁white	-2317
▁nature	-2318
▁upon	-2319
▁doct	-2320
▁skin	-2321
▁frequ	-2322
▁considered	-2323
fficient	-2324
".	-2325
▁meet	-2326
▁मौ	-2327
reg	-2328
▁previous	-2329
▁answ	-2330
▁समय	-2331
▁created	-2332
▁wide	-2333
▁Many	-2334
▁market	-2335
):	-2336
▁Soc	-2337
▁हुआ	-2338
▁सकते	-2339
▁Here	-2340
▁tell	-2341
▁doc	-2342
ips	-2343
epend	-2344
▁pressure	-2345
▁increased	-2346
ंक	-2347
▁states	-2348
्स	-2349
▁pay	-2350
reme	-2351
मान	-2352
ublic	-2353
▁return	-2354
go	-2355
▁relig	-2356
▁:	-2357
illed	-2358
ober	-2359
▁htt	-2360
▁simple	-2361
▁came	-2362
▁practice	-2363
ights	-2364
▁stress	-2365
▁political	-2366
▁themselves	-2367
▁understanding	-2368
▁histor	-2369
▁animals	-2370
ada	-2371
▁cannot	-2372
▁Act	-2373
▁actually	-2374
▁relationship	-2375
▁living	-2376
3,	-2377
▁sound	-2378
▁dest	-2379
▁50	-2380
▁रख	-2381
▁hold	-2382
▁कई	-2383
▁उनके	-2384
▁X	-2385
ensive	-2386
ournal	-2387
▁required	-2388
rad	-2389
▁बहुत	-2390
▁opportun	-2391
▁lay	-2392
--	-2393
ening	-2394
▁week	-2395
▁Hist	-2396
▁Dep	-2397
▁Aust	-2398
▁प्रति	-2399
▁वो	-2400
▁purp	-2401
▁अम	-2402
org	-2403
र्ट	-2404
▁Gu	-2405
▁दु	-2406
ety	-2407
itud	-2408
▁black	-2409
▁entire	-2410
sequ	-2411
aced	-2412
utions	-2413
▁port	-2414
▁economic	-2415
▁complex	-2416
ibr	-2417
▁ऑ	-2418
▁ability	-2419
▁related	-2420
▁famil	-2421
▁prote	-2422
वार	-2423
▁healthy	-2424
eb	-2425
4,	-2426
oon	-2427
▁His	-2428
ores	-2429
▁thought	-2430
▁adult	-2431
िल्म	-2432
▁needed	-2433
▁नाम	-2434
▁diet	-2435
enn	-2436
▁materials	-2437
▁engine	-2438
▁condition	-2439
▁maint	-2440
▁Des	-2441
ूल	-2442
AS	-2443
▁Pe	-2444
▁student	-2445
▁analysis	-2446
▁quick	-2447
sh	-2448
▁Em	-2449
▁लग	-2450
▁modern	-2451
▁published	-2452
like	-2453
चार	-2454
▁oil	-2455
▁idea	-2456
aging	-2457
urs	-2458
▁global	-2459
▁writing	-2460
▁bar	-2461
▁comes	-2462
acks	-2463
▁itself	-2464
▁196	-2465
▁super	-2466
artment	-2467
▁More	-2468
▁fat	-2469
▁factors	-2470
▁vers	-2471
▁exerc	-2472
▁arg	-2473
योग	-2474
▁Co	-2475
▁provides	-2476
▁fish	-2477
▁dog	-2478
धान	-2479
hing	-2480
mon	-2481
vere	-2482
▁sam	-2483
▁almost	-2484
▁parts	-2485
▁avoid	-2486
aged	-2487
oles	-2488
ney	-2489
ump	-2490
▁content	-2491
.)	-2492
ging	-2493
▁निर्	-2494
▁services	-2495
▁experien	-2496
▁management	-2497
ोक	-2498
▁money	-2499
bo	-2500
ened	-2501
chan	-2502
itary	-2503
▁coll	-2504
▁months	-2505
oses	-2506
uel	-2507
▁Most	-2508
lying	-2509
▁York	-2510
▁mor	-2511
▁Earth	-2512
▁State	-2513
▁necessary	-2514
▁cat	-2515
▁path	-2516
▁medic	-2517
▁arch	-2518
▁weight	-2519
▁rights	-2520
ences	-2521
▁measure	-2522
▁approach	-2523
▁react	-2524
▁Su	-2525
erve	-2526
▁व्य	-2527
6,	-2528
▁half	-2529
▁0	-2530
gest	-2531
8,	-2532
olic	-2533
hib	-2534
▁ut	-2535
▁बढ़	-2536
ystem	-2537
ply	-2538
ंट	-2539
वर	-2540
▁suff	-2541
▁soft	-2542
▁assess	-2543
▁link	-2544
▁liter	-2545
eding	-2546
▁produce	-2547
ार्ट	-2548
▁gas	-2549
▁job	-2550
ष्	-2551
▁parents	-2552
िम	-2553
▁arr	-2554
onse	-2555
▁green	-2556
▁color	-2557
▁soil	-2558
abor	-2559
7,	-2560
▁कार्य	-2561
वे	-2562
▁priv	-2563
कों	-2564
izing	-2565
▁फिर	-2566
▁tar	-2567
क्स	-2568
▁began	-2569
▁personal	-2570
utes	-2571
▁ge	-2572
▁emer	-2573
▁took	-2574
▁/	-2575
▁Although	-2576
▁pattern	-2577
based	-2578
▁computer	-2579
ारे	-2580
usion	-2581
▁conduct	-2582
iment	-2583
▁Research	-2584
▁cop	-2585
▁ever	-2586
▁princ	-2587
िट	-2588
9,	-2589
▁Qu	-2590
▁throughout	-2591
▁popular	-2592
▁Par	-2593
iction	-2594
nces	-2595
irm	-2596
11	-2597
▁individuals	-2598
▁हुई	-2599
▁stop	-2600
▁chemical	-2601
▁करना	-2602
▁regard	-2603
▁increasing	-2604
▁online	-2605
rown	-2606
iddle	-2607
ese	-2608
ID	-2609
pid	-2610
▁region	-2611
ume	-2612
ंह	-2613
yle	-2614
▁yet	-2615
▁गु	-2616
▁reading	-2617
▁ना	-2618
emic	-2619
▁British	-2620
▁सकता	-2621
uk	-2622
▁shows	-2623
itation	-2624
▁शुर	-2625
▁Pre	-2626
▁App	-2627
▁therap	-2628
▁farm	-2629
▁repl	-2630
▁hab	-2631
▁fire	-2632
▁क्ष	-2633
▁total	-2634
igure	-2635
▁separ	-2636
▁उन्हें	-2637
▁sleep	-2638
श्	-2639
▁society	-2640
▁interact	-2641
oll	-2642
िका	-2643
▁ce	-2644
▁longer	-2645
ंस	-2646
▁built	-2647
apan	-2648
▁win	-2649
▁deb	-2650
▁taking	-2651
ections	-2652
च्छ	-2653
▁bur	-2654
▁Fl	-2655
▁company	-2656
▁action	-2657
▁clean	-2658
▁structure	-2659
empt	-2660
pro	-2661
▁recent	-2662
my	-2663
▁anc	-2664
uck	-2665
ches	-2666
▁Me	-2667
inary	-2668
▁claim	-2669
▁द्वारा	-2670
क्षा	-2671
▁six	-2672
▁sense	-2673
ंत	-2674
ows	-2675
ript	-2676
erous	-2677
▁194	-2678
astic	-2679
het	-2680
▁training	-2681
ze	-2682
▁rul	-2683
ES	-2684
चा	-2685
▁service	-2686
▁sat	-2687
▁।	-2688
anced	-2689
ising	-2690
▁25	-2691
mb	-2692
▁industry	-2693
▁3.	-2694
▁India	-2695
▁caused	-2696
ively	-2697
▁Jew	-2698
▁Per	-2699
▁temperature	-2700
hold	-2701
estern	-2702
▁heav	-2703
▁hours	-2704
▁According	-2705
▁talk	-2706
▁terms	-2707
▁पुल	-2708
▁rev	-2709
▁position	-2710
▁prec	-2711
▁inj	-2712
icles	-2713
▁travel	-2714
▁II	-2715
▁vari	-2716
िल्	-2717
▁हर	-2718
AT	-2719
▁check	-2720
▁sex	-2721
▁behavior	-2722
▁mach	-2723
▁Int	-2724
▁diagn	-2725
▁schools	-2726
▁causes	-2727
▁Your	-2728
▁contact	-2729
▁heat	-2730
reng	-2731
▁ख़	-2732
▁School	-2733
aily	-2734
▁matter	-2735
lt	-2736
▁CO	-2737
▁environmental	-2738
▁break	-2739
▁meaning	-2740
▁Sec	-2741
AR	-2742
▁thing	-2743
स्थ	-2744
minist	-2745
▁benefits	-2746
▁spread	-2747
▁disord	-2748
▁Instit	-2749
▁Other	-2750
▁surv	-2751
▁ste	-2752
lex	-2753
▁conc	-2754
ulations	-2755
▁provided	-2756
▁positive	-2757
▁safe	-2758
▁contain	-2759
istance	-2760
▁etc	-2761
▁लि	-2762
▁i	-2763
ns	-2764
fully	-2765
▁vide	-2766
▁मान	-2767
▁Comp	-2768
▁आज	-2769
▁bacter	-2770
▁lives	-2771
दि	-2772
▁bring	-2773
▁हा	-2774
aff	-2775
gar	-2776
▁easy	-2777
▁true	-2778
▁shown	-2779
▁टी	-2780
▁•	-2781
▁क्या	-2782
ene	-2783
▁designed	-2784
▁Us	-2785
्त	-2786
▁From	-2787
ades	-2788
vey	-2789
▁ap	-2790
▁regular	-2791
▁Rec	-2792
▁Will	-2793
asc	-2794
▁includes	-2795
ricult	-2796
ana	-2797
istics	-2798
▁विक	-2799
ropri	-2800
▁accept	-2801
▁Of	-2802
▁वा	-2803
▁fru	-2804
▁Japan	-2805
तीय	-2806
▁carbon	-2807
hood	-2808
▁wild	-2809
ronic	-2810
▁Pres	-2811
▁viol	-2812
ister	-2813
ोर	-2814
▁methods	-2815
▁deep	-2816
▁Not	-2817
▁variety	-2818
ब्	-2819
▁simply	-2820
rench	-2821
▁led	-2822
▁स्ट	-2823
▁eat	-2824
▁fem	-2825
▁पुलिस	-2826
▁सबसे	-2827
▁Ed	-2828
▁बन	-2829
▁response	-2830
ha	-2831
▁review	-2832
▁standard	-2833
ederal	-2834
▁relative	-2835
▁Now	-2836
▁ple	-2837
▁दि	-2838
ster	-2839
ched	-2840
▁average	-2841
ufact	-2842
ength	-2843
aving	-2844
verse	-2845
atives	-2846
rought	-2847
aries	-2848
▁target	-2849
▁psych	-2850
▁सभी	-2851
rast	-2852
▁subst	-2853
▁face	-2854
▁que	-2855
▁King	-2856
▁greater	-2857
▁lif	-2858
▁exc	-2859
▁origin	-2860
▁पि	-2861
▁mechan	-2862
▁Min	-2863
abet	-2864
▁slow	-2865
▁कै	-2866
▁issue	-2867
lands	-2868
▁Part	-2869
▁normal	-2870
▁programs	-2871
▁First	-2872
▁original	-2873
ners	-2874
▁music	-2875
▁movement	-2876
▁sometimes	-2877
▁events	-2878
▁threat	-2879
▁scientists	-2880
▁involved	-2881
▁earth	-2882
dom	-2883
aling	-2884
▁culture	-2885
rior	-2886
▁poll	-2887
▁compan	-2888
imately	-2889
▁Cons	-2890
amed	-2891
▁love	-2892
▁written	-2893
▁fa	-2894
eration	-2895
duc	-2896
▁damage	-2897
▁micro	-2898
▁reported	-2899
▁जन	-2900
▁पु	-2901
▁remov	-2902
know	-2903
▁रु	-2904
▁जाने	-2905
जे	-2906
▁believe	-2907
▁compet	-2908
▁identify	-2909
▁helps	-2910
▁respect	-2911
▁streng	-2912
▁outside	-2913
▁Science	-2914
▁uses	-2915
▁page	-2916
▁doing	-2917
▁electric	-2918
▁sources	-2919
arily	-2920
▁encoura	-2921
बंध	-2922
▁camp	-2923
ials	-2924
light	-2925
ender	-2926
▁Art	-2927
▁cust	-2928
umb	-2929
▁bal	-2930
▁compon	-2931
mar	-2932
▁image	-2933
▁दूस	-2934
▁Har	-2935
▁foods	-2936
osition	-2937
▁Austral	-2938
rie	-2939
elling	-2940
▁correct	-2941
rand	-2942
▁माम	-2943
oor	-2944
▁basic	-2945
▁emot	-2946
aches	-2947
▁ensure	-2948
▁integ	-2949
▁Ag	-2950
▁demon	-2951
ucle	-2952
▁40	-2953
:1	-2954
na	-2955
▁प्रा	-2956
▁virus	-2957
▁ir	-2958
▁forms	-2959
▁--	-2960
▁tax	-2961
▁Ke	-2962
वन	-2963
ban	-2964
जन	-2965
▁lat	-2966
new	-2967
▁particularly	-2968
ून	-2969
▁displ	-2970
र्थ	-2971
▁लेकर	-2972
▁emb	-2973
▁मुख	-2974
▁webs	-2975
hel	-2976
uge	-2977
▁lack	-2978
ises	-2979
▁poor	-2980
▁x	-2981
▁ता	-2982
▁essential	-2983
वाल	-2984
▁produced	-2985
▁El	-2986
ctions	-2987
▁ox	-2988
▁log	-2989
▁China	-2990
▁đ	-2991
▁developing	-2992
▁pict	-2993
▁growing	-2994
▁समा	-2995
▁Gl	-2996
मी	-2997
▁Jan	-2998
▁feet	-2999
▁aff	-3000
idge	-3001
▁attention	-3002
▁harm	-3003
डी	-3004
▁refer	-3005
▁challeng	-3006
▁generally	-3007
▁appl	-3008
▁serious	-3009
िप	-3010
▁forest	-3011
▁write	-3012
्ञ	-3013
▁share	-3014
▁late	-3015
▁select	-3016
्यादा	-3017
▁coun	-3018
▁teachers	-3019
▁0.	-3020
▁consist	-3021
▁extreme	-3022
वं	-3023
▁continue	-3024
▁squ	-3025
▁network	-3026
▁patient	-3027
▁wood	-3028
▁Our	-3029
ached	-3030
son	-3031
▁force	-3032
bor	-3033
ief	-3034
▁attempt	-3035
rated	-3036
▁During	-3037
ops	-3038
bre	-3039
osure	-3040
▁defin	-3041
▁हाल	-3042
ems	-3043
room	-3044
▁implement	-3045
▁dou	-3046
▁Bec	-3047
▁Bo	-3048
▁Ac	-3049
▁सिंह	-3050
fect	-3051
▁numbers	-3052
▁animal	-3053
issions	-3054
▁होगा	-3055
▁आपको	-3056
imin	-3057
▁hyd	-3058
▁चल	-3059
▁24	-3060
▁sust	-3061
ads	-3062
▁Sm	-3063
▁probably	-3064
IS	-3065
IN	-3066
▁Aug	-3067
▁visit	-3068
▁included	-3069
▁Count	-3070
▁attack	-3071
▁पहु	-3072
▁doesn	-3073
▁manufact	-3074
raft	-3075
ervation	-3076
▁My	-3077
isions	-3078
▁Ju	-3079
▁draw	-3080
▁magn	-3081
▁safety	-3082
▁aware	-3083
▁mess	-3084
▁ideas	-3085
▁independ	-3086
▁media	-3087
osing	-3088
ribution	-3089
▁series	-3090
▁takes	-3091
eed	-3092
▁print	-3093
▁सू	-3094
▁therefore	-3095
▁Educ	-3096
ेर	-3097
▁kids	-3098
imum	-3099
▁Child	-3100
▁getting	-3101
▁vacc	-3102
ography	-3103
▁colon	-3104
▁अगर	-3105
set	-3106
▁night	-3107
मंत्री	-3108
ming	-3109
▁concent	-3110
पर	-3111
....	-3112
▁veget	-3113
▁उसके	-3114
▁Tw	-3115
ari	-3116
▁م	-3117
Th	-3118
▁express	-3119
▁tit	-3120
▁sea	-3121
ground	-3122
▁policy	-3123
▁prep	-3124
ino	-3125
क्ति	-3126
धार	-3127
▁someone	-3128
19	-3129
▁daily	-3130
ties	-3131
▁commit	-3132
▁bab	-3133
▁easily	-3134
erg	-3135
▁investig	-3136
▁राष्ट	-3137
▁French	-3138
▁communities	-3139
▁बु	-3140
▁theory	-3141
▁looking	-3142
▁cit	-3143
▁sil	-3144
▁answer	-3145
ैन	-3146
uth	-3147
uary	-3148
ension	-3149
cies	-3150
cil	-3151
▁फिल्म	-3152
▁leaders	-3153
▁thus	-3154
▁international	-3155
▁cover	-3156
▁primary	-3157
▁financ	-3158
▁wall	-3159
▁performance	-3160
▁mother	-3161
oly	-3162
▁instead	-3163
▁ful	-3164
▁mental	-3165
▁vit	-3166
ेत्र	-3167
▁उसे	-3168
▁निक	-3169
irit	-3170
▁sou	-3171
iot	-3172
12	-3173
▁earl	-3174
▁Read	-3175
ided	-3176
नाव	-3177
asons	-3178
vention	-3179
▁ago	-3180
▁होती	-3181
▁tiss	-3182
▁उनकी	-3183
▁Center	-3184
▁estim	-3185
▁Indian	-3186
▁started	-3187
▁cross	-3188
▁difference	-3189
▁tree	-3190
▁allows	-3191
▁warm	-3192
itude	-3193
▁div	-3194
▁diseases	-3195
erson	-3196
▁Reg	-3197
▁civil	-3198
rs	-3199
▁खु	-3200
ying	-3201
▁Since	-3202
▁offer	-3203
▁Tra	-3204
▁added	-3205
▁appropri	-3206
▁*	-3207
▁Sch	-3208
▁eth	-3209
▁town	-3210
▁progress	-3211
▁traditional	-3212
▁घर	-3213
▁quite	-3214
▁instit	-3215
rate	-3216
cell	-3217
▁multiple	-3218
▁जु	-3219
iency	-3220
ोड़	-3221
▁capt	-3222
▁tools	-3223
▁नी	-3224
▁tend	-3225
ror	-3226
▁sold	-3227
▁European	-3228
प्त	-3229
▁fav	-3230
▁tur	-3231
inks	-3232
▁beginning	-3233
▁hy	-3234
▁points	-3235
▁compared	-3236
▁inside	-3237
haps	-3238
▁भारतीय	-3239
एं	-3240
▁books	-3241
lation	-3242
▁सह	-3243
▁Hind	-3244
▁क्यों	-3245
▁eye	-3246
▁dang	-3247
▁humans	-3248
ington	-3249
▁thous	-3250
▁determine	-3251
▁स्व	-3252
ancy	-3253
▁decre	-3254
overy	-3255
ille	-3256
▁achieve	-3257
▁eval	-3258
▁reflect	-3259
where	-3260
▁बताया	-3261
▁Even	-3262
▁कारण	-3263
▁nation	-3264
▁unique	-3265
्रा	-3266
▁companies	-3267
▁(200	-3268
▁Apr	-3269
pe	-3270
पुर	-3271
▁reve	-3272
▁Oct	-3273
▁बीच	-3274
▁scientific	-3275
▁Ant	-3276
▁har	-3277
▁larger	-3278
▁imag	-3279
▁dry	-3280
▁Calif	-3281
▁ई	-3282
्रेस	-3283
▁established	-3284
www	-3285
▁military	-3286
यर	-3287
▁held	-3288
▁4.	-3289
▁quickly	-3290
▁पास	-3291
▁extra	-3292
▁infection	-3293
att	-3294
▁third	-3295
anks	-3296
▁feed	-3297
▁speak	-3298
ims	-3299
ellow	-3300
▁trees	-3301
AN	-3302
ीड	-3303
0,	-3304
▁पार्ट	-3305
क़	-3306
▁altern	-3307
▁अभ	-3308
▁additional	-3309
▁acid	-3310
▁जि	-3311
▁March	-3312
▁क्षेत्र	-3313
▁severe	-3314
▁tri	-3315
ounds	-3316
▁Char	-3317
िवार	-3318
▁1,	-3319
ls	-3320
▁Her	-3321
▁Department	-3322
▁rout	-3323
▁negative	-3324
▁document	-3325
▁critical	-3326
▁hor	-3327
iers	-3328
▁Jes	-3329
▁essay	-3330
▁front	-3331
▁gard	-3332
ift	-3333
▁immedi	-3334
▁active	-3335
-3	-3336
र्ण	-3337
म्म	-3338
एस	-3339
▁although	-3340
elt	-3341
▁Lear	-3342
▁directly	-3343
▁West	-3344
▁क्र	-3345
▁Institute	-3346
ाने	-3347
▁quant	-3348
▁Africa	-3349
nov	-3350
vant	-3351
▁proced	-3352
▁झ	-3353
term	-3354
▁http	-3355
iques	-3356
▁highly	-3357
▁aspect	-3358
▁bit	-3359
▁दौर	-3360
▁History	-3361
olar	-3362
▁वाली	-3363
▁exercise	-3364
▁bad	-3365
▁birth	-3366
abetes	-3367
▁broad	-3368
▁German	-3369
▁21	-3370
▁behind	-3371
▁towards	-3372
▁foot	-3373
भाव	-3374
▁तथा	-3375
▁analy	-3376
▁purpose	-3377
undred	-3378
▁aud	-3379
arr	-3380
▁solar	-3381
▁security	-3382
eks	-3383
लो	-3384
दे	-3385
▁soon	-3386
ON	-3387
▁walk	-3388
joy	-3389
▁लिया	-3390
▁Californ	-3391
useum	-3392
aly	-3393
▁चाहिए	-3394
▁demonstr	-3395
▁custom	-3396
▁Why	-3397
▁families	-3398
ius	-3399
▁useful	-3400
▁host	-3401
क्ट	-3402
▁clin	-3403
▁Russ	-3404
ृत	-3405
▁doctor	-3406
▁पै	-3407
▁Sept	-3408
ulate	-3409
▁hot	-3410
▁Br	-3411
▁Ret	-3412
▁labor	-3413
▁drink	-3414
र्ड	-3415
▁बच्च	-3416
▁शाम	-3417
pite	-3418
▁prior	-3419
▁protein	-3420
▁June	-3421
▁video	-3422
-19	-3423
▁obt	-3424
gency	-3425
cean	-3426
▁central	-3427
▁supply	-3428
▁Cor	-3429
▁वर्ष	-3430
▁fram	-3431
OR	-3432
▁search	-3433
▁stra	-3434
▁values	-3435
▁teaching	-3436
▁stay	-3437
thern	-3438
▁accur	-3439
▁African	-3440
▁Mus	-3441
omet	-3442
▁ग्र	-3443
den	-3444
▁shall	-3445
We	-3446
▁leading	-3447
▁अल	-3448
▁Inc	-3449
▁section	-3450
▁decl	-3451
▁International	-3452
yr	-3453
▁राज्य	-3454
▁minutes	-3455
▁base	-3456
isms	-3457
▁Mon	-3458
▁दर्	-3459
▁California	-3460
▁दोनों	-3461
yond	-3462
”.	-3463
वाद	-3464
▁length	-3465
▁ang	-3466
▁wa	-3467
itis	-3468
▁Sw	-3469
िये	-3470
▁news	-3471
▁August	-3472
▁अच्छ	-3473
▁whose	-3474
IC	-3475
▁capital	-3476
uries	-3477
▁शिक	-3478
▁expect	-3479
ilos	-3480
▁situation	-3481
▁went	-3482
सार	-3483
ription	-3484
ext	-3485
▁features	-3486
▁limited	-3487
▁software	-3488
formation	-3489
iter	-3490
oes	-3491
▁शुरू	-3492
▁card	-3493
▁Sim	-3494
cial	-3495
ूम	-3496
▁करता	-3497
िल्ली	-3498
▁hands	-3499
▁Because	-3500
▁transport	-3501
▁pack	-3502
iber	-3503
▁April	-3504
▁mom	-3505
ोन	-3506
▁Hindi	-3507
lection	-3508
▁influence	-3509
▁contains	-3510
▁elements	-3511
▁lost	-3512
amb	-3513
ara	-3514
ama	-3515
दार	-3516
▁महिला	-3517
मार	-3518
▁habit	-3519
rition	-3520
itch	-3521
▁अव	-3522
hern	-3523
▁seems	-3524
्रीय	-3525
▁strateg	-3526
▁ठ	-3527
ध्य	-3528
pper	-3529
▁Then	-3530
oring	-3531
▁workers	-3532
▁मन	-3533
bol	-3534
▁contribut	-3535
▁application	-3536
▁mount	-3537
-0	-3538
▁बारे	-3539
rogen	-3540
hens	-3541
▁requires	-3542
▁disp	-3543
▁block	-3544
▁यु	-3545
▁Bar	-3546
▁exact	-3547
▁बद	-3548
▁ones	-3549
▁demand	-3550
▁Dav	-3551
▁jud	-3552
▁fight	-3553
▁jo	-3554
▁Gree	-3555
▁आई	-3556
gn	-3557
्ड	-3558
▁ancient	-3559
80	-3560
oming	-3561
uman	-3562
▁July	-3563
▁dark	-3564
hest	-3565
न्न	-3566
fort	-3567
▁thinking	-3568
▁stri	-3569
र्स	-3570
co	-3571
istry	-3572
प्र	-3573
▁got	-3574
con	-3575
▁nucle	-3576
inct	-3577
▁Mc	-3578
que	-3579
▁rates	-3580
ologies	-3581
▁bacteria	-3582
▁एवं	-3583
▁Also	-3584
imal	-3585
▁अपना	-3586
▁importance	-3587
▁capac	-3588
▁enjoy	-3589
▁images	-3590
▁nearly	-3591
▁largest	-3592
निया	-3593
coh	-3594
▁interp	-3595
▁else	-3596
▁financial	-3597
▁#	-3598
▁ord	-3599
▁fast	-3600
▁administ	-3601
▁Wash	-3602
▁protection	-3603
धी	-3604
▁brought	-3605
ira	-3606
▁sn	-3607
▁Jesus	-3608
▁मुख्य	-3609
▁received	-3610
▁solution	-3611
izations	-3612
शी	-3613
ya	-3614
▁Fin	-3615
▁weeks	-3616
दर्	-3617
▁hundred	-3618
▁described	-3619
iles	-3620
rote	-3621
In	-3622
▁website	-3623
▁becomes	-3624
estic	-3625
▁carry	-3626
▁den	-3627
▁install	-3628
ाई	-3629
▁adults	-3630
▁except	-3631
▁इस्	-3632
ico	-3633
▁fit	-3634
▁Serv	-3635
▁devices	-3636
▁Let	-3637
ields	-3638
▁ऐसे	-3639
▁William	-3640
▁mill	-3641
orthern	-3642
▁processes	-3643
▁pen	-3644
▁costs	-3645
▁रो	-3646
▁agree	-3647
▁private	-3648
▁speed	-3649
▁table	-3650
▁lines	-3651
wise	-3652
▁stru	-3653
ica	-3654
▁leaves	-3655
▁agricult	-3656
▁son	-3657
atur	-3658
▁located	-3659
▁waste	-3660
cks	-3661
▁game	-3662
▁decision	-3663
▁veh	-3664
▁River	-3665
mary	-3666
60	-3667
▁sustain	-3668
▁respond	-3669
ulated	-3670
सर	-3671
mission	-3672
▁ep	-3673
rag	-3674
▁summer	-3675
vest	-3676
▁adop	-3677
▁cou	-3678
▁friends	-3679
ुक	-3680
____	-3681
▁ult	-3682
▁places	-3683
▁Trans	-3684
▁mole	-3685
▁north	-3686
▁reach	-3687
▁अं	-3688
equ	-3689
▁communication	-3690
ipment	-3691
entially	-3692
▁Over	-3693
स्तान	-3694
▁Press	-3695
▁laws	-3696
▁President	-3697
▁cred	-3698
▁स्थित	-3699
▁goal	-3700
inese	-3701
ियो	-3702
▁IS	-3703
▁Inst	-3704
load	-3705
▁कंप	-3706
▁Use	-3707
▁sites	-3708
▁appropriate	-3709
▁England	-3710
▁tests	-3711
▁typically	-3712
▁rare	-3713
EN	-3714
▁eyes	-3715
▁Americans	-3716
▁establish	-3717
▁property	-3718
▁Associ	-3719
▁testing	-3720
AC	-3721
▁जैसे	-3722
IV	-3723
▁दिल्ली	-3724
40	-3725
▁crop	-3726
▁adapt	-3727
▁memory	-3728
▁season	-3729
▁mix	-3730
▁Techn	-3731
oud	-3732
▁adj	-3733
odies	-3734
▁remain	-3735
▁rapid	-3736
▁deal	-3737
▁told	-3738
▁projects	-3739
▁Day	-3740
▁pan	-3741
iar	-3742
▁efforts	-3743
sect	-3744
used	-3745
▁cultural	-3746
▁south	-3747
▁Mod	-3748
▁ऐसा	-3749
▁techniques	-3750
▁egg	-3751
▁Canada	-3752
▁advant	-3753
▁Just	-3754
▁accom	-3755
▁Govern	-3756
▁People	-3757
ेंद्र	-3758
झे	-3759
idents	-3760
▁mention	-3761
▁Bi	-3762
▁born	-3763
▁surround	-3764
rael	-3765
ula	-3766
▁ten	-3767
▁teeth	-3768
bit	-3769
come	-3770
ford	-3771
itect	-3772
▁vict	-3773
▁High	-3774
▁gives	-3775
▁Red	-3776
▁beaut	-3777
▁father	-3778
ipl	-3779
▁Prog	-3780
▁creating	-3781
med	-3782
itable	-3783
▁remains	-3784
▁himself	-3785
▁Dis	-3786
iece	-3787
पू	-3788
▁web	-3789
▁Are	-3790
▁Another	-3791
▁September	-3792
ibrary	-3793
▁stage	-3794
25	-3795
▁max	-3796
▁breat	-3797
▁चुनाव	-3798
ondon	-3799
कारी	-3800
▁Each	-3801
uous	-3802
ament	-3803
▁पार्टी	-3804
izes	-3805
▁citiz	-3806
▁Christian	-3807
▁Education	-3808
त्म	-3809
15	-3810
▁cold	-3811
▁religious	-3812
ceed	-3813
year	-3814
लों	-3815
oke	-3816
cles	-3817
▁basis	-3818
▁जर	-3819
▁cool	-3820
▁king	-3821
दान	-3822
▁behavi	-3823
त्व	-3824
▁applications	-3825
resh	-3826
▁final	-3827
▁Cong	-3828
ype	-3829
▁monitor	-3830
ज्ञ	-3831
▁died	-3832
▁coast	-3833
▁आय	-3834
rim	-3835
▁center	-3836
▁Sur	-3837
▁cam	-3838
▁डॉ	-3839
▁examples	-3840
▁eating	-3841
hi	-3842
▁January	-3843
▁60	-3844
cember	-3845
▁expected	-3846
▁Pol	-3847
arian	-3848
▁autom	-3849
▁teacher	-3850
▁anti	-3851
ED	-3852
▁أ	-3853
▁Once	-3854
▁room	-3855
▁Feb	-3856
▁calcul	-3857
▁October	-3858
back	-3859
It	-3860
ogen	-3861
▁der	-3862
▁saw	-3863
▁dead	-3864
▁bott	-3865
▁अन्य	-3866
▁sugar	-3867
▁reasons	-3868
▁affected	-3869
ham	-3870
ran	-3871
▁हू	-3872
▁Church	-3873
▁तीन	-3874
▁therapy	-3875
▁construction	-3876
head	-3877
▁command	-3878
▁gradu	-3879
life	-3880
▁Pat	-3881
▁miles	-3882
▁practices	-3883
▁fuel	-3884
▁Great	-3885
▁cele	-3886
▁ऊ	-3887
▁depend	-3888
▁responsible	-3889
▁connect	-3890
▁screen	-3891
illing	-3892
मु	-3893
▁code	-3894
▁digital	-3895
▁दौरान	-3896
▁anything	-3897
▁Develop	-3898
▁Park	-3899
हार	-3900
▁पहुंच	-3901
फी	-3902
▁Chinese	-3903
16	-3904
▁seek	-3905
▁middle	-3906
▁followed	-3907
aught	-3908
cohol	-3909
▁bul	-3910
see	-3911
▁older	-3912
▁cru	-3913
ding	-3914
▁device	-3915
▁trade	-3916
▁yourself	-3917
▁und	-3918
▁sequ	-3919
ony	-3920
uments	-3921
▁hope	-3922
▁controll	-3923
▁Journal	-3924
▁Commun	-3925
▁ice	-3926
▁benefit	-3927
▁इसे	-3928
rab	-3929
▁गां	-3930
▁everything	-3931
▁receive	-3932
ellig	-3933
▁195	-3934
ribute	-3935
ovember	-3936
mosp	-3937
▁objects	-3938
▁pet	-3939
▁recently	-3940
▁consequ	-3941
जू	-3942
▁fear	-3943
▁hous	-3944
aul	-3945
anish	-3946
▁communic	-3947
हाँ	-3948
▁mid	-3949
book	-3950
eal	-3951
▁Washington	-3952
▁City	-3953
▁legal	-3954
▁रुप	-3955
strial	-3956
water	-3957
IT	-3958
▁nothing	-3959
▁providing	-3960
▁स्क	-3961
▁conflic	-3962
▁forces	-3963
▁समझ	-3964
unch	-3965
▁choose	-3966
▁+	-3967
▁beyond	-3968
▁opportunity	-3969
omb	-3970
▁यहां	-3971
▁193	-3972
▁professional	-3973
apter	-3974
▁enh	-3975
wor	-3976
▁Prof	-3977
▁exposure	-3978
ogle	-3979
▁खिला	-3980
▁System	-3981
▁weather	-3982
▁Ec	-3983
uit	-3984
lamm	-3985
▁guid	-3986
▁rock	-3987
▁आपके	-3988
▁hyp	-3989
▁Israel	-3990
▁currently	-3991
▁recommend	-3992
▁date	-3993
▁models	-3994
▁Water	-3995
vert	-3996
ताओं	-3997
ेंगे	-3998
▁economy	-3999
▁asked	-4000
ेज	-4001
▁इं	-4002
▁diabetes	-4003
▁overall	-4004
▁instru	-4005
ought	-4006
▁equipment	-4007
▁5.	-4008
▁sett	-4009
▁occurs	-4010
);	-4011
▁won	-4012
टना	-4013
▁प्रदेश	-4014
स्था	-4015
▁Ma	-4016
▁ज्यादा	-4017
▁smaller	-4018
▁shape	-4019
rew	-4020
sec	-4021
▁differences	-4022
▁Vir	-4023
▁via	-4024
▁degree	-4025
time	-4026
▁कॉ	-4027
iples	-4028
▁rain	-4029
▁predict	-4030
▁Black	-4031
▁everyone	-4032
▁federal	-4033
▁alone	-4034
ech	-4035
▁Arch	-4036
▁Cur	-4037
rees	-4038
PA	-4039
enge	-4040
▁beg	-4041
rick	-4042
▁spirit	-4043
▁strength	-4044
▁pregn	-4045
▁Mex	-4046
▁परि	-4047
▁visual	-4048
▁successful	-4049
▁constit	-4050
▁measures	-4051
णा	-4052
▁rise	-4053
▁trying	-4054
era	-4055
21	-4056
tery	-4057
▁कांग	-4058
▁rob	-4059
ospital	-4060
▁श्री	-4061
▁ت	-4062
▁swe	-4063
ests	-4064
▁woman	-4065
▁location	-4066
▁Under	-4067
▁London	-4068
▁organization	-4069
▁Tod	-4070
▁birds	-4071
ंब	-4072
▁insp	-4073
lin	-4074
▁unc	-4075
▁शामिल	-4076
▁commonly	-4077
▁wrote	-4078
▁Don	-4079
▁Cour	-4080
▁East	-4081
▁allowed	-4082
▁December	-4083
airs	-4084
ste	-4085
▁categ	-4086
ाली	-4087
▁isn	-4088
▁winter	-4089
▁dire	-4090
▁standards	-4091
▁completely	-4092
टा	-4093
▁Val	-4094
▁General	-4095
▁poly	-4096
▁drugs	-4097
▁संग	-4098
▁earlier	-4099
men	-4100
▁goes	-4101
amic	-4102
लय	-4103
▁file	-4104
▁constant	-4105
iest	-4106
▁collection	-4107
uff	-4108
rief	-4109
▁perfect	-4110
▁approx	-4111
▁display	-4112
▁DNA	-4113
▁steps	-4114
ingu	-4115
आई	-4116
rig	-4117
▁user	-4118
▁leave	-4119
▁named	-4120
▁former	-4121
▁effort	-4122
नि	-4123
▁electr	-4124
▁virt	-4125
▁scale	-4126
ensity	-4127
bur	-4128
▁context	-4129
▁joint	-4130
▁powerful	-4131
▁November	-4132
▁देने	-4133
▁reduced	-4134
▁rules	-4135
▁ball	-4136
▁eight	-4137
ibly	-4138
▁तै	-4139
▁purch	-4140
wide	-4141
▁hon	-4142
▁applied	-4143
oe	-4144
▁member	-4145
▁placed	-4146
▁maintain	-4147
▁mob	-4148
▁genetic	-4149
▁identified	-4150
▁tox	-4151
▁historical	-4152
▁track	-4153
ss	-4154
▁mal	-4155
▁enter	-4156
▁occup	-4157
▁billion	-4158
▁continued	-4159
▁Che	-4160
▁interesting	-4161
सान	-4162
▁अग	-4163
▁mis	-4164
▁exec	-4165
▁sch	-4166
▁sect	-4167
▁County	-4168
▁बो	-4169
जर	-4170
▁road	-4171
▁Aut	-4172
▁Law	-4173
▁discovered	-4174
▁22	-4175
▁users	-4176
▁ओर	-4177
▁जाती	-4178
ocr	-4179
▁commerc	-4180
▁ing	-4181
▁bra	-4182
▁majority	-4183
hemat	-4184
▁compar	-4185
18	-4186
▁coming	-4187
▁acqu	-4188
ocks	-4189
▁fruit	-4190
▁cra	-4191
▁Their	-4192
▁immune	-4193
▁होते	-4194
▁Coun	-4195
▁neigh	-4196
▁presence	-4197
▁emp	-4198
▁Thus	-4199
▁gold	-4200
▁assign	-4201
गत	-4202
▁Conf	-4203
acters	-4204
",	-4205
ruary	-4206
▁pow	-4207
ेड	-4208
ords	-4209
▁rich	-4210
▁Roman	-4211
mitted	-4212
rieved	-4213
oration	-4214
reet	-4215
ev	-4216
13	-4217
▁cook	-4218
▁(201	-4219
▁तु	-4220
iable	-4221
▁situ	-4222
न्द	-4223
▁machine	-4224
▁कांग्रेस	-4225
▁status	-4226
▁rule	-4227
▁Prot	-4228
▁wond	-4229
edia	-4230
▁गो	-4231
▁miss	-4232
ची	-4233
▁planet	-4234
pan	-4235
aled	-4236
वल	-4237
▁La	-4238
▁hair	-4239
▁showed	-4240
AL	-4241
▁सुर	-4242
▁version	-4243
▁church	-4244
▁San	-4245
enty	-4246
edom	-4247
▁vot	-4248
▁formed	-4249
ियां	-4250
▁Spec	-4251
▁fair	-4252
▁nutri	-4253
▁limit	-4254
▁Rel	-4255
▁destro	-4256
▁mouth	-4257
▁properties	-4258
▁util	-4259
known	-4260
▁philos	-4261
▁cry	-4262
▁House	-4263
▁signs	-4264
▁patterns	-4265
▁फै	-4266
▁ली	-4267
▁acad	-4268
▁पाकि	-4269
▁increases	-4270
aters	-4271
तिक	-4272
▁court	-4273
▁factor	-4274
चना	-4275
▁टीम	-4276
▁23	-4277
che	-4278
▁mig	-4279
aste	-4280
▁capacity	-4281
hab	-4282
▁fully	-4283
can	-4284
▁gave	-4285
माल	-4286
▁dat	-4287
▁moment	-4288
craft	-4289
▁इससे	-4290
▁teach	-4291
▁ब्र	-4292
▁baby	-4293
▁assist	-4294
cious	-4295
▁asse	-4296
gery	-4297
hy	-4298
▁tou	-4299
▁atmosp	-4300
▁Ro	-4301
▁symbol	-4302
▁rat	-4303
▁characters	-4304
हत	-4305
ocol	-4306
▁incor	-4307
▁antib	-4308
▁Every	-4309
70	-4310
▁Children	-4311
aid	-4312
▁tissue	-4313
14	-4314
▁choice	-4315
▁Lat	-4316
bl	-4317
▁strugg	-4318
▁relatively	-4319
▁TH	-4320
▁See	-4321
▁gir	-4322
off	-4323
▁female	-4324
▁illness	-4325
▁cities	-4326
ado	-4327
▁actions	-4328
▁note	-4329
▁mut	-4330
ees	-4331
orge	-4332
iring	-4333
▁promot	-4334
वास	-4335
▁पूर्व	-4336
▁efficient	-4337
▁emissions	-4338
▁Australia	-4339
▁Environment	-4340
▁evolution	-4341
एम	-4342
▁perhaps	-4343
▁unit	-4344
▁Germany	-4345
▁Society	-4346
phas	-4347
▁मुझे	-4348
aint	-4349
▁तब	-4350
▁title	-4351
▁UK	-4352
▁stories	-4353
▁susp	-4354
▁task	-4355
related	-4356
▁remember	-4357
▁गा	-4358
▁anx	-4359
lor	-4360
gypt	-4361
▁illust	-4362
odes	-4363
pped	-4364
▁पद	-4365
▁2018	-4366
▁root	-4367
▁convers	-4368
-4	-4369
alt	-4370
▁vo	-4371
▁effic	-4372
▁belief	-4373
resp	-4374
▁components	-4375
ero	-4376
▁पिछ	-4377
▁staff	-4378
more	-4379
▁vill	-4380
▁Today	-4381
▁worth	-4382
▁construct	-4383
encies	-4384
▁stim	-4385
क्रम	-4386
▁changed	-4387
यी	-4388
▁Public	-4389
▁educational	-4390
▁ب	-4391
▁appears	-4392
▁peace	-4393
▁बैठ	-4394
udd	-4395
▁didn	-4396
▁tele	-4397
▁existing	-4398
▁transfer	-4399
▁Green	-4400
▁forward	-4401
▁Union	-4402
▁architect	-4403
rome	-4404
22	-4405
▁qual	-4406
▁टे	-4407
▁February	-4408
▁price	-4409
▁Ang	-4410
▁इसी	-4411
▁consumption	-4412
▁piece	-4413
▁moving	-4414
▁experim	-4415
▁expand	-4416
▁equal	-4417
▁names	-4418
▁Phil	-4419
▁style	-4420
▁contract	-4421
aign	-4422
▁ast	-4423
▁functions	-4424
ygen	-4425
▁innov	-4426
emy	-4427
ternal	-4428
ेष	-4429
▁offers	-4430
ida	-4431
▁mo	-4432
▁Jewish	-4433
▁News	-4434
▁alcohol	-4435
▁Inter	-4436
inated	-4437
जार	-4438
▁challenges	-4439
▁मोदी	-4440
▁element	-4441
”,	-4442
▁opportunities	-4443
▁absor	-4444
चे	-4445
▁balance	-4446
ोर्ट	-4447
rehens	-4448
▁France	-4449
▁distance	-4450
▁guide	-4451
▁fresh	-4452
▁direction	-4453
aj	-4454
iate	-4455
▁मामले	-4456
▁giving	-4457
▁box	-4458
▁pp	-4459
▁reports	-4460
▁options	-4461
▁डि	-4462
▁शु	-4463
▁worked	-4464
▁star	-4465
ube	-4466
iences	-4467
▁उठ	-4468
omas	-4469
ोष	-4470
abilities	-4471
▁instance	-4472
▁resistance	-4473
▁weak	-4474
▁repe	-4475
EC	-4476
लिए	-4477
iful	-4478
▁Av	-4479
द्य	-4480
rupt	-4481
▁detect	-4482
▁huge	-4483
▁foreign	-4484
▁Dec	-4485
▁आम	-4486
▁observed	-4487
▁Rem	-4488
iny	-4489
▁mission	-4490
▁evalu	-4491
▁map	-4492
▁income	-4493
▁picture	-4494
▁Students	-4495
▁garden	-4496
care	-4497
▁significantly	-4498
▁आरो	-4499
▁findings	-4500
धा	-4501
bed	-4502
▁river	-4503
▁UN	-4504
▁लड़	-4505
▁plastic	-4506
▁wrong	-4507
▁blue	-4508
▁strategies	-4509
force	-4510
▁Mat	-4511
ifically	-4512
▁collabor	-4513
ession	-4514
▁Colle	-4515
house	-4516
▁و	-4517
▁feature	-4518
▁James	-4519
▁fix	-4520
▁Association	-4521
▁thousands	-4522
▁friend	-4523
▁प्रधान	-4524
▁Retrieved	-4525
▁iron	-4526
▁aim	-4527
▁milk	-4528
▁Pal	-4529
▁पढ़	-4530
90	-4531
▁80	-4532
icip	-4533
▁mer	-4534
▁किए	-4535
▁राष्ट्र	-4536
▁उनका	-4537
▁breast	-4538
▁instruct	-4539
orage	-4540
▁regions	-4541
त्रा	-4542
▁निय	-4543
ching	-4544
▁Work	-4545
oma	-4546
3)	-4547
▁Egypt	-4548
ेशन	-4549
▁vision	-4550
▁suggests	-4551
ux	-4552
17	-4553
▁famous	-4554
▁divid	-4555
▁attract	-4556
▁explain	-4557
OS	-4558
▁Congress	-4559
hors	-4560
▁office	-4561
▁Therefore	-4562
▁planning	-4563
▁believed	-4564
▁watch	-4565
▁citizens	-4566
▁Social	-4567
▁शा	-4568
▁muscle	-4569
▁running	-4570
▁survey	-4571
ald	-4572
▁native	-4573
▁defined	-4574
▁assum	-4575
asion	-4576
▁gain	-4577
▁disorder	-4578
▁details	-4579
▁Mor	-4580
igen	-4581
iant	-4582
rec	-4583
ेस	-4584
▁Sub	-4585
apers	-4586
▁bound	-4587
▁जग	-4588
▁Bra	-4589
तों	-4590
▁carried	-4591
▁novel	-4592
िता	-4593
▁chance	-4594
▁male	-4595
isation	-4596
▁bone	-4597
▁Internet	-4598
▁eventually	-4599
▁कभी	-4600
▁items	-4601
▁excess	-4602
▁insect	-4603
uls	-4604
▁Food	-4605
II	-4606
osa	-4607
▁liqu	-4608
▁presented	-4609
ky	-4610
▁Mary	-4611
▁favor	-4612
▁क्योंकि	-4613
▁fert	-4614
▁suppl	-4615
ias	-4616
nes	-4617
▁sac	-4618
▁heavy	-4619
▁Western	-4620
▁spect	-4621
▁treated	-4622
▁alg	-4623
wards	-4624
▁Lord	-4625
▁seven	-4626
▁plans	-4627
▁Bu	-4628
▁highest	-4629
▁ل	-4630
▁rot	-4631
▁extremely	-4632
▁कहना	-4633
▁Vol	-4634
▁पुर	-4635
▁clinical	-4636
▁passed	-4637
▁experiences	-4638
▁सकती	-4639
▁separate	-4640
▁classroom	-4641
▁Bel	-4642
▁Mich	-4643
▁decades	-4644
▁explore	-4645
part	-4646
▁जिन	-4647
▁structures	-4648
▁celebr	-4649
bal	-4650
▁apply	-4651
▁esc	-4652
DA	-4653
▁goals	-4654
▁2010	-4655
▁हों	-4656
▁technologies	-4657
ूट	-4658
▁Net	-4659
▁requirements	-4660
▁spring	-4661
▁Ob	-4662
eces	-4663
▁figure	-4664
चित	-4665
▁Rev	-4666
▁bank	-4667
▁easier	-4668
lim	-4669
▁organizations	-4670
▁commercial	-4671
▁glass	-4672
pris	-4673
▁Plan	-4674
▁phen	-4675
▁David	-4676
▁अध्य	-4677
▁exhib	-4678
▁generation	-4679
▁ट्र	-4680
▁2012	-4681
▁Medic	-4682
▁happen	-4683
ET	-4684
ographic	-4685
ares	-4686
▁Human	-4687
▁depression	-4688
▁28	-4689
▁medicine	-4690
▁topic	-4691
iding	-4692
AM	-4693
▁immediately	-4694
▁remove	-4695
EM	-4696
do	-4697
▁pick	-4698
▁journal	-4699
▁विश्व	-4700
iance	-4701
▁urban	-4702
▁board	-4703
ken	-4704
▁Using	-4705
स्प	-4706
▁industrial	-4707
▁sem	-4708
▁26	-4709
▁hom	-4710
▁conducted	-4711
▁sample	-4712
▁dyn	-4713
asks	-4714
▁save	-4715
ulum	-4716
▁emphas	-4717
ologist	-4718
▁voc	-4719
दन	-4720
ेंट	-4721
▁27	-4722
▁जानकारी	-4723
▁पड़	-4724
5%	-4725
St	-4726
zz	-4727
ोजना	-4728
र्ष	-4729
uing	-4730
cop	-4731
▁actual	-4732
तु	-4733
माण	-4734
▁release	-4735
▁Japanese	-4736
▁agg	-4737
▁cand	-4738
ेन	-4739
▁intellig	-4740
▁electricity	-4741
▁Di	-4742
▁Web	-4743
▁Sam	-4744
▁contrast	-4745
▁slight	-4746
▁Program	-4747
▁अलग	-4748
PS	-4749
▁अनुसार	-4750
▁learned	-4751
▁vary	-4752
.;	-4753
▁लोक	-4754
▁Gra	-4755
वान	-4756
enth	-4757
▁distribution	-4758
▁Air	-4759
▁Found	-4760
▁reality	-4761
▁literature	-4762
▁190	-4763
▁please	-4764
▁neu	-4765
▁faith	-4766
▁resource	-4767
▁bed	-4768
▁fig	-4769
▁पत्र	-4770
met	-4771
▁mag	-4772
स्क	-4773
plications	-4774
▁challenge	-4775
▁approximately	-4776
▁serve	-4777
▁experiment	-4778
▁छा	-4779
▁performed	-4780
▁oxygen	-4781
imens	-4782
▁truth	-4783
▁introduced	-4784
cast	-4785
▁recommended	-4786
▁records	-4787
▁Two	-4788
▁Spanish	-4789
ophy	-4790
▁populations	-4791
This	-4792
erate	-4793
change	-4794
▁ves	-4795
▁perspect	-4796
▁mel	-4797
▁cycle	-4798
iated	-4799
▁metal	-4800
▁College	-4801
▁temperatures	-4802
▁letter	-4803
▁speech	-4804
▁Further	-4805
▁connected	-4806
▁Port	-4807
▁president	-4808
▁kid	-4809
char	-4810
▁detailed	-4811
▁nutrition	-4812
▁plat	-4813
-5	-4814
▁sexual	-4815
▁decisions	-4816
▁legis	-4817
▁Inf	-4818
▁violence	-4819
▁2011	-4820
▁alternative	-4821
▁दा	-4822
▁पूरी	-4823
▁चौ	-4824
▁aspects	-4825
▁graph	-4826
▁Off	-4827
▁तैय	-4828
▁Phys	-4829
ager	-4830
▁bodies	-4831
ij	-4832
▁2,	-4833
▁Council	-4834
▁कप	-4835
tical	-4836
▁Rober	-4837
Wh	-4838
▁becoming	-4839
▁reference	-4840
▁Organ	-4841
▁email	-4842
▁moved	-4843
▁पानी	-4844
▁stream	-4845
antic	-4846
▁interested	-4847
▁6.	-4848
▁organic	-4849
raw	-4850
order	-4851
▁vitamin	-4852
▁compl	-4853
▁released	-4854
▁causing	-4855
▁trou	-4856
▁estimated	-4857
▁bottom	-4858
▁combination	-4859
cont	-4860
त्या	-4861
clus	-4862
▁opin	-4863
ously	-4864
▁ign	-4865
▁व्या	-4866
▁disorders	-4867
▁gene	-4868
▁जीवन	-4869
▁statement	-4870
र्क	-4871
▁Som	-4872
▁chronic	-4873
▁George	-4874
lick	-4875
▁household	-4876
▁widely	-4877
▁buy	-4878
▁500	-4879
▁solutions	-4880
▁trust	-4881
▁party	-4882
▁college	-4883
gal	-4884
▁film	-4885
rant	-4886
uses	-4887
▁store	-4888
ulf	-4889
ताब	-4890
ष्ठ	-4891
वाई	-4892
▁Test	-4893
▁characteristics	-4894
▁ded	-4895
▁186	-4896
▁चे	-4897
▁2014	-4898
▁prepar	-4899
▁operations	-4900
▁failure	-4901
bi	-4902
ंदी	-4903
▁जारी	-4904
▁resulting	-4905
ingly	-4906
▁independent	-4907
▁70	-4908
▁sav	-4909
▁mic	-4910
▁nuclear	-4911
▁Def	-4912
▁Hel	-4913
▁Mark	-4914
▁participants	-4915
icial	-4916
▁numerous	-4917
othes	-4918
▁ع	-4919
ructure	-4920
Ch	-4921
▁notes	-4922
▁आर	-4923
▁shap	-4924
▁flood	-4925
▁सामने	-4926
crib	-4927
tee	-4928
ressive	-4929
porary	-4930
▁संबंध	-4931
▁पाकिस्तान	-4932
▁NAS	-4933
▁divers	-4934
▁जै	-4935
raction	-4936
▁वै	-4937
▁buildings	-4938
ped	-4939
za	-4940
▁Government	-4941
▁destroy	-4942
▁frequently	-4943
▁fields	-4944
▁ST	-4945
▁90	-4946
▁Tur	-4947
▁changing	-4948
▁drop	-4949
▁homes	-4950
▁About	-4951
▁thr	-4952
▁भर	-4953
ollow	-4954
▁Development	-4955
▁याद	-4956
▁Fore	-4957
elines	-4958
unction	-4959
anch	-4960
200	-4961
▁tour	-4962
▁dogs	-4963
▁अस	-4964
roph	-4965
िले	-4966
▁killed	-4967
▁doub	-4968
▁clearly	-4969
▁reducing	-4970
▁Ev	-4971
▁univers	-4972
▁Greek	-4973
▁prefer	-4974
▁burn	-4975
▁assessment	-4976
▁दें	-4977
▁relationships	-4978
▁जाते	-4979
▁Its	-4980
▁risks	-4981
ologists	-4982
▁wanted	-4983
ios	-4984
▁pi	-4985
▁minor	-4986
▁Mal	-4987
▁Paul	-4988
rm	-4989
▁policies	-4990
इट	-4991
▁इला	-4992
▁starting	-4993
▁transl	-4994
tered	-4995
▁du	-4996
▁drive	-4997
▁inflamm	-4998
▁setting	-4999
▁initial	-5000
ognitive	-5001
▁connection	-5002
ilit	-5003
▁क़	-5004
▁dri	-5005
▁trig	-5006
cular	-5007
▁2013	-5008
▁upper	-5009
्‍	-5010
▁internal	-5011
▁tooth	-5012
▁Both	-5013
▁दर	-5014
▁अभी	-5015
तेमाल	-5016
78	-5017
▁इसका	-5018
▁ready	-5019
rows	-5020
▁gets	-5021
▁layer	-5022
▁discussion	-5023
▁Court	-5024
▁Tex	-5025
▁arm	-5026
णी	-5027
works	-5028
ta	-5029
▁counter	-5030
2)	-5031
▁technique	-5032
erences	-5033
▁campaign	-5034
▁Republic	-5035
hetic	-5036
▁इसलिए	-5037
▁Like	-5038
▁pal	-5039
धिक	-5040
▁शिक्ष	-5041
olid	-5042
SA	-5043
▁tim	-5044
▁covered	-5045
▁उसकी	-5046
▁Sy	-5047
▁upd	-5048
▁option	-5049
▁surgery	-5050
▁thick	-5051
▁Project	-5052
▁exactly	-5053
99	-5054
▁lived	-5055
▁authors	-5056
▁distinct	-5057
▁territ	-5058
roup	-5059
▁ची	-5060
▁horm	-5061
rest	-5062
▁isol	-5063
▁message	-5064
atically	-5065
ortion	-5066
▁मार्	-5067
rog	-5068
urance	-5069
▁injury	-5070
▁दुनिया	-5071
ault	-5072
▁feeling	-5073
▁sand	-5074
anging	-5075
▁ocean	-5076
▁anxiety	-5077
key	-5078
onds	-5079
essor	-5080
▁होगी	-5081
▁anyone	-5082
▁Ref	-5083
amental	-5084
▁hear	-5085
▁Dem	-5086
ii	-5087
erved	-5088
▁referred	-5089
▁partners	-5090
▁बनाने	-5091
▁बड़ी	-5092
▁storage	-5093
24	-5094
olved	-5095
la	-5096
▁seed	-5097
▁radio	-5098
▁इस्तेमाल	-5099
▁उत्तर	-5100
▁काफी	-5101
ST	-5102
▁Bas	-5103
pping	-5104
▁appe	-5105
▁Post	-5106
▁mostly	-5107
▁खेल	-5108
▁noted	-5109
▁vessel	-5110
▁क्ल	-5111
▁load	-5112
▁creation	-5113
iveness	-5114
▁seeds	-5115
▁जाएगा	-5116
▁removed	-5117
पन	-5118
▁दिखा	-5119
▁Rich	-5120
▁2017	-5121
▁cris	-5122
▁replace	-5123
▁आने	-5124
▁volume	-5125
▁happens	-5126
▁involves	-5127
▁Sun	-5128
▁degrees	-5129
▁confirm	-5130
▁2015	-5131
▁Cath	-5132
▁turned	-5133
▁background	-5134
▁regarding	-5135
▁infections	-5136
▁Museum	-5137
करण	-5138
▁Mr	-5139
▁click	-5140
▁helped	-5141
ieties	-5142
▁properly	-5143
▁fine	-5144
▁advanced	-5145
▁incorpor	-5146
▁Step	-5147
▁units	-5148
▁games	-5149
▁freedom	-5150
ंबर	-5151
्यालय	-5152
▁classes	-5153
ीर	-5154
▁annual	-5155
▁Ben	-5156
▁trend	-5157
▁god	-5158
▁2016	-5159
▁पिछले	-5160
▁circum	-5161
▁elimin	-5162
▁core	-5163
uration	-5164
▁follows	-5165
▁experts	-5166
▁unf	-5167
▁finding	-5168
▁conv	-5169
▁Mac	-5170
▁स्प	-5171
▁करे	-5172
▁reprodu	-5173
मे	-5174
ैंड	-5175
▁दूसरे	-5176
▁हाथ	-5177
▁physic	-5178
▁diss	-5179
▁output	-5180
▁vul	-5181
osystem	-5182
▁profession	-5183
ोध	-5184
▁encourage	-5185
जूद	-5186
▁tum	-5187
kin	-5188
▁jour	-5189
शा	-5190
▁religion	-5191
pat	-5192
▁genes	-5193
▁die	-5194
▁सफ	-5195
▁trib	-5196
▁dangerous	-5197
▁principles	-5198
भाग	-5199
▁खा	-5200
▁राम	-5201
▁math	-5202
▁leads	-5203
▁advantage	-5204
▁आगे	-5205
▁Second	-5206
▁NASA	-5207
▁Make	-5208
▁excell	-5209
ndrome	-5210
▁exposed	-5211
▁मत	-5212
23	-5213
▁scen	-5214
▁Mount	-5215
▁चार	-5216
▁Up	-5217
▁battle	-5218
पाल	-5219
▁Hen	-5220
ुक्त	-5221
ping	-5222
riculum	-5223
▁brief	-5224
▁expression	-5225
▁whom	-5226
▁आए	-5227
▁adjust	-5228
▁nor	-5229
ago	-5230
▁2009	-5231
▁dram	-5232
▁transform	-5233
▁Get	-5234
▁mentioned	-5235
▁sort	-5236
ception	-5237
▁comprehens	-5238
▁emotional	-5239
▁विशेष	-5240
des	-5241
och	-5242
▁Met	-5243
▁mathemat	-5244
▁lung	-5245
oyal	-5246
ortunately	-5247
ख्या	-5248
▁https	-5249
पति	-5250
▁Ser	-5251
श्य	-5252
▁व्यक्ति	-5253
▁academic	-5254
ीस	-5255
सभा	-5256
▁conflict	-5257
▁इत	-5258
▁pric	-5259
▁relevant	-5260
▁White	-5261
▁involve	-5262
▁मंत्री	-5263
▁reb	-5264
▁जिसमें	-5265
त्य	-5266
▁Elect	-5267
षा	-5268
RE	-5269
urt	-5270
▁race	-5271
▁radiation	-5272
▁synt	-5273
▁amounts	-5274
-8	-5275
ander	-5276
▁10.	-5277
▁meeting	-5278
▁solid	-5279
▁promote	-5280
▁grade	-5281
▁महा	-5282
tes	-5283
mat	-5284
riage	-5285
▁जगह	-5286
▁belong	-5287
▁meat	-5288
ressed	-5289
▁depending	-5290
▁मेरे	-5291
▁Class	-5292
▁operation	-5293
▁इसमें	-5294
▁अधिकार	-5295
▁spot	-5296
▁प्रधानमंत्री	-5297
तन	-5298
▁Data	-5299
▁helping	-5300
▁previously	-5301
▁HIV	-5302
▁determined	-5303
▁Mexico	-5304
orial	-5305
▁linked	-5306
▁defic	-5307
▁heard	-5308
▁experienced	-5309
▁मद	-5310
itz	-5311
ishing	-5312
▁Sum	-5313
▁Scient	-5314
▁kept	-5315
▁नई	-5316
▁calc	-5317
▁Ber	-5318
▁आरोप	-5319
ria	-5320
umn	-5321
inter	-5322
▁2008	-5323
▁expert	-5324
▁influen	-5325
▁Cle	-5326
▁grass	-5327
▁डाल	-5328
▁Bro	-5329
▁pun	-5330
▁mist	-5331
▁हे	-5332
▁हमारे	-5333
▁landsc	-5334
▁manage	-5335
mark	-5336
▁round	-5337
▁Op	-5338
▁gender	-5339
▁कुमार	-5340
लि	-5341
▁motor	-5342
▁परिवार	-5343
क्टर	-5344
▁शहर	-5345
▁2020	-5346
▁interpret	-5347
▁saying	-5348
▁reaction	-5349
▁processing	-5350
▁सुन	-5351
▁definition	-5352
ategy	-5353
▁effectively	-5354
▁Central	-5355
▁beautiful	-5356
stitution	-5357
▁island	-5358
▁farmers	-5359
place	-5360
▁Je	-5361
▁grant	-5362
▁Asia	-5363
rum	-5364
▁manufacture	-5365
wood	-5366
▁रंग	-5367
▁comfort	-5368
▁pollution	-5369
▁eggs	-5370
▁wealth	-5371
▁Treat	-5372
▁पता	-5373
▁explan	-5374
▁spent	-5375
▁Isl	-5376
▁coal	-5377
▁improved	-5378
रण	-5379
▁strategy	-5380
▁phase	-5381
oking	-5382
▁served	-5383
▁Thomas	-5384
lease	-5385
▁describe	-5386
board	-5387
पूर्ण	-5388
▁atmosphere	-5389
ded	-5390
cers	-5391
ामी	-5392
▁input	-5393
▁official	-5394
ributed	-5395
▁Fre	-5396
▁Sal	-5397
ams	-5398
्ला	-5399
▁prepared	-5400
uted	-5401
▁AD	-5402
ras	-5403
▁Arab	-5404
ball	-5405
ules	-5406
▁concepts	-5407
▁languages	-5408
▁manner	-5409
▁conservation	-5410
▁बड़े	-5411
▁consult	-5412
▁square	-5413
▁decided	-5414
onic	-5415
isher	-5416
▁mort	-5417
▁Supp	-5418
▁Service	-5419
▁concern	-5420
▁meant	-5421
ण्ड	-5422
-6	-5423
ipe	-5424
ifying	-5425
▁pages	-5426
▁सद	-5427
▁बाहर	-5428
▁वाला	-5429
▁southern	-5430
▁विकास	-5431
zing	-5432
▁Texas	-5433
▁datab	-5434
▁concerns	-5435
nic	-5436
▁प्रश	-5437
▁बल्	-5438
▁Old	-5439
▁Dist	-5440
▁aid	-5441
▁बंद	-5442
▁obvious	-5443
▁cere	-5444
iverse	-5445
▁Cam	-5446
▁bud	-5447
cript	-5448
▁kill	-5449
▁ship	-5450
▁professor	-5451
aughter	-5452
▁awareness	-5453
rep	-5454
▁Sen	-5455
iling	-5456
▁cast	-5457
▁vegetables	-5458
▁Mars	-5459
▁Google	-5460
▁कोश	-5461
▁west	-5462
▁लिख	-5463
▁conver	-5464
rete	-5465
▁looks	-5466
▁Through	-5467
▁song	-5468
▁volunt	-5469
▁motiv	-5470
▁उपयोग	-5471
जह	-5472
▁pret	-5473
▁Island	-5474
▁hearing	-5475
roid	-5476
▁procedure	-5477
▁hour	-5478
▁efficiency	-5479
▁charge	-5480
▁invent	-5481
▁impl	-5482
▁signal	-5483
▁articles	-5484
itors	-5485
▁northern	-5486
▁corresp	-5487
▁completed	-5488
▁les	-5489
ạn	-5490
4)	-5491
▁मिला	-5492
▁यदि	-5493
▁Addition	-5494
▁लाख	-5495
acing	-5496
onomic	-5497
CC	-5498
▁Mart	-5499
▁pieces	-5500
▁Learning	-5501
alled	-5502
▁chemicals	-5503
▁conclud	-5504
▁supported	-5505
▁Disc	-5506
▁Miss	-5507
▁diagnosis	-5508
ार्थ	-5509
well	-5510
▁contribute	-5511
OT	-5512
▁एस	-5513
▁frequency	-5514
▁बाल	-5515
▁clos	-5516
▁yellow	-5517
su	-5518
▁lib	-5519
▁institutions	-5520
▁dro	-5521
▁Acad	-5522
▁Where	-5523
▁nav	-5524
तार	-5525
▁pul	-5526
▁secret	-5527
▁बॉ	-5528
▁purposes	-5529
▁चला	-5530
▁owners	-5531
▁घटना	-5532
▁platform	-5533
▁hop	-5534
▁Life	-5535
▁Energy	-5536
aker	-5537
▁आधार	-5538
ूत	-5539
▁fort	-5540
▁notice	-5541
▁Hol	-5542
▁mainly	-5543
clusion	-5544
ormal	-5545
▁formation	-5546
umin	-5547
75	-5548
▁reached	-5549
▁appoint	-5550
र्य	-5551
rence	-5552
▁sin	-5553
▁Jews	-5554
ags	-5555
ua	-5556
▁samples	-5557
▁कहते	-5558
▁स्वा	-5559
▁seg	-5560
▁Wind	-5561
▁shared	-5562
▁गिर	-5563
berg	-5564
▁ढ	-5565
▁hospital	-5566
▁engineering	-5567
▁(18	-5568
▁हमें	-5569
▁राजनी	-5570
AD	-5571
rates	-5572
▁Medical	-5573
▁करके	-5574
1)	-5575
▁योग	-5576
▁>	-5577
▁lesson	-5578
▁Out	-5579
rations	-5580
standing	-5581
▁continues	-5582
▁Direct	-5583
▁vaccine	-5584
▁flex	-5585
vision	-5586
▁discover	-5587
▁प्रकार	-5588
▁Civil	-5589
astern	-5590
▁reduction	-5591
▁7.	-5592
▁Britain	-5593
ão	-5594
▁toxic	-5595
kan	-5596
▁Any	-5597
ounced	-5598
▁fib	-5599
▁authority	-5600
eles	-5601
▁gar	-5602
▁extensive	-5603
▁35	-5604
istan	-5605
▁sustainable	-5606
▁ideal	-5607
▁las	-5608
▁lic	-5609
▁करती	-5610
▁station	-5611
▁Space	-5612
▁recorded	-5613
comes	-5614
oo	-5615
▁इंड	-5616
▁wet	-5617
▁brother	-5618
▁straight	-5619
▁Ir	-5620
▁offered	-5621
uable	-5622
▁Jer	-5623
▁focused	-5624
▁storm	-5625
▁Women	-5626
▁allowing	-5627
मुख	-5628
दों	-5629
म्मी	-5630
akers	-5631
▁vulner	-5632
▁operating	-5633
▁treatments	-5634
▁अला	-5635
▁hit	-5636
eters	-5637
▁facts	-5638
▁Exam	-5639
▁revolution	-5640
acific	-5641
सल	-5642
26	-5643
ses	-5644
▁Lou	-5645
▁समाज	-5646
▁practical	-5647
▁spend	-5648
▁electrical	-5649
▁grand	-5650
cription	-5651
बाद	-5652
ियन	-5653
▁intended	-5654
ye	-5655
▁jobs	-5656
li	-5657
▁situations	-5658
▁Bur	-5659
हित	-5660
▁वजह	-5661
▁Technology	-5662
▁generate	-5663
▁sector	-5664
▁taught	-5665
otic	-5666
जपा	-5667
inger	-5668
▁liquid	-5669
ishes	-5670
▁primarily	-5671
▁height	-5672
▁proposed	-5673
▁begins	-5674
▁technical	-5675
▁Information	-5676
alle	-5677
▁sufficient	-5678
eline	-5679
▁2007	-5680
▁Robert	-5681
▁wonder	-5682
▁youth	-5683
▁perman	-5684
▁consequences	-5685
▁AN	-5686
▁master	-5687
▁Dise	-5688
▁आदि	-5689
ga	-5690
▁ف	-5691
ixt	-5692
▁Such	-5693
▁Book	-5694
ears	-5695
▁स्थान	-5696
▁मांग	-5697
▁vital	-5698
AP	-5699
▁29	-5700
▁remained	-5701
▁Instead	-5702
▁specifically	-5703
▁drinking	-5704
▁phenomen	-5705
▁Mil	-5706
क्षण	-5707
▁coord	-5708
EL	-5709
stract	-5710
▁करोड़	-5711
ाइल	-5712
osite	-5713
▁double	-5714
ांकि	-5715
▁nutrients	-5716
▁व्यव	-5717
▁combined	-5718
▁tasks	-5719
धि	-5720
▁kinds	-5721
▁Medicine	-5722
▁muscles	-5723
▁Virgin	-5724
▁career	-5725
▁बेह	-5726
tion	-5727
adian	-5728
rier	-5729
lig	-5730
▁(3	-5731
▁kn	-5732
▁Before	-5733
▁forced	-5734
▁finally	-5735
leg	-5736
▁भाग	-5737
▁bright	-5738
▁यू	-5739
aturally	-5740
ague	-5741
▁Fam	-5742
▁advance	-5743
▁Expl	-5744
▁salt	-5745
▁largely	-5746
▁वहीं	-5747
▁credit	-5748
▁keeping	-5749
▁cert	-5750
▁crucial	-5751
▁waters	-5752
▁हिस्	-5753
▁flowers	-5754
▁showing	-5755
▁indicate	-5756
▁subjects	-5757
▁ي	-5758
oper	-5759
▁faster	-5760
्यान	-5761
rapy	-5762
▁renew	-5763
▁bird	-5764
▁collected	-5765
DF	-5766
▁hyper	-5767
RI	-5768
▁vent	-5769
▁certainly	-5770
unk	-5771
▁send	-5772
▁identity	-5773
28	-5774
▁Atl	-5775
vis	-5776
▁para	-5777
▁सिर्	-5778
▁digest	-5779
].	-5780
olute	-5781
▁ecosystem	-5782
▁Bet	-5783
▁Franc	-5784
▁Well	-5785
▁occurred	-5786
▁raised	-5787
▁familiar	-5788
▁morning	-5789
eria	-5790
▁haz	-5791
▁अमरी	-5792
▁हालांकि	-5793
▁Fe	-5794
▁Mass	-5795
▁189	-5796
▁advice	-5797
▁existence	-5798
▁goods	-5799
▁कंपनी	-5800
▁moist	-5801
ih	-5802
▁मदद	-5803
ulating	-5804
▁initi	-5805
हम	-5806
▁attacks	-5807
▁अर	-5808
▁lov	-5809
▁Bay	-5810
▁mere	-5811
▁Commission	-5812
▁stone	-5813
▁impacts	-5814
▁metab	-5815
▁responsibility	-5816
▁योजना	-5817
▁extent	-5818
▁emergency	-5819
▁summary	-5820
omin	-5821
▁letters	-5822
gra	-5823
going	-5824
▁Latin	-5825
▁comment	-5826
inent	-5827
inding	-5828
▁नेता	-5829
ipped	-5830
▁प्राप्त	-5831
BC	-5832
▁army	-5833
▁लें	-5834
icated	-5835
▁syn	-5836
▁Army	-5837
▁मीड	-5838
inn	-5839
ाइन	-5840
▁centuries	-5841
▁doll	-5842
▁Cop	-5843
▁Know	-5844
ework	-5845
▁blog	-5846
45	-5847
▁जबकि	-5848
▁liver	-5849
ल्प	-5850
▁Stand	-5851
▁tro	-5852
oxide	-5853
rich	-5854
▁controlled	-5855
▁2000	-5856
▁दूर	-5857
gl	-5858
nel	-5859
osen	-5860
arrow	-5861
▁recy	-5862
▁आया	-5863
▁topics	-5864
▁Tit	-5865
▁Ste	-5866
▁मैंने	-5867
aks	-5868
enses	-5869
▁park	-5870
▁भाजपा	-5871
▁Common	-5872
rian	-5873
▁particles	-5874
▁Psych	-5875
▁east	-5876
▁settle	-5877
▁wife	-5878
▁पो	-5879
▁maximum	-5880
▁clim	-5881
▁excellent	-5882
▁ju	-5883
▁Jud	-5884
▁sen	-5885
▁fundamental	-5886
RO	-5887
▁leader	-5888
▁quar	-5889
▁despite	-5890
▁monitoring	-5891
▁Whe	-5892
▁THE	-5893
▁nerv	-5894
▁Those	-5895
▁Que	-5896
▁vast	-5897
ossible	-5898
▁felt	-5899
▁periods	-5900
▁aren	-5901
ails	-5902
▁अलावा	-5903
▁domestic	-5904
▁मैच	-5905
inf	-5906
ूरत	-5907
▁shar	-5908
▁नौ	-5909
▁Del	-5910
▁proteins	-5911
▁surrounding	-5912
roke	-5913
▁pu	-5914
▁bill	-5915
▁foss	-5916
▁Histor	-5917
▁police	-5918
west	-5919
olars	-5920
▁links	-5921
▁onto	-5922
▁Flor	-5923
▁refers	-5924
ka	-5925
▁roll	-5926
down	-5927
▁<	-5928
▁explains	-5929
▁motion	-5930
▁तैयार	-5931
▁(199	-5932
atric	-5933
▁मीडिया	-5934
roc	-5935
▁voice	-5936
▁slightly	-5937
▁Mem	-5938
▁oral	-5939
▁played	-5940
▁रे	-5941
rastructure	-5942
▁sche	-5943
▁affects	-5944
▁component	-5945
▁resist	-5946
हन	-5947
▁sounds	-5948
ज़ा	-5949
▁vehicle	-5950
▁Jose	-5951
▁phone	-5952
ूरी	-5953
ht	-5954
ंदर	-5955
ुआ	-5956
▁Despite	-5957
▁typical	-5958
▁external	-5959
▁Yet	-5960
▁agricultural	-5961
▁potentially	-5962
▁ou	-5963
▁explained	-5964
▁Nor	-5965
ION	-5966
othing	-5967
▁divided	-5968
▁measured	-5969
▁दिनों	-5970
मेंट	-5971
▁Studies	-5972
▁biological	-5973
▁smart	-5974
▁suggested	-5975
ियर	-5976
ेद	-5977
ificial	-5978
27	-5979
▁diam	-5980
ancing	-5981
▁Smith	-5982
▁pil	-5983
▁अध्यक्ष	-5984
▁happened	-5985
▁kil	-5986
band	-5987
▁abuse	-5988
▁tested	-5989
▁188	-5990
▁fif	-5991
anges	-5992
▁?	-5993
omy	-5994
▁cognitive	-5995
▁investment	-5996
▁Land	-5997
▁nations	-5998
▁thin	-5999
igenous	-6000
▁खिलाफ	-6001
▁CD	-6002
▁nit	-6003
▁Budd	-6004
▁उम्मी	-6005
▁सर्व	-6006
▁crisis	-6007
▁increasingly	-6008
▁vous	-6009
▁immig	-6010
35	-6011
▁helpful	-6012
lar	-6013
▁format	-6014
▁perspective	-6015
▁rail	-6016
▁snow	-6017
▁accurate	-6018
itness	-6019
.’	-6020
▁immun	-6021
▁दिए	-6022
▁facilities	-6023
▁paint	-6024
▁BC	-6025
▁मही	-6026
▁chann	-6027
celer	-6028
▁neut	-6029
resents	-6030
▁पहली	-6031
▁interests	-6032
▁interview	-6033
▁Micro	-6034
▁Tem	-6035
verty	-6036
▁Russia	-6037
▁जीत	-6038
▁Bible	-6039
▁roots	-6040
▁Sou	-6041
▁crops	-6042
▁रिप	-6043
▁रिक	-6044
▁fluid	-6045
indu	-6046
▁domin	-6047
▁poverty	-6048
29	-6049
▁files	-6050
▁floor	-6051
▁instruction	-6052
िज	-6053
▁consists	-6054
▁thoughts	-6055
न्द्र	-6056
▁latest	-6057
?”	-6058
▁bow	-6059
▁extract	-6060
▁Phot	-6061
▁otherwise	-6062
mp	-6063
▁Home	-6064
▁rural	-6065
▁Loc	-6066
▁बड़ा	-6067
▁fruits	-6068
▁ऐसी	-6069
▁persons	-6070
▁Saf	-6071
▁flat	-6072
iced	-6073
▁Pacific	-6074
col	-6075
point	-6076
▁प्रभाव	-6077
▁Pub	-6078
▁कोशिश	-6079
▁Lake	-6080
▁girls	-6081
ael	-6082
▁केवल	-6083
▁डी	-6084
▁band	-6085
▁tips	-6086
इन	-6087
▁playing	-6088
▁उसने	-6089
▁trial	-6090
▁valid	-6091
भव	-6092
▁request	-6093
▁returned	-6094
काश	-6095
▁walls	-6096
▁Nav	-6097
▁satis	-6098
▁dial	-6099
▁internet	-6100
यन	-6101
oviet	-6102
▁depends	-6103
oughly	-6104
▁deliver	-6105
MS	-6106
▁greatest	-6107
▁Charles	-6108
▁instrument	-6109
▁apparent	-6110
name	-6111
▁IN	-6112
▁lose	-6113
एँ	-6114
▁sed	-6115
▁Foundation	-6116
▁subsequ	-6117
▁बस	-6118
▁प्रदर्	-6119
▁डे	-6120
▁elev	-6121
▁Ap	-6122
field	-6123
BN	-6124
▁Middle	-6125
▁stem	-6126
▁curriculum	-6127
ेंद	-6128
ुट	-6129
ित्र	-6130
▁studied	-6131
▁Good	-6132
which	-6133
▁protected	-6134
▁habitat	-6135
ville	-6136
▁Professor	-6137
▁represents	-6138
▁wel	-6139
utive	-6140
▁km	-6141
ario	-6142
▁substant	-6143
itage	-6144
▁Est	-6145
▁prices	-6146
ala	-6147
▁nh	-6148
stood	-6149
ासन	-6150
athy	-6151
▁Engine	-6152
▁disapp	-6153
▁Environmental	-6154
ensus	-6155
▁lik	-6156
▁grown	-6157
▁Bre	-6158
▁Henry	-6159
▁recognized	-6160
▁surpris	-6161
▁officials	-6162
van	-6163
▁looked	-6164
त्री	-6165
tr	-6166
ख़	-6167
▁depth	-6168
▁जाना	-6169
▁cardi	-6170
▁obtained	-6171
▁उम्मीद	-6172
▁train	-6173
▁Figure	-6174
▁stars	-6175
zy	-6176
▁Carol	-6177
▁Sea	-6178
▁Wild	-6179
▁harvest	-6180
▁आव	-6181
▁pray	-6182
▁Catholic	-6183
ुष	-6184
▁पत्	-6185
▁employees	-6186
▁Mont	-6187
▁कैसे	-6188
▁Review	-6189
▁सुरक्षा	-6190
▁medium	-6191
▁ध्यान	-6192
▁convent	-6193
500	-6194
▁छोड़	-6195
▁जहां	-6196
ग्र	-6197
▁closely	-6198
▁san	-6199
▁approaches	-6200
ota	-6201
▁कृ	-6202
▁spl	-6203
▁पे	-6204
5)	-6205
▁containing	-6206
बार	-6207
▁fle	-6208
active	-6209
▁od	-6210
▁stock	-6211
▁Russian	-6212
▁visible	-6213
▁Id	-6214
▁rapidly	-6215
▁argument	-6216
▁concerned	-6217
▁prison	-6218
yright	-6219
▁आस	-6220
▁dut	-6221
▁तौर	-6222
spec	-6223
what	-6224
umber	-6225
▁tried	-6226
▁wear	-6227
▁western	-6228
ooth	-6229
▁deaths	-6230
▁concentration	-6231
chers	-6232
▁rand	-6233
stronom	-6234
▁sides	-6235
atever	-6236
▁मिले	-6237
▁Ox	-6238
▁director	-6239
▁continuous	-6240
▁introduction	-6241
TS	-6242
▁इसकी	-6243
स्या	-6244
▁therm	-6245
▁neighbor	-6246
▁accompl	-6247
asure	-6248
’.	-6249
▁governments	-6250
▁गांव	-6251
▁pregnancy	-6252
▁wire	-6253
▁minimum	-6254
ल्ड	-6255
▁correspond	-6256
▁gun	-6257
▁passage	-6258
▁hundreds	-6259
ायर	-6260
▁Keep	-6261
▁firm	-6262
▁Vis	-6263
▁param	-6264
right	-6265
▁चाहते	-6266
ंगे	-6267
▁outcomes	-6268
▁weap	-6269
ca	-6270
▁अंतर	-6271
▁medications	-6272
fl	-6273
▁Kore	-6274
rolog	-6275
▁driving	-6276
▁सम्म	-6277
▁appearance	-6278
▁secure	-6279
▁pig	-6280
▁paid	-6281
▁claims	-6282
▁Power	-6283
▁suffering	-6284
▁enhance	-6285
CO	-6286
▁Control	-6287
ship	-6288
▁alt	-6289
▁frag	-6290
भग	-6291
▁Have	-6292
▁पूरा	-6293
fall	-6294
lers	-6295
▁sud	-6296
▁Prov	-6297
▁3,	-6298
मत	-6299
▁Soviet	-6300
▁Add	-6301
▁लगे	-6302
▁reform	-6303
▁moral	-6304
US	-6305
▁random	-6306
mas	-6307
▁distingu	-6308
▁feelings	-6309
ascular	-6310
▁answers	-6311
▁selected	-6312
▁diversity	-6313
icks	-6314
ato	-6315
▁Ess	-6316
100	-6317
▁principle	-6318
▁decrease	-6319
▁syndrome	-6320
▁justice	-6321
▁डा	-6322
काल	-6323
6)	-6324
▁वीड	-6325
▁Emp	-6326
▁conscious	-6327
▁ingred	-6328
win	-6329
▁valuable	-6330
▁कार्यक्रम	-6331
ona	-6332
▁views	-6333
▁couple	-6334
▁मुताब	-6335
▁300	-6336
▁rub	-6337
▁रहने	-6338
▁Follow	-6339
▁regularly	-6340
▁movements	-6341
▁Att	-6342
▁करी	-6343
ING	-6344
ellect	-6345
racy	-6346
▁procedures	-6347
▁discussed	-6348
▁PC	-6349
▁shel	-6350
▁advoc	-6351
▁देते	-6352
▁satell	-6353
▁residents	-6354
tenance	-6355
▁prem	-6356
▁naturally	-6357
▁purs	-6358
▁ages	-6359
▁soldiers	-6360
▁assemb	-6361
▁kh	-6362
ava	-6363
▁मुताबिक	-6364
▁Nature	-6365
▁portion	-6366
oster	-6367
▁Company	-6368
▁adding	-6369
▁infrastructure	-6370
▁Group	-6371
▁behaviour	-6372
▁inflammation	-6373
▁circumst	-6374
▁191	-6375
▁परी	-6376
bing	-6377
▁Exper	-6378
▁mobile	-6379
cope	-6380
प्ता	-6381
▁कल	-6382
▁)	-6383
aur	-6384
ulin	-6385
▁rein	-6386
▁contem	-6387
▁appeared	-6388
▁मुख्यमंत्री	-6389
▁प्रमुख	-6390
▁chief	-6391
▁corpor	-6392
▁leaving	-6393
anes	-6394
▁stated	-6395
’,	-6396
nh	-6397
▁leadership	-6398
▁Alex	-6399
▁Please	-6400
▁intelligence	-6401
▁Ter	-6402
▁Note	-6403
▁sets	-6404
anguage	-6405
▁Management	-6406
▁à	-6407
▁stret	-6408
ंज	-6409
▁Only	-6410
4).	-6411
▁colors	-6412
ुरु	-6413
asp	-6414
▁businesses	-6415
▁recovery	-6416
▁pump	-6417
▁Mo	-6418
▁push	-6419
▁Div	-6420
38	-6421
▁खुद	-6422
▁प्रो	-6423
▁prevention	-6424
▁expensive	-6425
▁hunt	-6426
▁Det	-6427
▁संघ	-6428
ny	-6429
▁Sl	-6430
▁आयोज	-6431
2).	-6432
▁mit	-6433
▁Who	-6434
fe	-6435
▁steel	-6436
▁lessons	-6437
▁विरो	-6438
▁healthcare	-6439
▁Care	-6440
▁sick	-6441
iled	-6442
▁Design	-6443
▁बैंक	-6444
▁spiritual	-6445
▁substance	-6446
▁knew	-6447
▁Ham	-6448
rants	-6449
▁entirely	-6450
ाला	-6451
free	-6452
ियाँ	-6453
ंगल	-6454
▁वीडियो	-6455
▁horse	-6456
stream	-6457
▁185	-6458
ीत	-6459
▁experiments	-6460
▁Ext	-6461
▁inches	-6462
▁AI	-6463
▁Writ	-6464
▁tu	-6465
▁capable	-6466
▁funding	-6467
▁poet	-6468
▁calls	-6469
▁recon	-6470
▁sensitive	-6471
▁raise	-6472
▁talking	-6473
▁Bat	-6474
▁stages	-6475
uke	-6476
▁Long	-6477
orith	-6478
**	-6479
▁ble	-6480
▁minim	-6481
▁Pers	-6482
▁traffic	-6483
▁कान	-6484
▁من	-6485
▁जांच	-6486
▁pref	-6487
esity	-6488
▁incl	-6489
being	-6490
▁starts	-6491
▁चि	-6492
▁Rad	-6493
▁lifest	-6494
▁wave	-6495
▁Early	-6496
▁allerg	-6497
bert	-6498
▁45	-6499
▁absolute	-6500
▁parties	-6501
ॉल	-6502
ffee	-6503
▁fertil	-6504
▁narr	-6505
▁Finally	-6506
▁Ann	-6507
▁Last	-6508
▁nurs	-6509
बल	-6510
▁Take	-6511
▁Anda	-6512
iology	-6513
▁करा	-6514
▁infected	-6515
▁विचार	-6516
▁tun	-6517
▁agriculture	-6518
othe	-6519
▁फ़िल्म	-6520
▁pure	-6521
▁Library	-6522
▁Form	-6523
teries	-6524
idden	-6525
▁discovery	-6526
▁amb	-6527
▁exchange	-6528
▁Diff	-6529
alse	-6530
oral	-6531
▁antibiot	-6532
ita	-6533
cling	-6534
▁tal	-6535
anda	-6536
ocratic	-6537
▁Ca	-6538
inet	-6539
▁diverse	-6540
हरा	-6541
▁Rights	-6542
▁suitable	-6543
▁precise	-6544
▁facilit	-6545
gu	-6546
▁الم	-6547
▁Federal	-6548
▁शरी	-6549
▁intake	-6550
▁Though	-6551
▁medication	-6552
6).	-6553
▁adequ	-6554
▁suffer	-6555
▁अमेर	-6556
▁हूं	-6557
▁Global	-6558
▁बच्चों	-6559
rem	-6560
▁creative	-6561
asive	-6562
▁8.	-6563
▁normally	-6564
▁massive	-6565
▁recognize	-6566
▁millions	-6567
لى	-6568
▁लगभग	-6569
alysis	-6570
▁closed	-6571
long	-6572
▁लिये	-6573
▁Office	-6574
▁सौ	-6575
obe	-6576
▁Sk	-6577
▁ban	-6578
▁documents	-6579
▁touch	-6580
▁Exp	-6581
▁possibly	-6582
osal	-6583
▁Louis	-6584
pet	-6585
▁सवाल	-6586
▁formal	-6587
▁Natural	-6588
▁window	-6589
▁selection	-6590
▁न्यू	-6591
CS	-6592
▁af	-6593
▁Free	-6594
▁phr	-6595
▁chapter	-6596
king	-6597
▁moon	-6598
▁vehicles	-6599
▁उसका	-6600
uh	-6601
▁Florida	-6602
war	-6603
▁Quest	-6604
▁gall	-6605
▁apart	-6606
▁dental	-6607
▁figures	-6608
▁database	-6609
agers	-6610
▁computers	-6611
▁Kh	-6612
plicated	-6613
ón	-6614
with	-6615
burg	-6616
▁myth	-6617
▁सेवा	-6618
wa	-6619
▁inject	-6620
VID	-6621
ena	-6622
र्च	-6623
▁originally	-6624
▁regional	-6625
flow	-6626
▁download	-6627
olve	-6628
alian	-6629
▁impossible	-6630
.'	-6631
▁mac	-6632
cules	-6633
यास	-6634
olester	-6635
ंगा	-6636
▁manufacturing	-6637
▁मेरी	-6638
▁sudden	-6639
▁decline	-6640
▁रिपोर्ट	-6641
▁networks	-6642
▁सच	-6643
▁trad	-6644
▁Sym	-6645
▁Labor	-6646
aria	-6647
▁producing	-6648
▁suc	-6649
▁केंद्र	-6650
ॉर्ड	-6651
▁nan	-6652
▁आद	-6653
▁worse	-6654
▁revealed	-6655
▁survival	-6656
▁सदस	-6657
▁describes	-6658
ypes	-6659
▁brown	-6660
▁secondary	-6661
▁Virginia	-6662
श्म	-6663
▁speaking	-6664
▁Article	-6665
▁विभाग	-6666
orter	-6667
3).	-6668
osph	-6669
▁plus	-6670
ات	-6671
▁घोष	-6672
1).	-6673
राज	-6674
▁comprehensive	-6675
▁era	-6676
▁candid	-6677
▁opinion	-6678
▁guidelines	-6679
▁supplement	-6680
▁cars	-6681
▁dream	-6682
▁दल	-6683
▁acts	-6684
▁index	-6685
▁unlike	-6686
▁warming	-6687
▁restrict	-6688
aph	-6689
▁leaf	-6690
▁opened	-6691
▁toler	-6692
▁मौत	-6693
▁cloud	-6694
ini	-6695
▁fill	-6696
▁न्या	-6697
▁village	-6698
त्ता	-6699
ज्ञान	-6700
▁listed	-6701
omach	-6702
▁187	-6703
▁adopted	-6704
▁राष्ट्रीय	-6705
▁ISBN	-6706
▁understood	-6707
▁plays	-6708
▁Joseph	-6709
▁aqu	-6710
▁abund	-6711
▁achieved	-6712
road	-6713
▁possibility	-6714
▁professionals	-6715
▁harmful	-6716
▁accepted	-6717
▁stored	-6718
▁prepare	-6719
▁stick	-6720
▁engage	-6721
▁label	-6722
▁समस्या	-6723
ीय	-6724
▁library	-6725
▁लेने	-6726
▁aircraft	-6727
ताल	-6728
▁Ill	-6729
anged	-6730
▁pictures	-6731
ctic	-6732
▁district	-6733
lements	-6734
▁repeated	-6735
5).	-6736
▁Fact	-6737
pass	-6738
▁gather	-6739
▁houses	-6740
▁improving	-6741
liam	-6742
▁Ken	-6743
abric	-6744
ilding	-6745
▁possess	-6746
▁bạn	-6747
▁flight	-6748
▁जन्	-6749
▁Peter	-6750
ibilities	-6751
7)	-6752
faces	-6753
▁पं	-6754
olesterol	-6755
ums	-6756
▁Frank	-6757
olf	-6758
▁doctors	-6759
ँच	-6760
▁धर्म	-6761
▁transition	-6762
▁routine	-6763
▁readers	-6764
ican	-6765
rite	-6766
▁plate	-6767
▁worldwide	-6768
▁arms	-6769
▁मध्य	-6770
▁जिसके	-6771
▁भूम	-6772
agues	-6773
▁chain	-6774
ura	-6775
▁và	-6776
▁स्थिति	-6777
▁solve	-6778
▁narrow	-6779
▁USA	-6780
▁कोर्ट	-6781
▁Gold	-6782
▁twice	-6783
▁Canadian	-6784
▁पार	-6785
hemical	-6786
▁wildlife	-6787
▁marriage	-6788
▁Constitution	-6789
मो	-6790
▁fell	-6791
▁acceler	-6792
▁हूँ	-6793
TM	-6794
▁पूछ	-6795
▁mamm	-6796
rors	-6797
▁महत्व	-6798
▁ऑफ	-6799
ront	-6800
▁Cre	-6801
▁budget	-6802
gent	-6803
▁मंद	-6804
वीर	-6805
▁landscape	-6806
िन्न	-6807
▁bones	-6808
born	-6809
▁स्कूल	-6810
inations	-6811
▁Dan	-6812
ropical	-6813
▁प्रव	-6814
▁edge	-6815
ुन	-6816
ki	-6817
▁latter	-6818
▁equival	-6819
▁agreement	-6820
▁मूल	-6821
▁imper	-6822
▁होना	-6823
▁catch	-6824
▁cultiv	-6825
▁administration	-6826
ogue	-6827
add	-6828
▁remaining	-6829
▁Time	-6830
▁tow	-6831
▁आपकी	-6832
▁tail	-6833
▁जनता	-6834
▁Sometimes	-6835
state	-6836
▁Contin	-6837
▁switch	-6838
▁वहां	-6839
ifies	-6840
▁नए	-6841
▁forests	-6842
organ	-6843
▁pretty	-6844
▁wid	-6845
IL	-6846
▁Report	-6847
▁36	-6848
cel	-6849
▁तरी	-6850
ियम	-6851
▁remote	-6852
▁www	-6853
ects	-6854
▁courses	-6855
48	-6856
▁ट्व	-6857
▁Cult	-6858
tage	-6859
erals	-6860
▁Lab	-6861
▁थीं	-6862
▁journey	-6863
▁mountain	-6864
isp	-6865
vironments	-6866
▁chart	-6867
mun	-6868
▁ax	-6869
normal	-6870
nam	-6871
▁Set	-6872
▁मार	-6873
▁door	-6874
▁ancest	-6875
▁decade	-6876
▁injuries	-6877
टे	-6878
▁1990	-6879
▁OF	-6880
prise	-6881
रिया	-6882
▁struggle	-6883
क्षि	-6884
▁afford	-6885
ायक	-6886
▁Paris	-6887
▁लाल	-6888
▁dust	-6889
▁transmission	-6890
▁mur	-6891
▁sell	-6892
आर	-6893
▁cart	-6894
▁battery	-6895
▁unless	-6896
▁opening	-6897
ीक	-6898
▁accounts	-6899
throp	-6900
▁व्याप	-6901
▁गयी	-6902
oted	-6903
▁por	-6904
▁IP	-6905
▁expressed	-6906
▁बिना	-6907
▁depos	-6908
▁अच्छा	-6909
▁Columb	-6910
▁Cat	-6911
liament	-6912
▁संख्या	-6913
▁sentence	-6914
▁tells	-6915
▁apprec	-6916
erent	-6917
▁obtain	-6918
▁Stat	-6919
▁copy	-6920
▁museum	-6921
33	-6922
▁Vict	-6923
▁sports	-6924
exp	-6925
▁scholars	-6926
▁Commit	-6927
▁unknown	-6928
वाह	-6929
▁marine	-6930
▁childhood	-6931
▁survive	-6932
▁ज़र	-6933
▁universe	-6934
▁consistent	-6935
चान	-6936
▁सही	-6937
▁lands	-6938
▁जिससे	-6939
▁Nations	-6940
▁१	-6941
▁optim	-6942
onia	-6943
▁Learn	-6944
▁reject	-6945
hips	-6946
▁रात	-6947
▁beneficial	-6948
श्च	-6949
तरा	-6950
uma	-6951
▁चीन	-6952
▁aer	-6953
▁shell	-6954
▁algorith	-6955
▁Given	-6956
▁agencies	-6957
▁choices	-6958
▁discipl	-6959
बीसी	-6960
▁explanation	-6961
▁filled	-6962
inder	-6963
▁sequence	-6964
▁शिव	-6965
▁generated	-6966
▁interaction	-6967
imer	-6968
▁Study	-6969
▁extended	-6970
▁framework	-6971
▁creates	-6972
iform	-6973
▁princip	-6974
mic	-6975
hist	-6976
▁Clin	-6977
▁intellect	-6978
▁Click	-6979
▁kit	-6980
▁skill	-6981
▁electronic	-6982
▁AC	-6983
▁maintenance	-6984
▁sod	-6985
ेम	-6986
-7	-6987
▁·	-6988
▁sweet	-6989
▁locations	-6990
▁बदल	-6991
eper	-6992
▁composition	-6993
▁truly	-6994
▁grav	-6995
यान	-6996
▁broken	-6997
▁produces	-6998
▁assistance	-6999
▁सेना	-7000
▁Australian	-7001
ora	-7002
▁Disease	-7003
▁Check	-7004
▁PM	-7005
▁राष्ट्रपति	-7006
irus	-7007
▁waves	-7008
▁error	-7009
▁Haw	-7010
जब	-7011
▁AS	-7012
▁शे	-7013
▁slowly	-7014
▁Sol	-7015
▁gal	-7016
cher	-7017
orrow	-7018
rid	-7019
▁wants	-7020
▁शब्	-7021
ansion	-7022
▁Top	-7023
▁tiny	-7024
UR	-7025
arant	-7026
body	-7027
izer	-7028
स्थान	-7029
ester	-7030
▁laun	-7031
▁derived	-7032
हास	-7033
▁सम्	-7034
▁Street	-7035
▁critic	-7036
▁fixed	-7037
▁photos	-7038
▁31	-7039
▁dent	-7040
▁lots	-7041
▁respir	-7042
tic	-7043
ashion	-7044
▁Among	-7045
▁End	-7046
▁decide	-7047
▁إ	-7048
last	-7049
inity	-7050
▁ते	-7051
▁bio	-7052
▁भाषा	-7053
▁failed	-7054
▁molecules	-7055
▁circumstances	-7056
Ar	-7057
▁flav	-7058
ocracy	-7059
ache	-7060
ceived	-7061
▁troops	-7062
▁institution	-7063
▁studying	-7064
ौन	-7065
▁raw	-7066
▁pull	-7067
▁intervention	-7068
▁seeing	-7069
्ले	-7070
icide	-7071
▁Camp	-7072
▁रुपये	-7073
▁thor	-7074
ivery	-7075
-9	-7076
lets	-7077
▁विध	-7078
▁managed	-7079
▁लगता	-7080
no	-7081
▁cm	-7082
▁boost	-7083
▁देखा	-7084
▁happy	-7085
If	-7086
zen	-7087
▁Mad	-7088
▁greatly	-7089
▁successfully	-7090
▁permanent	-7091
HO	-7092
hma	-7093
▁description	-7094
▁calcium	-7095
.|	-7096
but	-7097
▁fly	-7098
▁mechanism	-7099
▁foundation	-7100
wing	-7101
▁multi	-7102
▁yield	-7103
▁यही	-7104
itudes	-7105
▁doi	-7106
▁stomach	-7107
stein	-7108
▁Tor	-7109
▁simpl	-7110
▁ho	-7111
▁sky	-7112
▁circuit	-7113
▁पेश	-7114
▁cu	-7115
▁audience	-7116
▁imagine	-7117
▁mixed	-7118
ेंस	-7119
▁विदेश	-7120
ृति	-7121
▁करेंगे	-7122
ैल	-7123
▁doubt	-7124
▁indeed	-7125
▁छोट	-7126
▁unp	-7127
▁समर्थ	-7128
yles	-7129
▁hus	-7130
▁wish	-7131
ifications	-7132
▁Dig	-7133
▁authorities	-7134
▁density	-7135
डा	-7136
▁चा	-7137
▁Climate	-7138
▁environments	-7139
36	-7140
▁ratio	-7141
▁summar	-7142
▁Richard	-7143
▁consumers	-7144
▁responses	-7145
▁sight	-7146
▁emotions	-7147
▁enable	-7148
▁insects	-7149
▁vessels	-7150
kes	-7151
▁देशों	-7152
▁papers	-7153
▁highlight	-7154
ml	-7155
ictionary	-7156
icians	-7157
▁क्लिक	-7158
▁opposite	-7159
▁!	-7160
▁newsp	-7161
▁Rob	-7162
श्व	-7163
ola	-7164
▁signals	-7165
EP	-7166
▁माल	-7167
▁outl	-7168
▁मंदिर	-7169
▁indicates	-7170
▁पूरे	-7171
ैस	-7172
▁marked	-7173
जय	-7174
igation	-7175
▁acknow	-7176
▁एंड	-7177
▁walking	-7178
▁सिर्फ	-7179
▁रखा	-7180
▁Hall	-7181
▁colour	-7182
icago	-7183
phone	-7184
▁difficulty	-7185
▁Mill	-7186
▁replaced	-7187
struct	-7188
▁जिसे	-7189
▁fasc	-7190
▁Times	-7191
▁din	-7192
▁acids	-7193
▁Wood	-7194
itative	-7195
▁मी	-7196
▁alle	-7197
र्न	-7198
▁Oh	-7199
inction	-7200
▁Bank	-7201
▁carefully	-7202
hop	-7203
▁corn	-7204
▁शिक्षा	-7205
▁lifestyle	-7206
बे	-7207
▁List	-7208
inking	-7209
▁यहाँ	-7210
▁laboratory	-7211
inate	-7212
▁ब्ल	-7213
ipping	-7214
▁comparison	-7215
icon	-7216
▁cultures	-7217
▁reserv	-7218
▁bear	-7219
▁पांच	-7220
वरी	-7221
▁reader	-7222
hand	-7223
▁implementation	-7224
टक	-7225
▁Pract	-7226
▁Southern	-7227
▁thousand	-7228
▁represented	-7229
▁Rome	-7230
Americ	-7231
ên	-7232
word	-7233
▁2019	-7234
▁nine	-7235
▁volunte	-7236
▁तरफ	-7237
abul	-7238
▁gluc	-7239
▁Cancer	-7240
▁ber	-7241
▁COVID	-7242
्टी	-7243
▁machines	-7244
▁university	-7245
▁Sing	-7246
▁Forest	-7247
▁pron	-7248
umes	-7249
▁daughter	-7250
बह	-7251
ात	-7252
▁dedicated	-7253
using	-7254
▁सके	-7255
▁organized	-7256
▁Cr	-7257
oned	-7258
▁protocol	-7259
िश्	-7260
▁Ocean	-7261
▁conventional	-7262
▁Administ	-7263
sis	-7264
▁Str	-7265
▁uns	-7266
reland	-7267
▁cos	-7268
▁persist	-7269
▁अंग	-7270
▁प्रयोग	-7271
▁Cap	-7272
▁जल्	-7273
▁दिल	-7274
bour	-7275
▁relax	-7276
▁ethnic	-7277
luding	-7278
युक्त	-7279
▁listen	-7280
▁Current	-7281
▁attend	-7282
ston	-7283
▁Eth	-7284
riers	-7285
▁गांधी	-7286
▁cholesterol	-7287
▁Back	-7288
कर्	-7289
▁variable	-7290
▁ऊपर	-7291
▁gone	-7292
rine	-7293
▁Vit	-7294
▁coffee	-7295
▁Pan	-7296
▁shift	-7297
▁necessarily	-7298
▁fiber	-7299
ज़र	-7300
▁Does	-7301
zil	-7302
▁philosophy	-7303
ुद	-7304
▁cutting	-7305
7).	-7306
श्यक	-7307
reed	-7308
level	-7309
▁दर्ज	-7310
▁करीब	-7311
▁Color	-7312
▁fossil	-7313
rimination	-7314
सि	-7315
▁closer	-7316
▁supporting	-7317
▁communicate	-7318
▁श्र	-7319
stone	-7320
▁Sign	-7321
▁electron	-7322
▁Gal	-7323
▁Creat	-7324
tering	-7325
▁writer	-7326
▁translation	-7327
▁join	-7328
▁inhib	-7329
▁preval	-7330
▁witness	-7331
▁unable	-7332
ocy	-7333
▁immediate	-7334
▁constitution	-7335
▁pup	-7336
▁Find	-7337
▁उपल	-7338
▁Look	-7339
▁limits	-7340
▁Similar	-7341
▁debate	-7342
sey	-7343
▁Ireland	-7344
▁नर	-7345
▁improvement	-7346
▁Down	-7347
ella	-7348
▁accum	-7349
▁exists	-7350
▁magnetic	-7351
▁150	-7352
▁desire	-7353
▁Northern	-7354
▁जल	-7355
▁4,	-7356
▁वाप	-7357
bra	-7358
ल्स	-7359
aped	-7360
▁rid	-7361
▁दिख	-7362
▁brand	-7363
▁stands	-7364
▁sharing	-7365
antly	-7366
▁प्रदर्शन	-7367
▁ultimately	-7368
▁camera	-7369
▁2006	-7370
▁inhab	-7371
▁nerve	-7372
गल	-7373
agon	-7374
▁उठा	-7375
ठन	-7376
net	-7377
▁Michael	-7378
▁fabric	-7379
▁handle	-7380
▁सफल	-7381
ंदा	-7382
zed	-7383
39	-7384
▁मौजूद	-7385
▁ourselves	-7386
▁जिला	-7387
▁recognition	-7388
▁Plant	-7389
▁tea	-7390
▁hero	-7391
ालय	-7392
gans	-7393
▁younger	-7394
▁architecture	-7395
▁agency	-7396
▁chosen	-7397
▁fighting	-7398
▁roof	-7399
▁yang	-7400
▁breathing	-7401
▁Furthermore	-7402
▁photograph	-7403
▁habits	-7404
▁pip	-7405
▁remark	-7406
▁evaluation	-7407
ints	-7408
▁ment	-7409
▁inner	-7410
मन	-7411
▁बिज	-7412
azing	-7413
▁Table	-7414
▁bot	-7415
▁artificial	-7416
rd	-7417
tra	-7418
▁Scott	-7419
▁तहत	-7420
▁Open	-7421
▁महीने	-7422
▁अधिकारी	-7423
▁neck	-7424
▁noise	-7425
top	-7426
erior	-7427
▁Brown	-7428
तम	-7429
▁1:	-7430
▁Italy	-7431
द्यालय	-7432
▁दूसरी	-7433
राब	-7434
▁mild	-7435
▁किसान	-7436
▁Royal	-7437
kins	-7438
▁अर्	-7439
▁Comput	-7440
orses	-7441
▁मिली	-7442
▁destroyed	-7443
▁overl	-7444
▁Fort	-7445
▁smoking	-7446
▁सोच	-7447
▁Mag	-7448
▁Non	-7449
bridge	-7450
▁शर्	-7451
under	-7452
▁Unf	-7453
▁कर्म	-7454
▁regul	-7455
What	-7456
▁शरीर	-7457
▁paralle	-7458
▁Bus	-7459
▁थो	-7460
▁विधान	-7461
▁hydrogen	-7462
▁colleagues	-7463
▁Native	-7464
▁पीछ	-7465
▁biggest	-7466
▁विभ	-7467
▁fever	-7468
▁supports	-7469
▁compounds	-7470
▁छात्र	-7471
▁psychological	-7472
▁दक्षि	-7473
▁arrived	-7474
तिहास	-7475
▁ends	-7476
▁epid	-7477
▁माना	-7478
irty	-7479
▁contained	-7480
▁fewer	-7481
▁Additionally	-7482
ंख	-7483
oir	-7484
▁launch	-7485
ika	-7486
न्हें	-7487
ione	-7488
car	-7489
▁carb	-7490
▁instructions	-7491
▁observations	-7492
▁Gard	-7493
▁Agricult	-7494
▁एन	-7495
fish	-7496
aud	-7497
▁subs	-7498
▁vulnerable	-7499
▁ट्रे	-7500
▁regulations	-7501
▁married	-7502
anta	-7503
ية	-7504
then	-7505
▁equivalent	-7506
▁grew	-7507
▁confidence	-7508
▁competition	-7509
elled	-7510
▁feeding	-7511
▁founded	-7512
▁1/	-7513
▁underlying	-7514
▁lies	-7515
▁Access	-7516
▁Carolina	-7517
46	-7518
▁Committee	-7519
usal	-7520
रिक	-7521
heast	-7522
hesis	-7523
▁उपलब्	-7524
▁customers	-7525
▁Effect	-7526
▁standing	-7527
▁zone	-7528
rating	-7529
▁presentation	-7530
▁territory	-7531
▁regist	-7532
▁attached	-7533
▁Spain	-7534
▁participate	-7535
▁willing	-7536
▁legs	-7537
▁concrete	-7538
▁eld	-7539
▁dioxide	-7540
▁organisms	-7541
▁programming	-7542
▁trials	-7543
▁twenty	-7544
▁निर्माण	-7545
▁मंत्र	-7546
bu	-7547
▁Pop	-7548
▁रोक	-7549
▁Three	-7550
▁Moreover	-7551
टन	-7552
▁खे	-7553
▁server	-7554
▁bread	-7555
LA	-7556
▁Conn	-7557
▁crow	-7558
▁powers	-7559
▁purchase	-7560
▁clust	-7561
▁distur	-7562
▁Revolution	-7563
डे	-7564
लर	-7565
फ्त	-7566
▁9.	-7567
▁Valley	-7568
rovers	-7569
▁Board	-7570
▁vs	-7571
▁turns	-7572
▁Nut	-7573
itter	-7574
DP	-7575
----	-7576
▁supplies	-7577
▁vote	-7578
▁crime	-7579
शल	-7580
▁relation	-7581
▁reactions	-7582
शत	-7583
▁किस	-7584
▁Main	-7585
▁Start	-7586
-10	-7587
omic	-7588
hav	-7589
pread	-7590
▁Chicago	-7591
LE	-7592
▁thy	-7593
▁Penn	-7594
▁obesity	-7595
37	-7596
ctor	-7597
ूर्	-7598
IP	-7599
▁अंत	-7600
ज़ी	-7601
ctive	-7602
▁drawing	-7603
▁Scot	-7604
▁false	-7605
▁ज़्यादा	-7606
▁rising	-7607
▁stable	-7608
▁Researchers	-7609
▁veter	-7610
▁ru	-7611
▁percentage	-7612
▁उम	-7613
49	-7614
▁whereas	-7615
▁mechanisms	-7616
स्‍	-7617
ैर	-7618
▁horiz	-7619
▁capture	-7620
▁राह	-7621
▁ahead	-7622
▁taste	-7623
▁III	-7624
▁जिले	-7625
▁conclusion	-7626
ज़ार	-7627
▁Adv	-7628
▁उच्च	-7629
isters	-7630
itt	-7631
▁border	-7632
▁trained	-7633
abled	-7634
ymph	-7635
▁आवश्यक	-7636
ali	-7637
▁contamin	-7638
▁shut	-7639
हरी	-7640
▁सामान	-7641
▁2005	-7642
▁fract	-7643
▁लेख	-7644
▁Family	-7645
▁drain	-7646
वाब	-7647
▁रन	-7648
▁occasion	-7649
▁shop	-7650
▁prompt	-7651
▁guarant	-7652
▁accident	-7653
▁comments	-7654
ंका	-7655
▁Big	-7656
ading	-7657
▁delay	-7658
दम	-7659
▁row	-7660
▁unus	-7661
▁instruments	-7662
▁Cy	-7663
▁meth	-7664
ायत	-7665
▁Special	-7666
▁कित	-7667
As	-7668
▁employment	-7669
▁mice	-7670
ani	-7671
▁Teac	-7672
▁Language	-7673
▁politics	-7674
▁Empire	-7675
▁behaviors	-7676
▁mm	-7677
▁Face	-7678
▁तुम	-7679
▁insurance	-7680
▁housing	-7681
▁भाव	-7682
▁resulted	-7683
▁administr	-7684
▁pair	-7685
▁resolution	-7686
-18	-7687
▁Pet	-7688
▁supposed	-7689
idespread	-7690
ifest	-7691
▁flo	-7692
जों	-7693
cribed	-7694
▁entry	-7695
▁whatever	-7696
▁शादी	-7697
▁functional	-7698
▁Jo	-7699
utch	-7700
▁joined	-7701
▁fu	-7702
▁Sever	-7703
षण	-7704
▁Prop	-7705
BS	-7706
▁32	-7707
▁जे	-7708
नाथ	-7709
वादी	-7710
▁membr	-7711
▁eastern	-7712
▁diagnosed	-7713
▁मि	-7714
▁feedback	-7715
▁partner	-7716
▁कुल	-7717
▁refuge	-7718
▁रुपए	-7719
▁Ha	-7720
▁रि	-7721
▁virtual	-7722
▁Bab	-7723
▁transportation	-7724
teen	-7725
dr	-7726
शि	-7727
र्चा	-7728
▁जन्म	-7729
▁1980	-7730
▁prove	-7731
▁रिकॉर्ड	-7732
▁teen	-7733
▁independence	-7734
लब	-7735
▁hypothes	-7736
▁mining	-7737
▁Next	-7738
▁ath	-7739
▁beliefs	-7740
▁delivery	-7741
▁Hy	-7742
ritis	-7743
▁pool	-7744
▁department	-7745
exam	-7746
rot	-7747
IA	-7748
▁चुन	-7749
▁debt	-7750
▁objective	-7751
plant	-7752
▁nearby	-7753
▁Sciences	-7754
▁hur	-7755
▁tissues	-7756
cycl	-7757
▁Viet	-7758
▁fold	-7759
▁zero	-7760
▁अच्छी	-7761
▁examine	-7762
icious	-7763
▁connections	-7764
▁knows	-7765
▁tank	-7766
irds	-7767
त्मक	-7768
▁Mer	-7769
▁demonstrated	-7770
▁EU	-7771
▁frequent	-7772
▁greenhouse	-7773
▁poison	-7774
▁align	-7775
▁adoles	-7776
▁fer	-7777
▁Academy	-7778
va	-7779
▁có	-7780
▁Age	-7781
▁चुके	-7782
▁Unfortunately	-7783
▁स्था	-7784
▁प्रकाश	-7785
▁funds	-7786
▁tall	-7787
ults	-7788
47	-7789
▁demonstrate	-7790
▁लाभ	-7791
उन	-7792
anches	-7793
▁categories	-7794
IR	-7795
▁prev	-7796
▁Never	-7797
▁बर	-7798
▁substances	-7799
▁ठीक	-7800
▁interactions	-7801
िति	-7802
▁cab	-7803
▁hem	-7804
▁स्तर	-7805
▁Equ	-7806
▁sheet	-7807
▁chrom	-7808
▁पिता	-7809
िने	-7810
▁recept	-7811
▁बनाया	-7812
▁Kar	-7813
called	-7814
▁chick	-7815
▁generations	-7816
▁Word	-7817
▁voltage	-7818
▁Eastern	-7819
omp	-7820
न्दी	-7821
▁blow	-7822
▁Chapter	-7823
▁mand	-7824
▁challenging	-7825
▁association	-7826
▁layers	-7827
▁outbre	-7828
िकी	-7829
oding	-7830
asters	-7831
▁महिलाओं	-7832
▁बल्कि	-7833
लाई	-7834
▁shot	-7835
itivity	-7836
्रीन	-7837
▁Wik	-7838
▁settings	-7839
▁ships	-7840
▁defe	-7841
▁क्रिक	-7842
▁Mean	-7843
weight	-7844
▁Py	-7845
▁mos	-7846
▁stroke	-7847
▁maintaining	-7848
▁explo	-7849
▁breath	-7850
▁employed	-7851
gov	-7852
▁cup	-7853
esis	-7854
▁नजर	-7855
▁बने	-7856
▁issued	-7857
▁AP	-7858
▁launched	-7859
ग्	-7860
ूब	-7861
▁lect	-7862
▁pra	-7863
▁define	-7864
▁transp	-7865
▁खरी	-7866
▁arrange	-7867
oven	-7868
▁©	-7869
▁Brazil	-7870
▁smooth	-7871
There	-7872
▁बढ़ा	-7873
▁लगी	-7874
8)	-7875
-20	-7876
hered	-7877
▁workshe	-7878
▁painting	-7879
▁aw	-7880
▁string	-7881
eenth	-7882
▁Mult	-7883
▁Georg	-7884
▁hole	-7885
▁usage	-7886
▁bridge	-7887
▁wasn	-7888
इस	-7889
▁smoke	-7890
▁في	-7891
▁photo	-7892
▁gap	-7893
▁flag	-7894
▁Young	-7895
▁spending	-7896
▁Men	-7897
▁Author	-7898
▁forget	-7899
ंबई	-7900
▁उत्पा	-7901
▁estimates	-7902
लाह	-7903
▁matters	-7904
▁Sil	-7905
inating	-7906
struction	-7907
▁positions	-7908
bec	-7909
umps	-7910
▁शुरुआ	-7911
ांत	-7912
रों	-7913
▁Four	-7914
▁इंटर	-7915
ployment	-7916
▁ped	-7917
िटी	-7918
▁compare	-7919
व्य	-7920
▁mode	-7921
▁putting	-7922
▁widespread	-7923
OC	-7924
ांस	-7925
▁maps	-7926
▁pour	-7927
▁देता	-7928
otes	-7929
▁vac	-7930
▁निकल	-7931
ोह	-7932
Go	-7933
how	-7934
xts	-7935
▁अद	-7936
roduction	-7937
ureau	-7938
▁Orig	-7939
▁exercises	-7940
eless	-7941
▁spok	-7942
▁Guide	-7943
▁expansion	-7944
irt	-7945
SS	-7946
▁installed	-7947
▁TV	-7948
▁tub	-7949
▁Windows	-7950
▁offering	-7951
▁rig	-7952
▁cats	-7953
▁nest	-7954
▁sole	-7955
▁drawn	-7956
ूह	-7957
▁astronom	-7958
ishment	-7959
▁बिहार	-7960
▁script	-7961
▁विरोध	-7962
▁match	-7963
जेपी	-7964
▁frame	-7965
▁surve	-7966
▁cas	-7967
▁danger	-7968
agram	-7969
idity	-7970
ushed	-7971
▁Victor	-7972
▁abstract	-7973
▁Less	-7974
▁cav	-7975
▁legislation	-7976
▁reven	-7977
earing	-7978
▁1970	-7979
▁Martin	-7980
ima	-7981
गढ़	-7982
▁Ver	-7983
▁Works	-7984
▁देखने	-7985
▁reduces	-7986
▁बचा	-7987
▁रेल	-7988
▁लिखा	-7989
cient	-7990
▁participation	-7991
▁Cho	-7992
▁stimul	-7993
▁markets	-7994
▁ongoing	-7995
▁award	-7996
IM	-7997
▁खान	-7998
azine	-7999
▁Italian	-8000
osion	-8001
You	-8002
▁Sat	-8003
▁micros	-8004
▁sections	-8005
Ph	-8006
▁covers	-8007
▁committed	-8008
while	-8009
▁निर्देश	-8010
▁significance	-8011
▁everyday	-8012
▁neur	-8013
▁निकाल	-8014
ela	-8015
▁धन	-8016
ड़ों	-8017
▁Holy	-8018
▁kidney	-8019
▁insulin	-8020
▁involving	-8021
▁Lar	-8022
ighter	-8023
▁moisture	-8024
▁rice	-8025
▁domain	-8026
▁players	-8027
▁meal	-8028
▁बच्चे	-8029
▁viruses	-8030
itely	-8031
▁division	-8032
?"	-8033
▁टै	-8034
▁cryst	-8035
कल	-8036
▁400	-8037
▁Low	-8038
▁ille	-8039
ey	-8040
▁declared	-8041
▁industries	-8042
ourage	-8043
कान	-8044
▁रखने	-8045
▁holds	-8046
▁consumer	-8047
▁kne	-8048
dule	-8049
▁operate	-8050
▁controls	-8051
▁indicated	-8052
such	-8053
▁ske	-8054
▁victims	-8055
iti	-8056
▁Si	-8057
▁fulf	-8058
कु	-8059
icit	-8060
scale	-8061
▁depart	-8062
▁scene	-8063
▁ended	-8064
65	-8065
▁वित	-8066
▁holid	-8067
ether	-8068
▁sacr	-8069
▁electro	-8070
▁announced	-8071
isk	-8072
gers	-8073
▁succeed	-8074
aked	-8075
▁gram	-8076
▁fashion	-8077
▁bag	-8078
▁दिव	-8079
▁tons	-8080
8).	-8081
▁route	-8082
ibl	-8083
hent	-8084
▁Try	-8085
▁approved	-8086
▁brings	-8087
▁calories	-8088
▁Irish	-8089
▁constructed	-8090
▁reliable	-8091
▁accessible	-8092
ोस	-8093
osh	-8094
हाय	-8095
▁Princ	-8096
▁oblig	-8097
acco	-8098
▁meters	-8099
fit	-8100
▁Key	-8101
▁गुरु	-8102
▁होंगे	-8103
▁county	-8104
▁Leg	-8105
▁फैस	-8106
▁Kingdom	-8107
▁physics	-8108
▁Method	-8109
▁interf	-8110
etime	-8111
▁runs	-8112
पित	-8113
▁नही	-8114
▁centre	-8115
▁bond	-8116
she	-8117
▁Lo	-8118
▁angle	-8119
▁Resources	-8120
ja	-8121
▁Year	-8122
▁पीछे	-8123
▁rank	-8124
▁Ep	-8125
▁मुद्	-8126
▁rivers	-8127
▁भग	-8128
ediatric	-8129
▁none	-8130
▁swim	-8131
▁shif	-8132
▁butter	-8133
▁हजार	-8134
▁banks	-8135
▁undert	-8136
gical	-8137
▁conven	-8138
▁intellectual	-8139
▁नीचे	-8140
▁यात्रा	-8141
▁trouble	-8142
▁facility	-8143
▁somewhat	-8144
▁trip	-8145
▁measurements	-8146
▁ring	-8147
▁घंट	-8148
▁boy	-8149
▁organs	-8150
▁Community	-8151
RC	-8152
्रॉ	-8153
ented	-8154
▁spaces	-8155
▁Fund	-8156
▁furn	-8157
▁विष	-8158
▁artists	-8159
otton	-8160
▁theories	-8161
▁é	-8162
▁Which	-8163
▁blocks	-8164
▁180	-8165
▁irrit	-8166
▁tight	-8167
▁Atlantic	-8168
44	-8169
▁receiving	-8170
▁1960	-8171
▁nob	-8172
abulary	-8173
▁surfaces	-8174
rooms	-8175
▁election	-8176
▁minerals	-8177
iders	-8178
एन	-8179
amins	-8180
▁Oxford	-8181
▁seeking	-8182
▁babies	-8183
▁repair	-8184
▁manip	-8185
▁tract	-8186
▁estimate	-8187
▁mechanical	-8188
▁glucose	-8189
▁stre	-8190
▁agreed	-8191
▁historic	-8192
▁destruction	-8193
▁damaged	-8194
ady	-8195
hyth	-8196
▁विभिन्न	-8197
▁adequate	-8198
bar	-8199
occ	-8200
सम	-8201
▁burning	-8202
▁earn	-8203
▁detection	-8204
▁recommendations	-8205
IG	-8206
▁holding	-8207
▁asking	-8208
▁पस	-8209
▁बच	-8210
▁volcan	-8211
▁intense	-8212
▁category	-8213
▁texts	-8214
▁archae	-8215
▁5,	-8216
चर	-8217
that	-8218
▁Consider	-8219
▁wait	-8220
▁मुंबई	-8221
▁legisl	-8222
▁सरकारी	-8223
▁entered	-8224
▁\	-8225
▁males	-8226
▁strongly	-8227
▁variables	-8228
▁missing	-8229
किल	-8230
▁Change	-8231
▁controvers	-8232
▁aband	-8233
rene	-8234
▁Po	-8235
▁preparation	-8236
idential	-8237
▁ا	-8238
▁Party	-8239
▁street	-8240
▁Indians	-8241
iah	-8242
▁Several	-8243
orous	-8244
▁tube	-8245
▁relief	-8246
▁column	-8247
▁roles	-8248
▁बीजेपी	-8249
▁publication	-8250
sen	-8251
▁boys	-8252
▁blind	-8253
▁Services	-8254
▁Mel	-8255
illa	-8256
oples	-8257
rency	-8258
▁measurement	-8259
ेंड	-8260
▁दोस्त	-8261
▁Pak	-8262
▁proof	-8263
▁theore	-8264
32	-8265
▁constantly	-8266
▁composed	-8267
▁collaboration	-8268
iability	-8269
ًا	-8270
▁Gr	-8271
Al	-8272
mes	-8273
▁orient	-8274
ोप	-8275
ba	-8276
▁paras	-8277
▁recip	-8278
▁biod	-8279
तंत्र	-8280
▁उपलब्ध	-8281
▁dan	-8282
▁analys	-8283
yal	-8284
▁fro	-8285
▁advert	-8286
Is	-8287
aded	-8288
ध्यम	-8289
▁सीट	-8290
▁Polic	-8291
ittle	-8292
▁Security	-8293
▁pou	-8294
▁Hill	-8295
▁pharm	-8296
CD	-8297
▁withd	-8298
▁Indust	-8299
▁wound	-8300
alls	-8301
▁worry	-8302
▁nervous	-8303
herent	-8304
OL	-8305
▁females	-8306
▁mortality	-8307
quit	-8308
यों	-8309
▁rocks	-8310
▁आग	-8311
▁coastal	-8312
▁beauty	-8313
▁हिन्दी	-8314
▁centers	-8315
▁neither	-8316
▁proportion	-8317
एल	-8318
▁वेब	-8319
etics	-8320
▁respectively	-8321
ष्ण	-8322
▁एम	-8323
▁engaged	-8324
UN	-8325
▁negot	-8326
▁Lib	-8327
▁Asian	-8328
▁honor	-8329
inson	-8330
▁Title	-8331
▁husband	-8332
▁pregnant	-8333
▁Type	-8334
________	-8335
▁distributed	-8336
▁नगर	-8337
▁circle	-8338
जिक	-8339
rial	-8340
▁बैठक	-8341
roat	-8342
▁forth	-8343
▁intest	-8344
ंथ	-8345
▁Dar	-8346
▁dose	-8347
uts	-8348
reek	-8349
▁यादव	-8350
▁advantages	-8351
▁preventing	-8352
▁plenty	-8353
▁conversation	-8354
ette	-8355
▁Bill	-8356
▁माध्यम	-8357
टल	-8358
▁mood	-8359
▁तस्	-8360
ulty	-8361
▁theme	-8362
▁loved	-8363
▁criteria	-8364
रल	-8365
▁सैन	-8366
▁अस्प	-8367
▁cards	-8368
df	-8369
▁turning	-8370
▁examination	-8371
oga	-8372
▁integrated	-8373
▁सै	-8374
▁metabol	-8375
▁MS	-8376
/0	-8377
▁seconds	-8378
▁enemy	-8379
▁score	-8380
abil	-8381
▁शाह	-8382
▁respiratory	-8383
▁seemed	-8384
▁acute	-8385
▁बिजली	-8386
ano	-8387
▁bath	-8388
▁प्रतिशत	-8389
▁;	-8390
▁Islam	-8391
र्या	-8392
igan	-8393
▁अति	-8394
▁pounds	-8395
▁dependent	-8396
iox	-8397
▁192	-8398
▁Den	-8399
▁fourth	-8400
▁Christmas	-8401
▁crim	-8402
hyd	-8403
क्शन	-8404
',	-8405
making	-8406
▁desired	-8407
▁ingredients	-8408
▁48	-8409
▁लाइ	-8410
▁सुबह	-8411
▁horses	-8412
▁influenced	-8413
pes	-8414
▁accuracy	-8415
▁breeding	-8416
▁renewable	-8417
UT	-8418
▁id	-8419
▁Zeal	-8420
esides	-8421
arsh	-8422
▁considering	-8423
RA	-8424
▁Rom	-8425
iration	-8426
▁महत्वपूर्ण	-8427
▁गाँ	-8428
agraph	-8429
▁Naz	-8430
airy	-8431
▁Dou	-8432
▁Sup	-8433
▁nose	-8434
▁Grand	-8435
▁facing	-8436
▁strict	-8437
thritis	-8438
▁परीक्षा	-8439
cience	-8440
▁Online	-8441
▁बोल	-8442
▁guidance	-8443
▁parallel	-8444
▁AM	-8445
▁weapons	-8446
oln	-8447
▁(198	-8448
▁principal	-8449
▁maintained	-8450
▁arts	-8451
▁ك	-8452
▁dischar	-8453
▁arrest	-8454
▁Without	-8455
orph	-8456
▁careful	-8457
▁clar	-8458
▁Tre	-8459
▁inn	-8460
itals	-8461
▁tut	-8462
▁mixt	-8463
▁gradually	-8464
▁moves	-8465
iral	-8466
▁dys	-8467
▁उसी	-8468
▁realize	-8469
▁pand	-8470
▁copper	-8471
▁biology	-8472
▁complicated	-8473
9)	-8474
▁Yes	-8475
▁कहीं	-8476
▁2004	-8477
▁अधिकारियों	-8478
isdom	-8479
▁attempts	-8480
oom	-8481
▁अर्थ	-8482
▁merely	-8483
aming	-8484
▁रहते	-8485
▁officers	-8486
▁मिश	-8487
▁sought	-8488
▁edition	-8489
▁outcome	-8490
▁District	-8491
health	-8492
▁designs	-8493
▁favorite	-8494
▁discrimination	-8495
▁Modern	-8496
operation	-8497
har	-8498
▁artist	-8499
▁incred	-8500
▁(20	-8501
▁forg	-8502
▁अफ	-8503
onomy	-8504
▁rely	-8505
▁contemporary	-8506
▁evaluate	-8507
जि	-8508
▁escape	-8509
rey	-8510
▁Mah	-8511
▁phenomenon	-8512
10.	-8513
emia	-8514
eren	-8515
aired	-8516
▁पक्ष	-8517
▁opposed	-8518
▁chest	-8519
▁silver	-8520
▁hun	-8521
न्स	-8522
▁commission	-8523
▁da	-8524
▁भू	-8525
▁हत्या	-8526
▁ग़	-8527
▁Agency	-8528
▁Network	-8529
▁compris	-8530
forcement	-8531
▁item	-8532
peror	-8533
▁abnormal	-8534
▁clothing	-8535
eut	-8536
ohyd	-8537
▁removal	-8538
▁satellite	-8539
▁uncertain	-8540
cons	-8541
▁33	-8542
apse	-8543
▁Jul	-8544
▁molecular	-8545
▁दौ	-8546
▁absence	-8547
िली	-8548
▁essentially	-8549
▁Pot	-8550
▁Administration	-8551
▁agents	-8552
▁thanks	-8553
asty	-8554
▁judge	-8555
ार्म	-8556
िकों	-8557
▁Sir	-8558
▁Zealand	-8559
रि	-8560
▁Coll	-8561
▁Rock	-8562
orders	-8563
▁हिंदी	-8564
▁shapes	-8565
▁cort	-8566
▁microb	-8567
ventions	-8568
▁scan	-8569
▁racial	-8570
▁संप	-8571
▁subsequent	-8572
▁considerable	-8573
पे	-8574
▁serving	-8575
▁प्रयास	-8576
iological	-8577
▁कला	-8578
▁भाई	-8579
▁proven	-8580
▁AND	-8581
▁sla	-8582
▁जवाब	-8583
▁chlor	-8584
▁sharp	-8585
gs	-8586
▁Moon	-8587
cyclop	-8588
▁shock	-8589
▁captured	-8590
▁messages	-8591
▁confirmed	-8592
▁ov	-8593
▁une	-8594
eli	-8595
ग्री	-8596
▁sales	-8597
▁branch	-8598
ॉप	-8599
▁bringing	-8600
gment	-8601
raining	-8602
बुक	-8603
ेशा	-8604
▁पक	-8605
▁peak	-8606
eness	-8607
▁guard	-8608
▁जाएगी	-8609
▁खबर	-8610
ovascular	-8611
ार्ड	-8612
▁infect	-8613
▁Secret	-8614
▁वृ	-8615
ptions	-8616
▁aims	-8617
▁jump	-8618
▁Safety	-8619
▁stronger	-8620
icate	-8621
▁Super	-8622
▁Jac	-8623
He	-8624
▁correl	-8625
▁mathematics	-8626
▁(1)	-8627
▁Whether	-8628
▁radical	-8629
▁planned	-8630
▁excessive	-8631
▁earthqu	-8632
▁farming	-8633
▁branches	-8634
▁Centre	-8635
▁2:	-8636
rary	-8637
▁Director	-8638
▁1950	-8639
ivered	-8640
▁scientist	-8641
▁implications	-8642
र्ग	-8643
▁flower	-8644
धे	-8645
▁Source	-8646
▁beings	-8647
▁owner	-8648
▁rarely	-8649
▁universal	-8650
▁characterized	-8651
▁mes	-8652
adder	-8653
▁minute	-8654
▁presents	-8655
▁MD	-8656
▁बयान	-8657
▁Muslim	-8658
▁session	-8659
थम	-8660
▁slavery	-8661
▁carrying	-8662
77	-8663
vard	-8664
▁signed	-8665
theless	-8666
heric	-8667
▁Light	-8668
▁dollars	-8669
55	-8670
▁empt	-8671
▁combat	-8672
oston	-8673
वेदन	-8674
▁mineral	-8675
▁statistics	-8676
▁Facebook	-8677
▁lie	-8678
ruption	-8679
्रीम	-8680
▁equally	-8681
ड़क	-8682
▁gut	-8683
▁गये	-8684
olving	-8685
▁treating	-8686
▁Coast	-8687
▁विधानसभा	-8688
▁Tom	-8689
▁Er	-8690
▁एक्स	-8691
▁Dev	-8692
▁Resp	-8693
▁sail	-8694
▁spin	-8695
▁mg	-8696
▁Tim	-8697
▁focuses	-8698
▁formula	-8699
▁fung	-8700
▁targets	-8701
▁फ्र	-8702
rous	-8703
rowing	-8704
▁infant	-8705
▁लगातार	-8706
▁cleaning	-8707
pling	-8708
incoln	-8709
▁phosph	-8710
▁तेल	-8711
▁सदस्य	-8712
▁38	-8713
▁cooking	-8714
धन	-8715
HD	-8716
▁newly	-8717
▁Johnson	-8718
▁Reading	-8719
▁varieties	-8720
mm	-8721
▁overw	-8722
▁superior	-8723
▁visitors	-8724
▁Cell	-8725
▁dealing	-8726
▁ton	-8727
पु	-8728
रीब	-8729
▁Liter	-8730
▁fairly	-8731
▁heating	-8732
iat	-8733
▁दक्षिण	-8734
▁Perhaps	-8735
▁investigation	-8736
34	-8737
▁sus	-8738
▁Scientists	-8739
ها	-8740
▁lake	-8741
▁turb	-8742
▁जाये	-8743
▁inher	-8744
▁effectiveness	-8745
outs	-8746
▁comfortable	-8747
▁ye	-8748
▁Oper	-8749
▁experimental	-8750
▁healing	-8751
ست	-8752
रान	-8753
▁crew	-8754
istical	-8755
▁exclus	-8756
▁py	-8757
▁implemented	-8758
lishing	-8759
▁knowing	-8760
▁proved	-8761
▁prohib	-8762
example	-8763
श्मीर	-8764
▁hormone	-8765
▁Ut	-8766
▁पोस्ट	-8767
▁दृ	-8768
▁हिस्सा	-8769
▁Pakistan	-8770
लत	-8771
▁एज	-8772
▁Nov	-8773
▁अन्	-8774
▁bomb	-8775
9).	-8776
▁View	-8777
▁disaster	-8778
sts	-8779
▁panel	-8780
▁essays	-8781
▁Play	-8782
▁cham	-8783
heimer	-8784
▁encouraged	-8785
▁fest	-8786
▁islands	-8787
rav	-8788
▁सहाय	-8789
▁config	-8790
▁informed	-8791
medi	-8792
▁serves	-8793
▁remed	-8794
riend	-8795
▁galax	-8796
▁Treatment	-8797
▁मिन	-8798
▁क्रिकेट	-8799
▁prominent	-8800
%.	-8801
▁शी	-8802
ष्ट्रीय	-8803
▁modified	-8804
▁spectrum	-8805
▁insert	-8806
▁अमरीका	-8807
▁writers	-8808
▁Remember	-8809
▁difficulties	-8810
ounce	-8811
▁transact	-8812
▁Cast	-8813
▁Sund	-8814
्यु	-8815
▁Mos	-8816
olit	-8817
▁coc	-8818
▁eliminate	-8819
द्योग	-8820
uality	-8821
iana	-8822
soft	-8823
▁brush	-8824
essions	-8825
An	-8826
▁corner	-8827
▁compound	-8828
क्रिया	-8829
▁nitrogen	-8830
ión	-8831
▁temple	-8832
sell	-8833
▁अहम	-8834
▁claimed	-8835
chen	-8836
▁assume	-8837
▁assigned	-8838
▁deeper	-8839
▁interpre	-8840
भर	-8841
ez	-8842
▁ज्ञ	-8843
▁printed	-8844
▁anywhere	-8845
bles	-8846
▁Neu	-8847
▁demands	-8848
▁structural	-8849
▁defense	-8850
यं	-8851
▁evil	-8852
▁स्वी	-8853
▁Ur	-8854
▁दू	-8855
▁हास	-8856
▁Ident	-8857
▁asthma	-8858
EE	-8859
ष्टि	-8860
▁breed	-8861
▁listening	-8862
▁गि	-8863
कट	-8864
द्धि	-8865
▁lights	-8866
रात	-8867
gence	-8868
▁बनाए	-8869
▁threats	-8870
tles	-8871
▁senior	-8872
aska	-8873
▁teams	-8874
▁Doc	-8875
▁Swed	-8876
ommod	-8877
atively	-8878
rox	-8879
▁75	-8880
▁variation	-8881
▁elected	-8882
▁statements	-8883
▁passing	-8884
मै	-8885
▁diameter	-8886
▁fed	-8887
▁subt	-8888
▁interpretation	-8889
▁poem	-8890
▁innovation	-8891
ontal	-8892
▁scar	-8893
▁gained	-8894
▁Business	-8895
▁remind	-8896
▁roads	-8897
▁adm	-8898
▁complications	-8899
aka	-8900
▁नोट	-8901
▁Cross	-8902
▁intent	-8903
▁usual	-8904
▁Engineering	-8905
▁ng	-8906
▁falls	-8907
American	-8908
%)	-8909
▁6,	-8910
▁चुकी	-8911
ुड	-8912
:10.	-8913
ilation	-8914
▁mold	-8915
▁नियम	-8916
▁sport	-8917
▁Organization	-8918
▁मेरा	-8919
amics	-8920
▁Hand	-8921
▁राजनीतिक	-8922
▁Fire	-8923
AA	-8924
स्थ्य	-8925
iary	-8926
▁Ins	-8927
▁लक्ष	-8928
▁holes	-8929
alm	-8930
▁पत्रकार	-8931
▁criminal	-8932
IDS	-8933
▁channel	-8934
▁rose	-8935
ipedia	-8936
▁outer	-8937
▁plane	-8938
▁errors	-8939
▁ordered	-8940
rison	-8941
▁fishing	-8942
▁(5	-8943
▁बज	-8944
haust	-8945
▁satisf	-8946
▁observe	-8947
▁Sar	-8948
▁learners	-8949
▁बेट	-8950
श्चिम	-8951
▁decor	-8952
▁recover	-8953
▁television	-8954
ograp	-8955
इड	-8956
▁bigger	-8957
▁pestic	-8958
▁substantial	-8959
plo	-8960
▁लगाया	-8961
▁hazard	-8962
▁trigger	-8963
▁ताकि	-8964
otal	-8965
▁على	-8966
▁wine	-8967
▁filter	-8968
▁delivered	-8969
▁happening	-8970
▁concerning	-8971
▁एड	-8972
▁तस्वीर	-8973
▁conj	-8974
riz	-8975
▁maybe	-8976
म्ह	-8977
ogether	-8978
▁decreased	-8979
sm	-8980
ricts	-8981
▁Math	-8982
▁Having	-8983
vin	-8984
▁2003	-8985
▁Pur	-8986
▁laid	-8987
▁Columbia	-8988
▁initially	-8989
▁समाप्त	-8990
▁शर्मा	-8991
brew	-8992
▁screening	-8993
▁65	-8994
▁roughly	-8995
▁हमेशा	-8996
▁Iran	-8997
▁Again	-8998
▁marks	-8999
una	-9000
▁Rh	-9001
igue	-9002
▁hosp	-9003
▁cong	-9004
▁brows	-9005
▁warning	-9006
▁Far	-9007
coming	-9008
▁videos	-9009
CT	-9010
▁नव	-9011
▁Mot	-9012
enger	-9013
▁flour	-9014
onn	-9015
▁व्यवस्था	-9016
▁मना	-9017
▁trends	-9018
▁TO	-9019
just	-9020
▁identification	-9021
▁Ven	-9022
ultane	-9023
▁unusual	-9024
▁examined	-9025
▁suffered	-9026
abeth	-9027
rane	-9028
▁Write	-9029
▁Prevention	-9030
▁कर्	-9031
▁Based	-9032
▁Vitamin	-9033
elfare	-9034
▁Jeff	-9035
▁Sand	-9036
yer	-9037
class	-9038
▁editor	-9039
▁Imp	-9040
▁compens	-9041
▁grid	-9042
▁बजे	-9043
लिया	-9044
▁slave	-9045
▁split	-9046
▁आपका	-9047
▁consideration	-9048
igate	-9049
▁लौ	-9050
▁युवा	-9051
▁defend	-9052
▁reward	-9053
▁स्म	-9054
▁Following	-9055
▁gro	-9056
▁पड़ा	-9057
▁sup	-9058
▁perm	-9059
▁गं	-9060
▁heavily	-9061
▁stations	-9062
शिया	-9063
▁pit	-9064
▁unw	-9065
▁earliest	-9066
▁indigenous	-9067
ioxid	-9068
▁conqu	-9069
ude	-9070
rance	-9071
▁neighborhood	-9072
▁epis	-9073
▁manifest	-9074
31	-9075
▁लॉ	-9076
▁detected	-9077
itarian	-9078
▁मॉ	-9079
semb	-9080
ersonal	-9081
▁Lincoln	-9082
76	-9083
▁Wall	-9084
रम	-9085
ेसबुक	-9086
▁accompan	-9087
▁cash	-9088
▁disrupt	-9089
अल	-9090
▁(4	-9091
▁pin	-9092
▁encoun	-9093
uten	-9094
▁Boston	-9095
▁provider	-9096
ucky	-9097
▁फोन	-9098
▁agent	-9099
▁इतना	-9100
95	-9101
▁printing	-9102
▁पेट	-9103
▁duty	-9104
▁coron	-9105
▁soul	-9106
oric	-9107
▁client	-9108
▁adds	-9109
▁physician	-9110
▁कमी	-9111
atial	-9112
ieval	-9113
▁सीमा	-9114
▁terror	-9115
▁tropical	-9116
ao	-9117
eck	-9118
▁plot	-9119
▁Polit	-9120
▁driven	-9121
▁observation	-9122
बू	-9123
म्प	-9124
▁stead	-9125
▁uncom	-9126
ruit	-9127
▁Pen	-9128
▁Eliz	-9129
▁literacy	-9130
▁CP	-9131
MP	-9132
त्ति	-9133
otype	-9134
▁windows	-9135
▁functioning	-9136
▁राहुल	-9137
▁शुरुआत	-9138
▁तम	-9139
onym	-9140
icing	-9141
▁schedule	-9142
ema	-9143
▁देना	-9144
▁evolved	-9145
fts	-9146
angle	-9147
▁Indeed	-9148
▁stores	-9149
स्कार	-9150
ांति	-9151
▁player	-9152
▁पहचान	-9153
▁Minister	-9154
▁strengthen	-9155
▁gi	-9156
▁correctly	-9157
▁परेश	-9158
▁orbit	-9159
▁amazing	-9160
ati	-9161
▁Assess	-9162
icy	-9163
▁Ask	-9164
▁finished	-9165
▁alter	-9166
▁worship	-9167
iva	-9168
▁Supreme	-9169
▁dynamic	-9170
▁kilomet	-9171
▁रव	-9172
▁टाइ	-9173
▁विप	-9174
▁caught	-9175
▁Lead	-9176
▁Portug	-9177
including	-9178
▁isolated	-9179
▁concentrations	-9180
unicip	-9181
▁dates	-9182
ियान	-9183
▁tip	-9184
▁reveal	-9185
▁चर्चा	-9186
▁Heart	-9187
▁Ol	-9188
▁antibiotics	-9189
▁traditions	-9190
▁लो	-9191
▁अंदर	-9192
▁grain	-9193
तृ	-9194
▁कवि	-9195
vania	-9196
▁Bul	-9197
▁stability	-9198
▁स्वास्थ्य	-9199
ामा	-9200
▁faced	-9201
तान	-9202
ois	-9203
▁वापस	-9204
▁consume	-9205
यू	-9206
▁Parent	-9207
चीत	-9208
▁flows	-9209
▁वी	-9210
▁uniform	-9211
▁SS	-9212
▁giant	-9213
▁अस्पताल	-9214
▁टेस्ट	-9215
▁driver	-9216
asant	-9217
▁union	-9218
▁bacterial	-9219
ustain	-9220
▁honey	-9221
▁यून	-9222
effect	-9223
▁देव	-9224
ostic	-9225
▁van	-9226
▁सम्मान	-9227
▁objectives	-9228
▁array	-9229
▁Avoid	-9230
▁inequ	-9231
▁sunlight	-9232
▁ceremon	-9233
वासी	-9234
▁decay	-9235
▁writes	-9236
▁conference	-9237
▁rac	-9238
▁pros	-9239
▁Incre	-9240
▁मिलने	-9241
िक्ष	-9242
▁regulation	-9243
etary	-9244
▁accommod	-9245
HA	-9246
▁sitting	-9247
▁measuring	-9248
▁slaves	-9249
▁aged	-9250
▁biom	-9251
▁coverage	-9252
र्ती	-9253
▁rab	-9254
▁engineers	-9255
syl	-9256
▁Did	-9257
ंसा	-9258
▁सांस	-9259
▁suscept	-9260
तियों	-9261
▁आदेश	-9262
▁Being	-9263
ami	-9264
▁alph	-9265
▁घोषणा	-9266
▁innovative	-9267
▁Hor	-9268
acent	-9269
ested	-9270
▁reaching	-9271
▁concluded	-9272
▁छो	-9273
▁Obs	-9274
ेक	-9275
▁जम	-9276
▁lymph	-9277
ishop	-9278
▁IV	-9279
▁आत	-9280
irth	-9281
▁pod	-9282
▁Star	-9283
▁overcome	-9284
mod	-9285
▁acres	-9286
▁hardware	-9287
ogenic	-9288
▁बातचीत	-9289
▁Ly	-9290
▁na	-9291
▁finds	-9292
rays	-9293
विधा	-9294
▁wheat	-9295
▁extend	-9296
▁Edward	-9297
▁इंडिया	-9298
▁प्रदान	-9299
mers	-9300
century	-9301
▁una	-9302
▁commitment	-9303
▁vocabulary	-9304
▁Gar	-9305
spect	-9306
▁Thanks	-9307
▁heads	-9308
▁Pass	-9309
▁Hebrew	-9310
▁intensity	-9311
oli	-9312
क्षित	-9313
▁माँ	-9314
▁dietary	-9315
मता	-9316
▁contribution	-9317
▁Alz	-9318
ENT	-9319
▁खास	-9320
▁Unlike	-9321
▁Christians	-9322
GB	-9323
aya	-9324
night	-9325
▁peoples	-9326
▁victim	-9327
isa	-9328
▁Scotland	-9329
▁laser	-9330
▁imaging	-9331
▁Conservation	-9332
▁finger	-9333
▁automatically	-9334
▁34	-9335
▁मामला	-9336
apor	-9337
▁Ohio	-9338
▁Blue	-9339
New	-9340
▁phrase	-9341
▁granted	-9342
▁hence	-9343
TP	-9344
▁stuff	-9345
▁quantity	-9346
▁Road	-9347
itual	-9348
▁Survey	-9349
▁vel	-9350
▁ampl	-9351
▁संयुक्त	-9352
-12	-9353
▁आर्थ	-9354
▁छोटे	-9355
▁vitamins	-9356
▁Way	-9357
ket	-9358
▁exception	-9359
खंड	-9360
▁Hospital	-9361
ुओं	-9362
▁मां	-9363
▁Card	-9364
▁emphasis	-9365
▁सित	-9366
ansas	-9367
▁चुका	-9368
▁programme	-9369
▁मजब	-9370
▁वालों	-9371
▁viewed	-9372
▁Due	-9373
▁हमारी	-9374
produ	-9375
▁grows	-9376
▁identifying	-9377
▁pel	-9378
▁37	-9379
▁colonial	-9380
list	-9381
icted	-9382
▁descript	-9383
Cl	-9384
▁enorm	-9385
/201	-9386
▁Lee	-9387
▁सूचना	-9388
▁hidden	-9389
▁disabilities	-9390
▁Cambridge	-9391
▁occurring	-9392
▁कहानी	-9393
▁राय	-9394
फा	-9395
ando	-9396
▁inspired	-9397
gien	-9398
▁pla	-9399
▁2001	-9400
▁authent	-9401
▁narrative	-9402
▁parameters	-9403
▁rect	-9404
angered	-9405
▁Spring	-9406
▁Division	-9407
from	-9408
otherapy	-9409
▁tor	-9410
▁neuro	-9411
▁strain	-9412
▁quantum	-9413
▁२	-9414
writ	-9415
trans	-9416
orted	-9417
▁mir	-9418
▁adverse	-9419
▁Protection	-9420
▁भूमिका	-9421
▁moderate	-9422
▁हासिल	-9423
▁planting	-9424
▁psychology	-9425
▁Wal	-9426
▁bees	-9427
OM	-9428
ायद	-9429
▁lip	-9430
▁Policy	-9431
बंधन	-9432
▁covering	-9433
▁गति	-9434
▁advent	-9435
po	-9436
▁AL	-9437
print	-9438
isco	-9439
▁processed	-9440
HS	-9441
iture	-9442
▁रहता	-9443
▁meals	-9444
▁wheel	-9445
▁Him	-9446
▁providers	-9447
rolled	-9448
▁regardless	-9449
गार	-9450
azon	-9451
oids	-9452
▁mine	-9453
▁Model	-9454
▁enables	-9455
▁characteristic	-9456
▁कट	-9457
▁worst	-9458
▁supplements	-9459
▁fatty	-9460
▁मश	-9461
▁रै	-9462
▁relie	-9463
acts	-9464
▁bless	-9465
▁conserv	-9466
▁Indones	-9467
ographical	-9468
▁होकर	-9469
लाइन	-9470
▁preced	-9471
▁directed	-9472
▁शो	-9473
▁athlet	-9474
▁oldest	-9475
sylvania	-9476
66	-9477
▁माह	-9478
▁literary	-9479
plete	-9480
▁perception	-9481
allow	-9482
▁Corn	-9483
▁उससे	-9484
▁Queen	-9485
▁democracy	-9486
▁drought	-9487
ام	-9488
▁calling	-9489
▁Iss	-9490
▁seat	-9491
▁addressed	-9492
▁inhabit	-9493
▁Impro	-9494
▁Alzheimer	-9495
▁paragraph	-9496
▁experiencing	-9497
ercury	-9498
iments	-9499
▁regarded	-9500
Un	-9501
कृत	-9502
▁उम्र	-9503
▁autism	-9504
▁mathematical	-9505
▁Books	-9506
▁exhaust	-9507
▁protecting	-9508
▁nice	-9509
▁overwhel	-9510
▁protective	-9511
▁बर्	-9512
▁बेहतर	-9513
igare	-9514
▁Korea	-9515
▁mixture	-9516
▁Michigan	-9517
itory	-9518
htt	-9519
िम्म	-9520
▁बदला	-9521
▁representation	-9522
▁Mic	-9523
▁184	-9524
▁तीस	-9525
▁girl	-9526
▁Georgia	-9527
▁अमेरिका	-9528
▁abilities	-9529
▁polar	-9530
▁customer	-9531
▁pandemic	-9532
▁productivity	-9533
▁thermal	-9534
ocal	-9535
▁Head	-9536
▁weakness	-9537
▁2002	-9538
▁भगवान	-9539
▁profit	-9540
▁musical	-9541
▁lungs	-9542
▁tob	-9543
▁taxes	-9544
html	-9545
▁fra	-9546
▁sensitivity	-9547
usive	-9548
▁Invest	-9549
▁personality	-9550
▁scores	-9551
▁interface	-9552
▁स्क्रीन	-9553
▁धो	-9554
धिकार	-9555
▁forming	-9556
▁acquired	-9557
▁simultane	-9558
play	-9559
rection	-9560
▁Lim	-9561
▁Point	-9562
▁contributed	-9563
▁steam	-9564
athered	-9565
▁tables	-9566
▁Force	-9567
▁robot	-9568
ulpt	-9569
▁IT	-9570
▁vaccines	-9571
▁affecting	-9572
ás	-9573
ंद्र	-9574
▁farms	-9575
लू	-9576
arn	-9577
▁chances	-9578
CA	-9579
▁الأ	-9580
▁पहला	-9581
▁cattle	-9582
door	-9583
▁thereby	-9584
▁''	-9585
▁पसंद	-9586
NS	-9587
hea	-9588
▁cure	-9589
▁Father	-9590
rat	-9591
lines	-9592
],	-9593
▁Hindu	-9594
▁button	-9595
iser	-9596
▁availability	-9597
▁Scholar	-9598
▁comprom	-9599
▁mountains	-9600
▁tap	-9601
▁falling	-9602
uset	-9603
▁पाए	-9604
▁Circ	-9605
▁managing	-9606
▁1,000	-9607
भीर	-9608
▁Battle	-9609
▁elder	-9610
alities	-9611
▁Dutch	-9612
▁quiet	-9613
▁herb	-9614
▁calculated	-9615
▁Los	-9616
▁deficiency	-9617
rical	-9618
▁illegal	-9619
सं	-9620
▁vertical	-9621
text	-9622
ailable	-9623
▁counsel	-9624
▁versions	-9625
berry	-9626
apping	-9627
धर	-9628
▁Help	-9629
▁stake	-9630
▁argue	-9631
▁desert	-9632
brid	-9633
▁ड्र	-9634
holders	-9635
▁gases	-9636
▁analyze	-9637
▁appointed	-9638
गू	-9639
▁cotton	-9640
real	-9641
▁sensors	-9642
▁gast	-9643
lete	-9644
▁तुम्ह	-9645
▁visited	-9646
▁कार्र	-9647
▁आर्थिक	-9648
▁insight	-9649
advant	-9650
▁dress	-9651
▁पत्नी	-9652
▁mosquit	-9653
▁CH	-9654
▁lens	-9655
▁Elizabeth	-9656
▁researcher	-9657
▁7,	-9658
▁surge	-9659
▁यानी	-9660
usetts	-9661
▁इतिहास	-9662
ymes	-9663
▁assets	-9664
achusetts	-9665
ogs	-9666
▁pH	-9667
्यो	-9668
ador	-9669
▁ven	-9670
▁resid	-9671
▁computing	-9672
▁प्रक्रिया	-9673
▁hal	-9674
▁reporting	-9675
▁exploration	-9676
ان	-9677
▁रखें	-9678
quir	-9679
स्ती	-9680
▁spr	-9681
▁introduce	-9682
és	-9683
▁(2)	-9684
▁neutral	-9685
▁heritage	-9686
adow	-9687
▁Lin	-9688
icular	-9689
▁buried	-9690
▁Pennsylvania	-9691
▁परिव	-9692
▁पश्चिम	-9693
▁urine	-9694
▁technological	-9695
ourse	-9696
▁أن	-9697
▁interactive	-9698
ông	-9699
▁cooling	-9700
▁नया	-9701
ptom	-9702
▁Analysis	-9703
▁rational	-9704
pled	-9705
▁Wil	-9706
▁trauma	-9707
▁हिंद	-9708
▁Later	-9709
▁1)	-9710
▁separated	-9711
ानीय	-9712
▁संगठन	-9713
▁पड़े	-9714
▁हमले	-9715
▁substit	-9716
▁settlement	-9717
▁equation	-9718
वरण	-9719
▁cardiovascular	-9720
भार	-9721
▁alive	-9722
▁smell	-9723
▁believes	-9724
jo	-9725
▁improvements	-9726
िशा	-9727
neys	-9728
▁202	-9729
▁linear	-9730
irms	-9731
▁आता	-9732
▁सर्	-9733
तरी	-9734
▁proceed	-9735
▁tobacco	-9736
▁शेयर	-9737
▁Small	-9738
▁बाजार	-9739
How	-9740
▁ran	-9741
▁flash	-9742
▁chemistry	-9743
▁wisdom	-9744
▁killing	-9745
▁interventions	-9746
▁Ve	-9747
▁updated	-9748
▁aimed	-9749
onal	-9750
ricted	-9751
▁quarter	-9752
▁consumed	-9753
▁expanded	-9754
▁educators	-9755
▁humanity	-9756
anned	-9757
▁tumor	-9758
.).	-9759
hus	-9760
zer	-9761
▁officer	-9762
ोजन	-9763
▁shoot	-9764
▁जरूरत	-9765
ett	-9766
▁तय	-9767
▁pointed	-9768
▁asp	-9769
zo	-9770
▁Ira	-9771
▁ordinary	-9772
▁charged	-9773
▁carbohyd	-9774
▁myst	-9775
▁खरीद	-9776
iger	-9777
▁Harvard	-9778
ालत	-9779
▁Page	-9780
▁manufacturers	-9781
▁मंगल	-9782
opher	-9783
reated	-9784
▁Palest	-9785
▁राजनीति	-9786
EO	-9787
▁performing	-9788
▁गण	-9789
ician	-9790
▁initiative	-9791
▁समर्थन	-9792
▁propag	-9793
▁प्य	-9794
▁किये	-9795
▁lock	-9796
▁nutrient	-9797
▁irrig	-9798
▁waiting	-9799
▁वन	-9800
▁रोग	-9801
▁clock	-9802
▁losses	-9803
mentation	-9804
▁migration	-9805
EF	-9806
Med	-9807
▁batteries	-9808
▁panels	-9809
▁variations	-9810
▁Mur	-9811
▁Justice	-9812
▁Section	-9813
साइट	-9814
▁cord	-9815
▁कार्रवाई	-9816
'.	-9817
def	-9818
▁AR	-9819
iner	-9820
▁Mach	-9821
▁sentences	-9822
aws	-9823
mann	-9824
▁रोज	-9825
▁antioxid	-9826
▁harder	-9827
▁Massachusetts	-9828
atal	-9829
anger	-9830
▁tong	-9831
usalem	-9832
▁spray	-9833
▁towns	-9834
oto	-9835
▁Islamic	-9836
▁Writing	-9837
विद्यालय	-9838
▁Colorado	-9839
▁boundaries	-9840
▁dim	-9841
▁Digital	-9842
98	-9843
DS	-9844
erty	-9845
archy	-9846
▁Hawai	-9847
▁Often	-9848
▁adolesc	-9849
▁exciting	-9850
▁10,	-9851
68	-9852
▁Max	-9853
aren	-9854
▁dimens	-9855
▁emerging	-9856
DR	-9857
▁dism	-9858
▁gent	-9859
amine	-9860
▁elsewhere	-9861
urches	-9862
▁cyber	-9863
▁styles	-9864
ila	-9865
▁SP	-9866
▁liv	-9867
vi	-9868
िटर	-9869
mented	-9870
▁sched	-9871
▁hunting	-9872
▁ensuring	-9873
▁embra	-9874
▁£	-9875
-201	-9876
adel	-9877
eting	-9878
▁stopped	-9879
erman	-9880
▁Drug	-9881
▁sizes	-9882
▁attitude	-9883
▁flexible	-9884
▁argued	-9885
▁गुज	-9886
▁Spirit	-9887
▁poetry	-9888
▁stones	-9889
▁emotion	-9890
▁metals	-9891
sor	-9892
▁चलते	-9893
नीय	-9894
▁Stan	-9895
▁ब्रिट	-9896
uther	-9897
▁owned	-9898
ठी	-9899
uan	-9900
▁um	-9901
▁सहयोग	-9902
▁Within	-9903
▁Building	-9904
▁”	-9905
▁lists	-9906
▁ritual	-9907
▁Process	-9908
▁Alexander	-9909
▁नंबर	-9910
uum	-9911
▁royal	-9912
bean	-9913
▁chap	-9914
▁reverse	-9915
▁promoting	-9916
▁geomet	-9917
▁सन्	-9918
istant	-9919
▁resil	-9920
ác	-9921
ocation	-9922
▁व्यापार	-9923
▁Cub	-9924
▁rhyth	-9925
▁orders	-9926
▁preserve	-9927
▁extension	-9928
▁disability	-9929
▁ق	-9930
amps	-9931
asts	-9932
▁eru	-9933
forest	-9934
ependent	-9935
▁compost	-9936
▁प्रशासन	-9937
▁जय	-9938
▁Place	-9939
ipher	-9940
▁Crit	-9941
▁permission	-9942
▁Li	-9943
▁दबा	-9944
▁Ba	-9945
aints	-9946
▁societies	-9947
▁55	-9948
▁Behav	-9949
▁Confed	-9950
▁Little	-9951
▁Philipp	-9952
▁ecological	-9953
▁ethical	-9954
▁dramatic	-9955
▁मोह	-9956
▁गाँव	-9957
▁शब्द	-9958
▁lowest	-9959
▁reasonable	-9960
▁DO	-9961
▁कौन	-9962
▁mothers	-9963
▁temporary	-9964
▁wonderful	-9965
EG	-9966
▁Gener	-9967
▁sevent	-9968
▁movie	-9969
▁focusing	-9970
▁1920	-9971
▁सात	-9972
▁entertain	-9973
box	-9974
oul	-9975
ptic	-9976
▁los	-9977
eor	-9978
साय	-9979
idal	-9980
▁देर	-9981
iop	-9982
▁भेज	-9983
ecess	-9984
▁boat	-9985
▁ease	-9986
▁audio	-9987
▁tribes	-9988
▁evening	-9989
▁safely	-9990
▁opposition	-9991
▁achievement	-9992
▁fellow	-9993
फ्ट	-9994
▁अंक	-9995
▁Solar	-9996
▁सुविधा	-9997
▁communications	-9998
ار	-9999
्रो	-10000
▁behavioral	-10001
▁capabilities	-10002
▁DC	-10003
▁dil	-10004
▁attach	-10005
▁जैसी	-10006
▁faces	-10007
▁degrad	-10008
▁plain	-10009
▁Economic	-10010
▁Fil	-10011
▁8,	-10012
▁Bang	-10013
lights	-10014
▁Right	-10015
▁Arctic	-10016
obile	-10017
▁स्थानीय	-10018
ियल	-10019
▁arguments	-10020
▁executive	-10021
▁الت	-10022
▁Level	-10023
▁là	-10024
▁Systems	-10025
▁tick	-10026
▁मिनट	-10027
▁हमला	-10028
omer	-10029
uits	-10030
▁engaging	-10031
तक	-10032
▁कमा	-10033
▁चिक	-10034
▁बनी	-10035
▁drivers	-10036
ين	-10037
▁interior	-10038
▁container	-10039
▁Var	-10040
▁sensor	-10041
▁duration	-10042
▁websites	-10043
Ex	-10044
सद	-10045
bel	-10046
▁fats	-10047
▁ID	-10048
▁fisher	-10049
▁integration	-10050
▁nom	-10051
▁grains	-10052
wan	-10053
▁logic	-10054
▁deeply	-10055
▁NO	-10056
▁साह	-10057
▁Ice	-10058
▁Sunday	-10059
▁painful	-10060
▁oxid	-10061
▁Copyright	-10062
▁EPA	-10063
rix	-10064
▁शुक्र	-10065
▁Diet	-10066
▁शायद	-10067
▁||	-10068
endment	-10069
▁ऐप	-10070
▁Laboratory	-10071
▁investigate	-10072
ंभ	-10073
▁flying	-10074
▁exhibit	-10075
▁streets	-10076
▁12.	-10077
Sh	-10078
unct	-10079
फ़ी	-10080
▁2)	-10081
estock	-10082
ंडी	-10083
▁scope	-10084
▁dominant	-10085
▁shaped	-10086
▁universities	-10087
CE	-10088
▁Hum	-10089
▁मृत	-10090
▁1000	-10091
▁consciousness	-10092
rize	-10093
▁Kids	-10094
▁hall	-10095
▁threatened	-10096
कत	-10097
▁tens	-10098
unc	-10099
▁डॉक्टर	-10100
▁न्याया	-10101
▁Physical	-10102
स्ल	-10103
▁3:	-10104
▁planets	-10105
▁Jerusalem	-10106
▁marketing	-10107
las	-10108
▁अच्छे	-10109
▁labour	-10110
▁chair	-10111
▁genome	-10112
▁cancers	-10113
utation	-10114
▁classified	-10115
ugg	-10116
CP	-10117
erts	-10118
▁fing	-10119
▁उल्	-10120
hire	-10121
cking	-10122
bell	-10123
lims	-10124
▁39	-10125
▁120	-10126
▁करवा	-10127
regation	-10128
▁Parliament	-10129
▁Ram	-10130
▁expectations	-10131
▁recycling	-10132
▁Christianity	-10133
▁Still	-10134
▁देखते	-10135
▁watching	-10136
agen	-10137
▁राशि	-10138
asy	-10139
किंग	-10140
▁dance	-10141
edu	-10142
▁Between	-10143
een	-10144
▁kingdom	-10145
▁determining	-10146
For	-10147
पना	-10148
▁आते	-10149
▁incident	-10150
▁classical	-10151
▁Symptoms	-10152
▁colonies	-10153
And	-10154
तिम	-10155
fulness	-10156
▁spoken	-10157
▁settled	-10158
▁applying	-10159
▁transmit	-10160
▁Media	-10161
▁गंभीर	-10162
▁preferred	-10163
ॉट	-10164
▁पट	-10165
▁ecosystems	-10166
▁बिल	-10167
▁tempor	-10168
▁engines	-10169
▁empty	-10170
ग़	-10171
▁dies	-10172
▁corresponding	-10173
रु	-10174
धानी	-10175
▁trick	-10176
urning	-10177
▁entering	-10178
▁feels	-10179
▁profile	-10180
नेट	-10181
▁Hard	-10182
▁saved	-10183
quar	-10184
anted	-10185
▁keeps	-10186
▁assumed	-10187
वुड	-10188
▁Navy	-10189
▁creatures	-10190
▁Iraq	-10191
▁Bh	-10192
▁पैदा	-10193
चल	-10194
▁Pu	-10195
elve	-10196
▁cann	-10197
▁integr	-10198
▁evident	-10199
▁Wildlife	-10200
िकल	-10201
▁Agriculture	-10202
▁घंटे	-10203
▁contributions	-10204
▁वर्ग	-10205
▁अप्र	-10206
▁हमने	-10207
▁नरेंद्र	-10208
borne	-10209
▁physically	-10210
▁rh	-10211
kind	-10212
cyclopedia	-10213
▁vegetation	-10214
ीट	-10215
▁fo	-10216
स्तव	-10217
▁Chem	-10218
▁membrane	-10219
hal	-10220
▁acting	-10221
▁प्रत्य	-10222
▁ranging	-10223
▁households	-10224
डल	-10225
ols	-10226
वीं	-10227
uris	-10228
▁11,	-10229
▁Van	-10230
▁cul	-10231
▁manual	-10232
ूं	-10233
▁MA	-10234
▁prey	-10235
▁Saint	-10236
▁प्रेम	-10237
thon	-10238
▁तुल	-10239
▁establishment	-10240
▁lighting	-10241
करी	-10242
words	-10243
▁plas	-10244
▁युद्ध	-10245
▁नागर	-10246
rh	-10247
▁फीस	-10248
▁libr	-10249
▁spots	-10250
▁courts	-10251
▁differ	-10252
▁fought	-10253
▁fatigue	-10254
▁महारा	-10255
▁raising	-10256
▁committee	-10257
▁11.	-10258
▁Capt	-10259
▁Mess	-10260
▁clothes	-10261
▁एल	-10262
▁gly	-10263
▁conclus	-10264
▁sodium	-10265
MA	-10266
▁सामा	-10267
बाइल	-10268
▁वक्त	-10269
79	-10270
IF	-10271
agan	-10272
▁bare	-10273
earch	-10274
▁Ok	-10275
▁आयोग	-10276
▁definitely	-10277
▁sad	-10278
CH	-10279
▁आख	-10280
▁Farm	-10281
▁RNA	-10282
▁Put	-10283
▁differently	-10284
झा	-10285
mia	-10286
▁ol	-10287
eping	-10288
▁पुरुष	-10289
▁manager	-10290
िक्स	-10291
ker	-10292
णाम	-10293
▁Code	-10294
▁reign	-10295
▁wider	-10296
▁hormones	-10297
▁सहित	-10298
▁chose	-10299
▁continuing	-10300
▁fur	-10301
▁सोम	-10302
▁UV	-10303
gener	-10304
▁Mond	-10305
▁remarkable	-10306
▁wearing	-10307
▁districts	-10308
ॉन	-10309
▁विवाद	-10310
▁equality	-10311
▁accompanied	-10312
▁पाल	-10313
Google	-10314
▁directions	-10315
!!	-10316
▁pill	-10317
▁thread	-10318
amination	-10319
▁जमा	-10320
▁begun	-10321
▁Cost	-10322
▁saving	-10323
▁removing	-10324
▁attribut	-10325
▁priority	-10326
ouds	-10327
enced	-10328
चाल	-10329
▁Support	-10330
CR	-10331
▁sculpt	-10332
्रम	-10333
ranean	-10334
▁fuels	-10335
copy	-10336
rait	-10337
▁convert	-10338
▁पाया	-10339
▁traits	-10340
▁perceived	-10341
▁Conference	-10342
▁भे	-10343
▁buff	-10344
▁Daniel	-10345
▁telling	-10346
क्ता	-10347
▁युव	-10348
raham	-10349
▁1930	-10350
▁violent	-10351
खी	-10352
▁beat	-10353
▁entit	-10354
▁cow	-10355
ायल	-10356
▁पूर्ण	-10357
▁PDF	-10358
▁मुश्	-10359
▁viral	-10360
▁addiction	-10361
▁celebrated	-10362
▁exped	-10363
▁prime	-10364
▁सामान्य	-10365
▁joints	-10366
▁ऑन	-10367
▁Arts	-10368
▁cough	-10369
AB	-10370
▁gravity	-10371
▁assembly	-10372
▁infants	-10373
▁tack	-10374
▁occas	-10375
uy	-10376
▁embry	-10377
▁parad	-10378
▁passion	-10379
▁Gall	-10380
▁dating	-10381
▁उम्मीदवार	-10382
rus	-10383
neum	-10384
▁tab	-10385
▁Standard	-10386
▁Frid	-10387
▁sulf	-10388
▁atoms	-10389
▁grounds	-10390
64	-10391
▁वही	-10392
▁ح	-10393
ogy	-10394
लेज	-10395
▁dairy	-10396
▁तरीके	-10397
▁explicit	-10398
▁newspaper	-10399
▁fet	-10400
▁discussions	-10401
ji	-10402
thew	-10403
▁craft	-10404
▁Norm	-10405
▁सुप	-10406
▁Chief	-10407
▁Amazon	-10408
▁Proble	-10409
▁@	-10410
▁सामाजिक	-10411
▁medicines	-10412
da	-10413
▁आयोजित	-10414
zyme	-10415
▁Offic	-10416
▁दिखाई	-10417
▁appeal	-10418
▁Pain	-10419
▁verb	-10420
▁heaven	-10421
▁Microsoft	-10422
▁thể	-10423
▁Fred	-10424
▁convey	-10425
olk	-10426
▁guess	-10427
▁minds	-10428
▁Andrew	-10429
▁Examples	-10430
▁Blood	-10431
▁जुड़े	-10432
▁losing	-10433
▁clients	-10434
▁50%	-10435
▁Answ	-10436
▁fires	-10437
▁सिद्ध	-10438
▁requirement	-10439
▁अख	-10440
▁Major	-10441
ailed	-10442
▁pupils	-10443
▁circulation	-10444
▁hat	-10445
▁Islands	-10446
▁भु	-10447
▁Ott	-10448
▁इन्	-10449
▁nutritional	-10450
हरे	-10451
operative	-10452
कुल	-10453
▁Self	-10454
elescope	-10455
▁शि	-10456
▁shed	-10457
ologically	-10458
▁sustainability	-10459
शु	-10460
rades	-10461
ाब	-10462
▁drinks	-10463
▁barriers	-10464
thod	-10465
▁पंच	-10466
orig	-10467
gon	-10468
▁converted	-10469
▁probability	-10470
▁178	-10471
agnetic	-10472
▁advis	-10473
▁pilot	-10474
▁उनसे	-10475
▁जून	-10476
▁Call	-10477
ifice	-10478
▁Prim	-10479
ocolate	-10480
▁enormous	-10481
▁disadvant	-10482
▁Dictionary	-10483
Sum	-10484
▁spinal	-10485
▁Interest	-10486
endar	-10487
▁loose	-10488
▁thesis	-10489
▁Ast	-10490
▁अगले	-10491
▁limitations	-10492
वत	-10493
▁Much	-10494
encing	-10495
▁balanced	-10496
tw	-10497
▁targeted	-10498
▁obst	-10499
▁वेबसाइट	-10500
▁orb	-10501
▁bias	-10502
▁resc	-10503
ackson	-10504
▁Select	-10505
▁accord	-10506
▁grades	-10507
▁गिरफ्त	-10508
pre	-10509
ित्व	-10510
▁cub	-10511
▁mouse	-10512
▁Similarly	-10513
▁references	-10514
lymp	-10515
▁सारे	-10516
foot	-10517
chain	-10518
▁promise	-10519
▁biodiversity	-10520
awa	-10521
▁तला	-10522
▁Hence	-10523
ष्य	-10524
▁mature	-10525
▁Short	-10526
▁versus	-10527
मारी	-10528
▁suit	-10529
ोरी	-10530
disc	-10531
▁strike	-10532
वें	-10533
▁Emer	-10534
▁weigh	-10535
▁कश्मीर	-10536
▁emerged	-10537
eutic	-10538
▁Material	-10539
nut	-10540
▁मगर	-10541
books	-10542
▁hygien	-10543
▁savings	-10544
राने	-10545
▁Gulf	-10546
▁Bal	-10547
▁त्र	-10548
▁dense	-10549
▁develops	-10550
▁handling	-10551
▁attitudes	-10552
▁hypothesis	-10553
▁hospitals	-10554
▁asc	-10555
esium	-10556
▁recre	-10557
▁photographs	-10558
▁विषय	-10559
pert	-10560
▁»	-10561
▁wat	-10562
▁trem	-10563
▁Field	-10564
▁origins	-10565
▁बेहद	-10566
▁acknowled	-10567
▁unn	-10568
▁Should	-10569
▁प्रभावित	-10570
▁पंजा	-10571
▁पति	-10572
▁outbreak	-10573
▁अभियान	-10574
▁solving	-10575
▁बोर्ड	-10576
▁sessions	-10577
▁Music	-10578
▁Understanding	-10579
▁symbols	-10580
▁गर्	-10581
▁beans	-10582
ups	-10583
द्व	-10584
सत	-10585
▁$1	-10586
▁gum	-10587
▁gods	-10588
▁marg	-10589
▁existed	-10590
▁digestive	-10591
▁आन	-10592
▁Nob	-10593
mentia	-10594
umer	-10595
▁Fig	-10596
▁मोबाइल	-10597
▁vegetable	-10598
imp	-10599
olt	-10600
uscript	-10601
▁devast	-10602
▁default	-10603
▁holiday	-10604
OD	-10605
्वर	-10606
▁सुना	-10607
▁stood	-10608
▁mas	-10609
▁sale	-10610
▁aging	-10611
Ad	-10612
▁Squ	-10613
raine	-10614
▁engagement	-10615
▁withdraw	-10616
▁expertise	-10617
jud	-10618
inois	-10619
▁assert	-10620
==	-10621
▁welfare	-10622
▁celebrate	-10623
▁powder	-10624
▁मुश्किल	-10625
▁Ell	-10626
▁Question	-10627
▁transmitted	-10628
▁जित	-10629
▁pione	-10630
▁संभाव	-10631
▁Francisco	-10632
▁wars	-10633
▁aggressive	-10634
sex	-10635
▁पृ	-10636
स्ट्रे	-10637
▁Testament	-10638
▁आत्म	-10639
friend	-10640
▁optimal	-10641
▁permit	-10642
▁cooperation	-10643
▁सल	-10644
▁auto	-10645
▁ट्विटर	-10646
▁उद्	-10647
▁diarr	-10648
TH	-10649
oves	-10650
▁Poly	-10651
itar	-10652
▁scenario	-10653
When	-10654
▁club	-10655
▁bleeding	-10656
अप	-10657
▁Aff	-10658
▁Tri	-10659
▁precip	-10660
▁readily	-10661
plate	-10662
लीवुड	-10663
▁बीबीसी	-10664
43	-10665
▁Mid	-10666
▁वहाँ	-10667
▁complexity	-10668
fast	-10669
▁Town	-10670
▁colony	-10671
▁replacement	-10672
▁आवा	-10673
▁peer	-10674
▁frust	-10675
▁Muslims	-10676
▁anticip	-10677
▁restaur	-10678
▁actively	-10679
▁soph	-10680
▁apparently	-10681
▁Colon	-10682
▁immigrants	-10683
ideo	-10684
acer	-10685
▁Biology	-10686
They	-10687
▁Const	-10688
▁absorb	-10689
▁Computer	-10690
▁Historical	-10691
eath	-10692
स्टर	-10693
▁बाव	-10694
olves	-10695
▁Best	-10696
▁Watch	-10697
▁breaking	-10698
▁Different	-10699
▁seriously	-10700
!”	-10701
म्स	-10702
▁2012.	-10703
Gen	-10704
▁province	-10705
ون	-10706
▁pets	-10707
▁myself	-10708
▁facilitate	-10709
▁खो	-10710
▁Image	-10711
▁virtually	-10712
oded	-10713
▁Move	-10714
▁रहती	-10715
▁Vietnam	-10716
▁adapted	-10717
▁shorter	-10718
%,	-10719
EA	-10720
oca	-10721
▁persu	-10722
▁uncle	-10723
▁लड़की	-10724
▁scheme	-10725
▁joy	-10726
ashes	-10727
▁राजा	-10728
▁अदालत	-10729
▁controlling	-10730
▁250	-10731
▁Occ	-10732
हित्य	-10733
▁देखें	-10734
▁लगाने	-10735
▁OS	-10736
▁अवसर	-10737
▁shore	-10738
▁spoke	-10739
mail	-10740
▁notion	-10741
▁orange	-10742
▁McC	-10743
▁tact	-10744
▁Wikipedia	-10745
मति	-10746
itting	-10747
▁gathered	-10748
▁Lew	-10749
cin	-10750
▁planted	-10751
▁फोट	-10752
section	-10753
▁intention	-10754
▁varied	-10755
▁Introduction	-10756
ॉक	-10757
roud	-10758
▁occupied	-10759
▁strategic	-10760
▁prevalence	-10761
▁धी	-10762
र्जी	-10763
▁भारी	-10764
▁municip	-10765
▁Hyd	-10766
reens	-10767
▁Bureau	-10768
ght	-10769
▁समूह	-10770
▁purchased	-10771
▁displayed	-10772
▁Local	-10773
▁enz	-10774
▁खोल	-10775
▁Trust	-10776
▁tends	-10777
▁varies	-10778
▁habitats	-10779
▁cheap	-10780
▁juice	-10781
▁शक्ति	-10782
▁chromos	-10783
▁kg	-10784
assium	-10785
▁victory	-10786
▁opinions	-10787
▁जेल	-10788
▁यूर	-10789
▁tone	-10790
▁involvement	-10791
▁specialized	-10792
emb	-10793
ानि	-10794
made	-10795
▁collective	-10796
▁dict	-10797
▁pert	-10798
▁anger	-10799
▁reaches	-10800
▁specialist	-10801
85	-10802
lock	-10803
▁dimin	-10804
▁realized	-10805
▁Olymp	-10806
▁graduate	-10807
▁meaningful	-10808
▁ears	-10809
▁currency	-10810
▁happiness	-10811
42	-10812
ilst	-10813
▁intr	-10814
▁soils	-10815
▁Mexican	-10816
▁personnel	-10817
▁workplace	-10818
▁accurately	-10819
UL	-10820
▁returns	-10821
▁specified	-10822
▁Ide	-10823
▁गर्म	-10824
▁Apple	-10825
▁lifetime	-10826
▁हाई	-10827
world	-10828
▁सोशल	-10829
हरण	-10830
▁resistant	-10831
लोड	-10832
▁कीमत	-10833
▁मौके	-10834
▁alarm	-10835
▁arise	-10836
▁crown	-10837
▁trace	-10838
▁wouldn	-10839
▁armed	-10840
▁haven	-10841
▁Unt	-10842
▁indirect	-10843
स्ताव	-10844
▁wash	-10845
issance	-10846
▁tom	-10847
▁veloc	-10848
▁Jackson	-10849
▁recording	-10850
▁1999	-10851
urrent	-10852
▁tension	-10853
▁throat	-10854
swe	-10855
izers	-10856
▁Jacob	-10857
▁sheep	-10858
▁उत्तरा	-10859
▁representing	-10860
icking	-10861
▁annually	-10862
ceans	-10863
▁till	-10864
▁representative	-10865
▁Third	-10866
▁pairs	-10867
▁अंग्रे	-10868
▁neurons	-10869
▁Nutrition	-10870
▁मुला	-10871
▁लेते	-10872
adelph	-10873
▁Master	-10874
▁friendly	-10875
▁associate	-10876
ब्ल	-10877
▁सार	-10878
▁पैसे	-10879
स्थित	-10880
eries	-10881
▁Rest	-10882
▁competitive	-10883
▁Son	-10884
▁enthus	-10885
▁नेताओं	-10886
specific	-10887
▁Hu	-10888
▁reveals	-10889
▁Kent	-10890
तः	-10891
cho	-10892
▁insights	-10893
▁Secretary	-10894
फ्	-10895
▁restore	-10896
▁अंतिम	-10897
▁choosing	-10898
▁prescribed	-10899
67	-10900
▁classic	-10901
सू	-10902
ैक	-10903
▁बुध	-10904
▁oils	-10905
▁advances	-10906
▁spacecraft	-10907
▁ash	-10908
▁draft	-10909
▁अमरीकी	-10910
▁paintings	-10911
ifier	-10912
▁transferred	-10913
▁1.5	-10914
▁Print	-10915
▁Friday	-10916
▁Abraham	-10917
▁compass	-10918
▁qualities	-10919
cule	-10920
▁स्वयं	-10921
नो	-10922
▁crypt	-10923
▁ख़िला	-10924
▁Greece	-10925
प्प	-10926
▁clay	-10927
RNA	-10928
▁42	-10929
▁चले	-10930
▁mask	-10931
▁Action	-10932
▁accomplish	-10933
▁everywhere	-10934
uity	-10935
akespe	-10936
▁Paper	-10937
▁globe	-10938
▁Century	-10939
▁आदमी	-10940
▁discipline	-10941
69	-10942
▁refused	-10943
▁परिणाम	-10944
▁dropped	-10945
▁predicted	-10946
▁gif	-10947
▁influences	-10948
स्त्र	-10949
▁दुर्	-10950
▁songs	-10951
षि	-10952
ante	-10953
▁privile	-10954
▁Fish	-10955
ील	-10956
cut	-10957
shaped	-10958
▁12,	-10959
▁15,	-10960
▁ion	-10961
▁Product	-10962
▁minimal	-10963
▁practition	-10964
ogens	-10965
▁sel	-10966
▁gardens	-10967
▁Continue	-10968
▁(“	-10969
bury	-10970
▁bears	-10971
▁ham	-10972
▁जहाँ	-10973
▁2010.	-10974
▁9,	-10975
enda	-10976
▁साब	-10977
▁गेंद	-10978
▁वैसे	-10979
▁जिसका	-10980
▁noticed	-10981
Sp	-10982
▁CA	-10983
▁Rab	-10984
oured	-10985
▁Illinois	-10986
सिक	-10987
▁thyroid	-10988
▁sees	-10989
▁2011.	-10990
▁प्रस्ताव	-10991
▁Dam	-10992
avirus	-10993
akespeare	-10994
asa	-10995
▁3-	-10996
▁pace	-10997
iations	-10998
▁contents	-10999
▁forecast	-11000
▁literally	-11001
▁Temple	-11002
outheast	-11003
ilson	-11004
▁prox	-11005
isations	-11006
ृह	-11007
unning	-11008
▁basically	-11009
▁restoration	-11010
▁तेज	-11011
ensed	-11012
▁gift	-11013
▁रू	-11014
▁dur	-11015
▁coat	-11016
▁glac	-11017
▁posts	-11018
▁addresses	-11019
requ	-11020
▁बनने	-11021
▁Senate	-11022
▁Es	-11023
▁sug	-11024
▁Ho	-11025
ometer	-11026
▁overview	-11027
1/	-11028
:00	-11029
▁2013.	-11030
▁preparing	-11031
▁संस्था	-11032
▁barrier	-11033
▁livestock	-11034
▁prayer	-11035
▁buying	-11036
▁Ministry	-11037
▁अरब	-11038
▁reflected	-11039
▁analyzed	-11040
icts	-11041
▁Near	-11042
▁Prom	-11043
awn	-11044
▁Import	-11045
press	-11046
▁payment	-11047
▁fraction	-11048
gr	-11049
▁साफ	-11050
▁dipl	-11051
▁कानून	-11052
▁tongue	-11053
▁Gh	-11054
▁breaks	-11055
▁judgment	-11056
▁cellular	-11057
▁assignment	-11058
▁metabolism	-11059
▁छह	-11060
ड़ने	-11061
sembly	-11062
▁maxim	-11063
▁creativity	-11064
elect	-11065
▁divine	-11066
▁severity	-11067
▁शै	-11068
claim	-11069
▁scat	-11070
▁pollut	-11071
▁privacy	-11072
▁spatial	-11073
akan	-11074
mble	-11075
▁paying	-11076
▁Log	-11077
▁Essay	-11078
▁विस्त	-11079
चन	-11080
aware	-11081
▁curve	-11082
▁sciences	-11083
▁Connect	-11084
▁Week	-11085
▁Rail	-11086
▁penet	-11087
▁subsc	-11088
▁copyright	-11089
शील	-11090
ifer	-11091
▁Wed	-11092
▁Fair	-11093
दारी	-11094
▁Altern	-11095
▁identical	-11096
adelphia	-11097
▁फर	-11098
▁नज़र	-11099
issipp	-11100
▁Convention	-11101
mond	-11102
▁soy	-11103
reprene	-11104
ोलन	-11105
्यता	-11106
▁sacred	-11107
▁Sustain	-11108
▁CB	-11109
▁खूब	-11110
ेंसी	-11111
▁funded	-11112
▁invention	-11113
म्ब	-11114
apes	-11115
▁Fed	-11116
▁wal	-11117
▁burden	-11118
worth	-11119
▁Relig	-11120
atus	-11121
▁विकेट	-11122
▁ster	-11123
▁encl	-11124
▁Working	-11125
▁churches	-11126
▁logical	-11127
▁caps	-11128
▁Think	-11129
▁Marine	-11130
▁sister	-11131
हाल	-11132
्रोल	-11133
▁Ent	-11134
▁chicken	-11135
▁profound	-11136
▁bee	-11137
सन	-11138
▁candidate	-11139
▁समिति	-11140
through	-11141
▁लागू	-11142
▁Ancient	-11143
ंता	-11144
▁एयर	-11145
▁Clean	-11146
ghan	-11147
▁Moses	-11148
▁revers	-11149
▁constra	-11150
▁ownership	-11151
म्बर	-11152
▁NOT	-11153
▁bought	-11154
वेश	-11155
")	-11156
vation	-11157
aternal	-11158
▁Heritage	-11159
▁जल्द	-11160
▁meetings	-11161
▁गुण	-11162
▁calm	-11163
▁votre	-11164
▁productive	-11165
▁श्रे	-11166
▁preserved	-11167
▁theoretical	-11168
▁निश	-11169
▁माता	-11170
▁couldn	-11171
▁deploy	-11172
▁themes	-11173
▁बावजूद	-11174
mega	-11175
▁optical	-11176
▁conversion	-11177
▁Creek	-11178
▁minimize	-11179
▁instances	-11180
दू	-11181
izz	-11182
▁आवेदन	-11183
▁disturb	-11184
▁scr	-11185
▁साहित्य	-11186
▁tomat	-11187
▁analyses	-11188
▁Ult	-11189
▁Text	-11190
▁legit	-11191
aine	-11192
▁particle	-11193
▁addressing	-11194
OW	-11195
elly	-11196
▁Full	-11197
▁oste	-11198
1:	-11199
▁lakes	-11200
▁incidence	-11201
▁Hit	-11202
▁suddenly	-11203
▁developments	-11204
inth	-11205
ंदगी	-11206
▁SC	-11207
▁regime	-11208
▁conflicts	-11209
ref	-11210
कारा	-11211
▁खाने	-11212
uled	-11213
▁इंग	-11214
▁puts	-11215
▁dimensions	-11216
▁statistical	-11217
▁Tool	-11218
▁मार्च	-11219
▁संस्क	-11220
▁unlikely	-11221
)||	-11222
▁Lu	-11223
regon	-11224
▁أو	-11225
▁जानते	-11226
rue	-11227
▁ft	-11228
rypt	-11229
▁CDC	-11230
▁vibr	-11231
iterranean	-11232
▁calculate	-11233
▁मंत्रालय	-11234
▁underground	-11235
▁evolutionary	-11236
▁Antar	-11237
▁surgical	-11238
▁motivation	-11239
But	-11240
▁MP	-11241
ंटी	-11242
िक्	-11243
▁Typ	-11244
▁उन्	-11245
▁%	-11246
terior	-11247
▁ultimate	-11248
1),	-11249
राव	-11250
amil	-11251
▁Sus	-11252
▁vig	-11253
▁Clinical	-11254
▁managers	-11255
सों	-11256
▁0.0	-11257
▁Aud	-11258
child	-11259
▁Walk	-11260
▁नियंत्र	-11261
▁documented	-11262
▁enjoyed	-11263
▁Neg	-11264
▁Mind	-11265
▁strange	-11266
▁reserved	-11267
▁memor	-11268
▁Garden	-11269
▁minority	-11270
oked	-11271
▁hydro	-11272
imm	-11273
▁shr	-11274
▁सिर	-11275
▁समुद	-11276
ंगी	-11277
▁179	-11278
▁Tradition	-11279
▁illnesses	-11280
ait	-11281
केट	-11282
▁Brain	-11283
▁Contact	-11284
▁beneath	-11285
▁transplant	-11286
▁Rather	-11287
▁Content	-11288
▁perfectly	-11289
▁Bern	-11290
▁प्यार	-11291
▁bron	-11292
▁अपरा	-11293
▁("	-11294
▁600	-11295
aneous	-11296
▁adopt	-11297
lav	-11298
▁teens	-11299
▁package	-11300
▁registered	-11301
otypes	-11302
▁flexibility	-11303
▁पाठ	-11304
▁Applic	-11305
▁Station	-11306
rowth	-11307
▁inch	-11308
▁compos	-11309
▁incent	-11310
▁sleeping	-11311
▁acceptable	-11312
▁mammals	-11313
▁susceptible	-11314
▁contributing	-11315
▁पर्या	-11316
▁neglect	-11317
▁ख़िलाफ़	-11318
▁absolutely	-11319
86	-11320
▁wooden	-11321
▁streams	-11322
▁सुधार	-11323
न्होंने	-11324
▁suicide	-11325
▁quantities	-11326
▁sons	-11327
▁असर	-11328
▁1998	-11329
▁borrow	-11330
▁विश्वविद्यालय	-11331
शनल	-11332
▁noun	-11333
▁Teachers	-11334
MI	-11335
asi	-11336
onents	-11337
▁embed	-11338
▁villages	-11339
rin	-11340
▁exploring	-11341
▁Uk	-11342
iler	-11343
▁installation	-11344
▁restrictions	-11345
टने	-11346
▁Sud	-11347
)|	-11348
▁978	-11349
▁rib	-11350
▁Monday	-11351
▁distinguish	-11352
▁simultaneously	-11353
▁सें	-11354
▁apps	-11355
▁10,000	-11356
▁सुप्रीम	-11357
rub	-11358
rics	-11359
▁fifth	-11360
▁करेगा	-11361
▁Egyptian	-11362
▁volunteers	-11363
दर्भ	-11364
▁impair	-11365
राष्ट्रीय	-11366
thur	-11367
▁Ren	-11368
green	-11369
▁dish	-11370
▁ruled	-11371
▁hier	-11372
▁अगस्त	-11373
▁अभिने	-11374
▁Die	-11375
▁rod	-11376
▁restricted	-11377
quality	-11378
▁algorithm	-11379
oler	-11380
▁Obama	-11381
▁स्पष्ट	-11382
iệ	-11383
dep	-11384
▁Tar	-11385
▁wing	-11386
irable	-11387
regular	-11388
▁हार	-11389
▁si	-11390
▁rooms	-11391
▁zones	-11392
▁Mississipp	-11393
एफ	-11394
omed	-11395
▁bonds	-11396
▁worker	-11397
▁descend	-11398
▁varying	-11399
▁बल	-11400
▁menu	-11401
▁lingu	-11402
▁ranges	-11403
lan	-11404
▁briefly	-11405
SP	-11406
▁puzz	-11407
Summary	-11408
iblical	-11409
▁distant	-11410
▁swelling	-11411
▁elementary	-11412
oa	-11413
▁Line	-11414
▁wise	-11415
▁applies	-11416
▁regulate	-11417
▁blank	-11418
▁sending	-11419
▁alternatives	-11420
ूबर	-11421
inces	-11422
▁संगीत	-11423
▁designated	-11424
▁CT	-11425
▁दश	-11426
uro	-11427
▁PL	-11428
▁जैसा	-11429
▁Individual	-11430
▁inhabitants	-11431
▁FDA	-11432
▁Luc	-11433
▁Commons	-11434
▁Practice	-11435
▁provision	-11436
▁Scientific	-11437
▁reef	-11438
▁वोट	-11439
▁सत्ता	-11440
▁accounting	-11441
http	-11442
▁Mes	-11443
zone	-11444
▁Hem	-11445
▁Oregon	-11446
▁finish	-11447
▁बदलाव	-11448
▁ending	-11449
▁Nevertheless	-11450
ceive	-11451
igned	-11452
▁चिकित	-11453
▁शिकायत	-11454
▁utility	-11455
▁राजस्थान	-11456
▁requiring	-11457
ospel	-11458
▁2014.	-11459
▁prosper	-11460
स्व	-11461
▁Mediterranean	-11462
▁developmental	-11463
▁Proper	-11464
▁Schools	-11465
▁Photo	-11466
▁cited	-11467
▁winds	-11468
▁separation	-11469
.1	-11470
दय	-11471
iano	-11472
▁module	-11473
▁passes	-11474
▁electrons	-11475
नर	-11476
ribe	-11477
▁eleph	-11478
ceptions	-11479
▁preserv	-11480
▁Univers	-11481
▁medieval	-11482
सूस	-11483
▁proposal	-11484
▁corporate	-11485
▁Assessment	-11486
्‍य	-11487
▁Ariz	-11488
▁Area	-11489
पंथ	-11490
ques	-11491
ateral	-11492
▁wings	-11493
▁व्यक्त	-11494
▁स्‍	-11495
acles	-11496
▁prol	-11497
▁merch	-11498
▁citizen	-11499
ột	-11500
▁~	-11501
▁philosoph	-11502
akh	-11503
pos	-11504
▁copies	-11505
▁Teaching	-11506
▁entitled	-11507
▁Philadelphia	-11508
88	-11509
▁initiatives	-11510
▁transformation	-11511
▁gate	-11512
▁भर्ती	-11513
eras	-11514
▁channels	-11515
▁consequence	-11516
ुप	-11517
▁tort	-11518
▁गुजरात	-11519
▁revenue	-11520
▁possibilities	-11521
ườ	-11522
▁44	-11523
▁amino	-11524
▁उदा	-11525
▁alert	-11526
▁सोमवार	-11527
▁consent	-11528
ذا	-11529
▁span	-11530
▁Twitter	-11531
▁isolation	-11532
▁रण	-11533
ologic	-11534
▁आती	-11535
▁सड़क	-11536
▁Origin	-11537
2),	-11538
▁Santa	-11539
▁Number	-11540
▁honest	-11541
كن	-11542
▁inev	-11543
▁nuts	-11544
abling	-11545
▁Enter	-11546
▁hopes	-11547
▁juris	-11548
western	-11549
▁alumin	-11550
▁(6	-11551
▁pas	-11552
umatic	-11553
▁exclud	-11554
▁Hot	-11555
▁gest	-11556
▁classification	-11557
ouri	-11558
▁ग्राम	-11559
▁surprise	-11560
▁attributed	-11561
▁systematic	-11562
▁dramatically	-11563
anz	-11564
nia	-11565
▁employee	-11566
▁abundance	-11567
▁suggesting	-11568
▁Fa	-11569
▁फैसला	-11570
DL	-11571
orus	-11572
▁elevated	-11573
-15	-11574
pdf	-11575
साद	-11576
▁इम	-11577
▁2010,	-11578
▁2015.	-11579
▁diagram	-11580
▁Ont	-11581
ocial	-11582
.),	-11583
तमान	-11584
▁knee	-11585
▁subsid	-11586
▁discharge	-11587
ेत	-11588
▁आतंक	-11589
▁diets	-11590
▁stere	-11591
▁thank	-11592
▁manuscript	-11593
▁partnership	-11594
▁herself	-11595
▁शुक्रवार	-11596
urd	-11597
power	-11598
▁rom	-11599
▁metabolic	-11600
स्लिम	-11601
▁Others	-11602
imensional	-11603
ethe	-11604
Figure	-11605
▁phones	-11606
eem	-11607
▁Mu	-11608
▁hurt	-11609
emies	-11610
Ind	-11611
▁irrigation	-11612
eller	-11613
enter	-11614
▁Story	-11615
▁aside	-11616
▁arthritis	-11617
▁Sn	-11618
ATION	-11619
▁चाहता	-11620
▁cycles	-11621
▁Turn	-11622
▁दूसरा	-11623
▁किसानों	-11624
▁encouraging	-11625
▁उसमें	-11626
:||	-11627
▁किलो	-11628
क्सर	-11629
▁Map	-11630
▁satisfact	-11631
▁invasive	-11632
rint	-11633
▁Nic	-11634
▁peers	-11635
▁perpet	-11636
function	-11637
▁incorporate	-11638
▁पुन	-11639
ouses	-11640
▁उत	-11641
▁efficiently	-11642
▁Need	-11643
▁विद्य	-11644
▁neural	-11645
▁Training	-11646
▁complement	-11647
▁worksheets	-11648
▁fascinating	-11649
पक	-11650
▁Bol	-11651
OP	-11652
▁मानव	-11653
▁visits	-11654
▁वाह	-11655
▁Download	-11656
▁ऋ	-11657
ंडल	-11658
▁चै	-11659
ivation	-11660
▁combine	-11661
▁organism	-11662
▁elections	-11663
▁Mountain	-11664
▁stabil	-11665
▁absorption	-11666
खन	-11667
mal	-11668
▁मारे	-11669
▁फॉ	-11670
▁outdoor	-11671
▁inherent	-11672
▁broke	-11673
▁पंजाब	-11674
▁favour	-11675
bow	-11676
–19	-11677
▁Wales	-11678
uns	-11679
▁Fer	-11680
▁Sav	-11681
क्‍	-11682
र्जा	-11683
▁amongst	-11684
▁Mississippi	-11685
ori	-11686
▁sau	-11687
▁penal	-11688
▁lecture	-11689
▁partial	-11690
▁sectors	-11691
▁invasion	-11692
▁integrity	-11693
ffe	-11694
▁Williams	-11695
ठा	-11696
मक	-11697
▁mi	-11698
▁alongside	-11699
▁Ash	-11700
नियों	-11701
▁germ	-11702
▁grams	-11703
ूड	-11704
▁14,	-11705
after	-11706
▁tumors	-11707
▁incorporated	-11708
▁दस	-11709
economic	-11710
▁sediment	-11711
▁साइ	-11712
▁expanding	-11713
▁intra	-11714
▁मार्ग	-11715
ictions	-11716
▁clouds	-11717
▁abandoned	-11718
▁Below	-11719
▁Student	-11720
▁magnitude	-11721
▁vag	-11722
▁pipe	-11723
▁डाउन	-11724
▁पड़ता	-11725
nSummary	-11726
▁democratic	-11727
han	-11728
▁Alaska	-11729
▁tendency	-11730
ير	-11731
▁ow	-11732
▁Sem	-11733
▁आयोजन	-11734
▁Wilson	-11735
▁आपने	-11736
▁कार्यकर्	-11737
▁enforcement	-11738
profit	-11739
▁estate	-11740
▁totally	-11741
▁engineer	-11742
▁कैम	-11743
▁100%	-11744
▁ब्रा	-11745
▁burned	-11746
्वास	-11747
▁collections	-11748
▁suggestions	-11749
▁pap	-11750
▁तकनी	-11751
iki	-11752
▁Isa	-11753
nG	-11754
rose	-11755
्यूटर	-11756
mental	-11757
oons	-11758
▁Real	-11759
▁scholar	-11760
▁dementia	-11761
▁attractive	-11762
di	-11763
▁spons	-11764
▁Corpor	-11765
▁Marc	-11766
▁Encyclopedia	-11767
ugs	-11768
▁deer	-11769
▁brains	-11770
▁deposits	-11771
▁unem	-11772
▁पूजा	-11773
▁वायर	-11774
▁resemb	-11775
▁excav	-11776
itches	-11777
duction	-11778
▁hybrid	-11779
▁Hig	-11780
oline	-11781
▁glob	-11782
orters	-11783
▁Angeles	-11784
▁certific	-11785
▁establishing	-11786
sters	-11787
▁वास्तव	-11788
▁straw	-11789
▁width	-11790
▁Arizona	-11791
▁Matthew	-11792
▁मर	-11793
▁PhD	-11794
▁मात्रा	-11795
No	-11796
▁doors	-11797
▁जुलाई	-11798
▁इन्हें	-11799
▁precisely	-11800
▁punishment	-11801
nea	-11802
▁debris	-11803
▁anthrop	-11804
▁फ़ैस	-11805
▁endangered	-11806
▁folk	-11807
▁wage	-11808
▁Turkey	-11809
▁civilization	-11810
▁abundant	-11811
لي	-11812
▁Spe	-11813
▁अने	-11814
▁distinction	-11815
▁Charl	-11816
urse	-11817
▁Name	-11818
▁canal	-11819
▁enzyme	-11820
▁popularity	-11821
PR	-11822
▁vom	-11823
▁cable	-11824
▁निर्ण	-11825
▁salmon	-11826
▁rays	-11827
▁cream	-11828
▁legend	-11829
▁reproductive	-11830
त्त	-11831
isted	-11832
▁homework	-11833
ीप	-11834
worm	-11835
rible	-11836
▁symptom	-11837
▁confusion	-11838
ais	-11839
▁आश	-11840
▁इरा	-11841
▁सूची	-11842
▁hygiene	-11843
▁pesticides	-11844
▁achieving	-11845
▁hol	-11846
▁Redu	-11847
▁Future	-11848
▁neighb	-11849
▁fitness	-11850
▁magazine	-11851
▁visiting	-11852
stru	-11853
▁register	-11854
▁conclusions	-11855
▁sensory	-11856
▁ज्ञान	-11857
▁enzymes	-11858
▁algorithms	-11859
73	-11860
▁Event	-11861
▁Berlin	-11862
▁राजधानी	-11863
▁chocolate	-11864
▁आठ	-11865
orer	-11866
▁प्ले	-11867
astics	-11868
▁Theory	-11869
▁factory	-11870
yan	-11871
opes	-11872
▁Stephen	-11873
▁guarantee	-11874
▁Indigenous	-11875
▁केंद	-11876
▁समान	-11877
गो	-11878
▁Na	-11879
olph	-11880
तृत्व	-11881
▁repet	-11882
▁Create	-11883
▁termin	-11884
▁minister	-11885
▁rainfall	-11886
▁सभा	-11887
▁faculty	-11888
▁reflects	-11889
ज्	-11890
▁ul	-11891
▁allergies	-11892
▁attempted	-11893
ighth	-11894
▁murder	-11895
▁spreading	-11896
▁Mrs	-11897
▁Defin	-11898
▁NE	-11899
etically	-11900
▁arrival	-11901
▁dynamics	-11902
page	-11903
▁नदी	-11904
▁sovere	-11905
▁reflection	-11906
▁throw	-11907
▁confront	-11908
▁बहु	-11909
▁doses	-11910
▁morph	-11911
▁Ele	-11912
▁फाय	-11913
▁exceed	-11914
▁speaker	-11915
▁आइ	-11916
▁bull	-11917
▁extraord	-11918
▁contamination	-11919
ricane	-11920
▁surrounded	-11921
alam	-11922
enti	-11923
▁cyl	-11924
▁binding	-11925
▁relate	-11926
▁दावा	-11927
▁tough	-11928
▁empire	-11929
▁दर्द	-11930
▁सफलता	-11931
▁equipped	-11932
date	-11933
▁numer	-11934
▁plates	-11935
▁shares	-11936
▁weaken	-11937
▁प्रवेश	-11938
▁Jr	-11939
▁retain	-11940
efficient	-11941
ड़ियों	-11942
▁2012,	-11943
▁celeb	-11944
▁Luther	-11945
▁Summary	-11946
▁encounter	-11947
▁इनमें	-11948
▁thirty	-11949
▁crack	-11950
▁Meanwhile	-11951
▁ancestors	-11952
best	-11953
▁panc	-11954
▁इस्ल	-11955
arios	-11956
▁enhanced	-11957
▁Fac	-11958
▁Cook	-11959
▁Object	-11960
▁surprising	-11961
▁lob	-11962
▁टीवी	-11963
▁अनुभव	-11964
▁विधायक	-11965
athan	-11966
ependence	-11967
▁robust	-11968
▁muc	-11969
▁Benef	-11970
▁43	-11971
▁20,	-11972
▁ट्रेन	-11973
▁earthquake	-11974
स्ते	-11975
▁physicians	-11976
▁लड़ा	-11977
▁rough	-11978
▁partly	-11979
▁synthetic	-11980
गु	-11981
stic	-11982
▁spine	-11983
▁रेलवे	-11984
▁mutations	-11985
59	-11986
▁°	-11987
▁खोज	-11988
quiry	-11989
▁whenever	-11990
▁कदम	-11991
▁बंग	-11992
▁Assembly	-11993
aven	-11994
▁LED	-11995
▁elderly	-11996
itzer	-11997
▁crimes	-11998
▁13.	-11999
▁GDP	-12000
eling	-12001
▁nursing	-12002
lah	-12003
redit	-12004
▁स्वीकार	-12005
स्ट्रेलिया	-12006
On	-12007
arten	-12008
▁disag	-12009
▁onset	-12010
▁हिन्द	-12011
▁Bell	-12012
▁Nether	-12013
▁Culture	-12014
▁consisting	-12015
copic	-12016
inery	-12017
▁loop	-12018
▁selling	-12019
▁collapse	-12020
▁Exerc	-12021
▁Jones	-12022
▁busy	-12023
ctu	-12024
▁CR	-12025
owered	-12026
elihood	-12027
▁scales	-12028
▁बुधवार	-12029
▁improves	-12030
▁केंद्रीय	-12031
▁continent	-12032
41	-12033
देव	-12034
▁Cond	-12035
rological	-12036
▁containers	-12037
▁Adam	-12038
▁infectious	-12039
▁Os	-12040
▁ति	-12041
▁Jim	-12042
▁hung	-12043
▁Besides	-12044
▁operated	-12045
▁holy	-12046
▁Integ	-12047
फे	-12048
also	-12049
▁incom	-12050
▁सेक्स	-12051
▁broader	-12052
اء	-12053
ार्क	-12054
▁देती	-12055
▁erect	-12056
▁bottle	-12057
▁पौ	-12058
▁खुश	-12059
▁surveys	-12060
▁accidents	-12061
▁occasionally	-12062
▁repeat	-12063
▁predomin	-12064
उस	-12065
▁export	-12066
▁landing	-12067
▁relating	-12068
ामीण	-12069
▁eaten	-12070
▁candidates	-12071
BI	-12072
▁attended	-12073
imen	-12074
▁Dyn	-12075
▁cuts	-12076
▁injured	-12077
▁healthier	-12078
olis	-12079
▁(10	-12080
▁bags	-12081
▁adolescents	-12082
,’	-12083
uct	-12084
▁13,	-12085
▁twelve	-12086
▁स्थापित	-12087
▁officially	-12088
▁therapeutic	-12089
▁semi	-12090
▁दिशा	-12091
▁Arabic	-12092
▁divide	-12093
▁regulatory	-12094
you	-12095
▁जीव	-12096
▁rent	-12097
▁कार्ड	-12098
सित	-12099
▁radi	-12100
reshold	-12101
▁diagnostic	-12102
▁contaminated	-12103
▁NY	-12104
▁verte	-12105
▁महसूस	-12106
▁strains	-12107
yo	-12108
anium	-12109
▁schem	-12110
▁Mother	-12111
▁Questions	-12112
▁influenza	-12113
▁मई	-12114
▁Guard	-12115
▁मंगलवार	-12116
▁adoption	-12117
▁mistakes	-12118
▁prevents	-12119
▁translated	-12120
लेट	-12121
ayer	-12122
unar	-12123
▁pale	-12124
ivities	-12125
▁molecule	-12126
▁describing	-12127
▁hack	-12128
▁shoes	-12129
▁बॉलीवुड	-12130
उट	-12131
enh	-12132
▁घा	-12133
▁beach	-12134
▁dying	-12135
isting	-12136
▁socio	-12137
▁platforms	-12138
▁Java	-12139
▁gran	-12140
author	-12141
velength	-12142
▁kitchen	-12143
ौती	-12144
▁ON	-12145
▁grammar	-12146
▁producers	-12147
▁collecting	-12148
arks	-12149
▁डॉलर	-12150
▁Order	-12151
▁एंड्रॉ	-12152
▁grad	-12153
adi	-12154
▁Kn	-12155
itus	-12156
▁Priv	-12157
▁horizontal	-12158
▁consistently	-12159
fly	-12160
पास	-12161
▁drops	-12162
न्ध	-12163
▁गाय	-12164
▁dried	-12165
▁fingers	-12166
▁Maryland	-12167
ियत	-12168
▁WW	-12169
itic	-12170
▁oceans	-12171
▁समाचार	-12172
▁absorbed	-12173
लेख	-12174
▁Talk	-12175
▁finance	-12176
GE	-12177
▁films	-12178
▁cigare	-12179
oving	-12180
ricks	-12181
▁chamber	-12182
▁नेतृत्व	-12183
▁ه	-12184
▁perf	-12185
▁Death	-12186
▁painted	-12187
▁velocity	-12188
▁contrad	-12189
▁disk	-12190
▁इंग्ल	-12191
▁Making	-12192
▁dentist	-12193
▁reasoning	-12194
▁pose	-12195
▁prolong	-12196
▁खिलाड़ी	-12197
▁economics	-12198
▁46	-12199
▁Daily	-12200
bage	-12201
▁1997	-12202
▁Ka	-12203
▁memories	-12204
ियार	-12205
▁adjacent	-12206
▁valve	-12207
illance	-12208
duate	-12209
osaur	-12210
▁reputation	-12211
obic	-12212
▁tag	-12213
▁निजी	-12214
▁untuk	-12215
▁tracking	-12216
▁10%	-12217
▁Hab	-12218
▁मुस्लिम	-12219
dess	-12220
▁pneum	-12221
▁fiction	-12222
ष्ट्र	-12223
▁rend	-12224
▁elabor	-12225
▁entrance	-12226
iph	-12227
▁49	-12228
िकता	-12229
▁मतलब	-12230
▁license	-12231
.:	-12232
▁Turk	-12233
▁sheets	-12234
▁returning	-12235
▁seiz	-12236
▁पहुंचे	-12237
▁erosion	-12238
▁evaluated	-12239
300	-12240
▁1900	-12241
▁posted	-12242
▁वर्तमान	-12243
▁developers	-12244
PDF	-12245
▁भवि	-12246
▁definitions	-12247
▁गठ	-12248
isticated	-12249
▁displays	-12250
ipation	-12251
▁gentle	-12252
........	-12253
▁acquire	-12254
▁trading	-12255
दर	-12256
▁Iron	-12257
▁Philos	-12258
▁duties	-12259
ications	-12260
▁browser	-12261
▁allergic	-12262
bul	-12263
▁CS	-12264
▁bub	-12265
gebra	-12266
▁fant	-12267
▁shelter	-12268
कर्ष	-12269
▁nic	-12270
rimin	-12271
Pro	-12272
rium	-12273
▁Grade	-12274
▁valley	-12275
▁assistant	-12276
▁welcome	-12277
cal	-12278
▁अफ़	-12279
▁हल्	-12280
atoes	-12281
▁Animal	-12282
▁विकल्प	-12283
▁vaccination	-12284
▁Risk	-12285
▁edges	-12286
▁विश्वास	-12287
▁18,	-12288
▁बेटी	-12289
▁Script	-12290
▁रविवार	-12291
▁partially	-12292
▁password	-12293
▁atmospheric	-12294
िड	-12295
▁Chall	-12296
▁survived	-12297
▁जाय	-12298
isition	-12299
▁surviv	-12300
▁Available	-12301
conn	-12302
▁Pope	-12303
▁Minnes	-12304
▁retail	-12305
▁लोकसभा	-12306
▁Standards	-12307
▁Jun	-12308
▁Living	-12309
▁घु	-12310
▁Bio	-12311
▁pine	-12312
utical	-12313
▁invented	-12314
▁utilized	-12315
▁predators	-12316
▁बातें	-12317
▁outline	-12318
▁Missouri	-12319
ylon	-12320
▁सचिव	-12321
Art	-12322
साथ	-12323
▁PR	-12324
adequ	-12325
▁mail	-12326
▁awarded	-12327
▁confident	-12328
▁spark	-12329
▁Poland	-12330
▁स्वतंत्र	-12331
▁tod	-12332
▁माइ	-12333
▁Tenn	-12334
To	-12335
acle	-12336
olds	-12337
▁Sab	-12338
▁Hitler	-12339
▁Sleep	-12340
ंडे	-12341
▁Peace	-12342
▁आवश्यकता	-12343
▁संबंधित	-12344
▁residential	-12345
orious	-12346
▁ग्रामीण	-12347
▁पुरस्कार	-12348
▁administrative	-12349
▁likelihood	-12350
▁appointment	-12351
▁47	-12352
▁वरि	-12353
▁abol	-12354
▁Electric	-12355
▁approval	-12356
▁शन	-12357
inch	-12358
▁16,	-12359
▁Jack	-12360
berries	-12361
CL	-12362
”)	-12363
▁GM	-12364
ctors	-12365
otion	-12366
▁bullying	-12367
▁sampling	-12368
▁दोस्तों	-12369
घा	-12370
▁मिलता	-12371
▁update	-12372
▁64	-12373
▁Bit	-12374
▁Shakespeare	-12375
▁fault	-12376
▁nodes	-12377
▁consuming	-12378
▁inflation	-12379
▁Large	-12380
▁brothers	-12381
Be	-12382
▁4:	-12383
▁hind	-12384
▁struck	-12385
▁prisoners	-12386
uese	-12387
▁loan	-12388
antine	-12389
▁cheese	-12390
Ed	-12391
▁codes	-12392
▁अक्सर	-12393
▁affairs	-12394
istically	-12395
▁fan	-12396
▁wake	-12397
▁बताते	-12398
▁Jersey	-12399
▁fibers	-12400
▁assessments	-12401
▁Has	-12402
▁Path	-12403
▁assault	-12404
ermat	-12405
▁2011,	-12406
▁circular	-12407
▁wireless	-12408
TA	-12409
▁ES	-12410
▁pest	-12411
ko	-12412
cribe	-12413
▁bite	-12414
▁जनवरी	-12415
▁sequences	-12416
.\	-12417
▁800	-12418
▁bell	-12419
▁attacked	-12420
rons	-12421
▁Chemical	-12422
ري	-12423
र्गत	-12424
▁emit	-12425
▁Parents	-12426
यल	-12427
▁Nep	-12428
found	-12429
▁Francis	-12430
▁potassium	-12431
हि	-12432
dis	-12433
▁Case	-12434
▁liberal	-12435
fire	-12436
▁आंद	-12437
▁camps	-12438
▁refrig	-12439
▁fertilizer	-12440
▁mile	-12441
▁सामना	-12442
▁entreprene	-12443
र्तन	-12444
▁blo	-12445
▁stretch	-12446
▁imagination	-12447
▁investments	-12448
▁au	-12449
▁Gre	-12450
▁avoiding	-12451
▁तुलना	-12452
▁फीसदी	-12453
▁recall	-12454
▁charges	-12455
▁offices	-12456
▁shoulder	-12457
ui	-12458
oning	-12459
▁seal	-12460
▁17,	-12461
▁ऑनलाइन	-12462
ineteenth	-12463
All	-12464
RL	-12465
ía	-12466
▁’	-12467
न्तु	-12468
▁Six	-12469
▁jurisd	-12470
▁malaria	-12471
तौर	-12472
▁Sa	-12473
▁Ten	-12474
▁flavor	-12475
▁phenomena	-12476
grade	-12477
isons	-12478
▁dispers	-12479
ilitation	-12480
▁decreases	-12481
mo	-12482
ंव	-12483
ूँ	-12484
▁Pay	-12485
▁worn	-12486
estone	-12487
▁fluor	-12488
▁submit	-12489
aping	-12490
engers	-12491
iances	-12492
▁नौकरी	-12493
▁रिश्	-12494
esthetic	-12495
expected	-12496
▁proud	-12497
▁Prince	-12498
AF	-12499
▁Ah	-12500
▁Hur	-12501
▁sew	-12502
▁रहें	-12503
▁campus	-12504
▁speakers	-12505
▁excited	-12506
forced	-12507
▁मामलों	-12508
cled	-12509
oting	-12510
सु	-12511
ट्ट	-12512
atin	-12513
burn	-12514
▁Arm	-12515
▁Search	-12516
▁अप्रैल	-12517
▁क्षेत्रों	-12518
kh	-12519
▁देवी	-12520
▁Mental	-12521
▁convenient	-12522
▁س	-12523
कर्म	-12524
▁काल	-12525
▁reviewed	-12526
▁Minnesota	-12527
BM	-12528
▁Jon	-12529
▁plasma	-12530
▁संघर्ष	-12531
▁reviews	-12532
▁humidity	-12533
▁implementing	-12534
▁axis	-12535
▁hazards	-12536
▁attributes	-12537
▁subsequently	-12538
▁parks	-12539
▁refugees	-12540
▁independently	-12541
▁183	-12542
▁bes	-12543
▁stems	-12544
▁साबित	-12545
▁बल्ले	-12546
▁संवाद	-12547
▁भविष्य	-12548
▁seasonal	-12549
▁सलाह	-12550
▁speeds	-12551
▁tolerance	-12552
▁Sep	-12553
ulates	-12554
▁2016.	-12555
▁athletes	-12556
▁Netherlands	-12557
▁cave	-12558
▁संभव	-12559
▁Ontario	-12560
त्मा	-12561
▁दिस	-12562
itate	-12563
▁शनिवार	-12564
III	-12565
iac	-12566
achel	-12567
▁beet	-12568
▁संभावना	-12569
▁Dun	-12570
▁traveling	-12571
anol	-12572
▁bark	-12573
▁(8	-12574
▁orientation	-12575
▁monthly	-12576
▁Patients	-12577
▁Flow	-12578
▁cosm	-12579
▁calendar	-12580
▁somewhere	-12581
अलग	-12582
▁Soft	-12583
▁pock	-12584
▁प्रण	-12585
▁shade	-12586
▁विमान	-12587
▁receives	-12588
▁workshop	-12589
lam	-12590
▁जाकर	-12591
formed	-12592
▁diver	-12593
healthy	-12594
▁लं	-12595
inar	-12596
▁jew	-12597
ceeding	-12598
▁swimming	-12599
yes	-12600
▁रक्षा	-12601
▁adaptation	-12602
▁indicating	-12603
▁kilometers	-12604
emor	-12605
▁vice	-12606
▁myster	-12607
thodox	-12608
▁exhibition	-12609
▁आँ	-12610
▁arrive	-12611
▁progressive	-12612
▁Tay	-12613
▁toxins	-12614
▁libraries	-12615
▁antibodies	-12616
▁prescription	-12617
▁portray	-12618
▁teaches	-12619
काब	-12620
▁Samuel	-12621
▁Protest	-12622
▁deliber	-12623
▁broadcast	-12624
▁indoor	-12625
▁altered	-12626
▁pleasure	-12627
▁चैन	-12628
▁hide	-12629
▁छोटी	-12630
▁Present	-12631
▁highlights	-12632
▁14.	-12633
▁publ	-12634
compass	-12635
फल	-12636
Fig	-12637
See	-12638
▁इंत	-12639
▁Club	-12640
▁न्याय	-12641
friendly	-12642
▁intermedi	-12643
▁Unit	-12644
▁2008.	-12645
▁शांति	-12646
▁Afghan	-12647
▁2009,	-12648
▁borders	-12649
▁council	-12650
▁prevented	-12651
▁Cut	-12652
▁चाल	-12653
▁Behavior	-12654
▁grace	-12655
▁कराने	-12656
▁रॉ	-12657
▁importantly	-12658
▁arc	-12659
▁Trade	-12660
▁Cit	-12661
▁Hop	-12662
▁‘‘	-12663
▁Lewis	-12664
▁freely	-12665
▁नुक	-12666
▁depr	-12667
uv	-12668
गम	-12669
▁mini	-12670
▁घायल	-12671
▁trail	-12672
▁वरिष्ठ	-12673
▁protest	-12674
▁desk	-12675
ushing	-12676
▁आसान	-12677
▁discl	-12678
▁pursue	-12679
▁डाउनलोड	-12680
▁inequality	-12681
▁Buddh	-12682
▁featured	-12683
▁ADHD	-12684
▁Carib	-12685
▁immunity	-12686
▁uma	-12687
▁संत	-12688
▁1995	-12689
▁जरूरी	-12690
▁राज्यों	-12691
▁representatives	-12692
▁आध	-12693
▁Certain	-12694
pany	-12695
▁गिरफ्तार	-12696
74	-12697
Our	-12698
arer	-12699
▁Flu	-12700
▁Governor	-12701
▁reservoir	-12702
▁हथ	-12703
▁Hay	-12704
▁तभी	-12705
nings	-12706
chnology	-12707
aceutical	-12708
án	-12709
▁Les	-12710
▁अतिरिक	-12711
ướ	-12712
▁डाय	-12713
▁verse	-12714
▁कठ	-12715
▁elig	-12716
▁carries	-12717
▁diarrhea	-12718
▁impressive	-12719
لك	-12720
coin	-12721
▁दवा	-12722
▁इतनी	-12723
▁Allah	-12724
▁Econom	-12725
▁intensive	-12726
▁तत्	-12727
लैंड	-12728
▁lasting	-12729
▁irregular	-12730
ूपी	-12731
step	-12732
त्ती	-12733
▁Currently	-12734
▁sacrifice	-12735
Os	-12736
▁sophisticated	-12737
ौल	-12738
angel	-12739
▁synthesis	-12740
▁forever	-12741
▁concentrated	-12742
▁गलत	-12743
otten	-12744
▁Carl	-12745
▁fatal	-12746
▁tanks	-12747
▁Depending	-12748
▁Portuguese	-12749
▁struggling	-12750
law	-12751
▁Bush	-12752
▁appreciate	-12753
▁bind	-12754
▁समझौ	-12755
▁thoroughly	-12756
▁Five	-12757
▁rehab	-12758
▁tower	-12759
▁argues	-12760
▁prospect	-12761
▁NG	-12762
्राम	-12763
▁anat	-12764
▁earned	-12765
TER	-12766
ttes	-12767
2-	-12768
▁Du	-12769
▁Opt	-12770
▁कपूर	-12771
▁femin	-12772
ما	-12773
▁loud	-12774
▁नुकसान	-12775
▁placing	-12776
▁washing	-12777
58	-12778
omal	-12779
▁(3)	-12780
▁jaw	-12781
▁wages	-12782
सलमान	-12783
...]	-12784
plex	-12785
raid	-12786
▁asks	-12787
▁fles	-12788
▁mirror	-12789
ज्ञा	-12790
▁Date	-12791
▁टि	-12792
▁Num	-12793
ogram	-12794
▁2009.	-12795
▁weekly	-12796
▁वर्षों	-12797
▁शान	-12798
ontin	-12799
▁hardly	-12800
▁modeling	-12801
▁organisations	-12802
▁Ce	-12803
▁मल	-12804
▁mapping	-12805
1–	-12806
▁सहायता	-12807
मीटर	-12808
▁Cra	-12809
▁mud	-12810
▁पाने	-12811
sequently	-12812
▁distinguished	-12813
▁ti	-12814
▁prone	-12815
▁opens	-12816
▁Korean	-12817
▁Scottish	-12818
▁contrary	-12819
▁missions	-12820
chron	-12821
▁gray	-12822
▁कॉलेज	-12823
effective	-12824
ção	-12825
प्ताह	-12826
प्रिय	-12827
Le	-12828
action	-12829
▁enlar	-12830
▁अध्ययन	-12831
▁assessed	-12832
▁educated	-12833
▁न्यायालय	-12834
▁cycl	-12835
▁Thurs	-12836
▁Until	-12837
▁historians	-12838
▁occupation	-12839
▁boundary	-12840
▁operational	-12841
ियोग	-12842
about	-12843
▁Centers	-12844
▁Mathemat	-12845
generation	-12846
▁affordable	-12847
▁exch	-12848
▁hill	-12849
▁निवेश	-12850
▁threshold	-12851
▁Statistics	-12852
▁completion	-12853
▁wavelength	-12854
स्म	-12855
alo	-12856
▁मिस	-12857
▁Show	-12858
▁resolve	-12859
▁2008,	-12860
original	-12861
▁Emperor	-12862
▁Germans	-12863
▁notable	-12864
QL	-12865
▁vine	-12866
▁Satur	-12867
▁Example	-12868
▁rejected	-12869
▁connecting	-12870
खे	-12871
▁कराया	-12872
BA	-12873
▁PH	-12874
▁Romans	-12875
▁Indonesia	-12876
▁therapies	-12877
▁3)	-12878
▁rats	-12879
▁Nation	-12880
▁priest	-12881
▁treaty	-12882
▁अंतरराष्ट्रीय	-12883
▁160	-12884
▁cloth	-12885
▁cluster	-12886
▁undergo	-12887
▁arranged	-12888
▁participating	-12889
2:	-12890
▁beam	-12891
commun	-12892
▁tremend	-12893
▁Previous	-12894
rip	-12895
िस्ट	-12896
▁1996	-12897
▁निभा	-12898
▁extinction	-12899
▁dos	-12900
onsin	-12901
▁Discuss	-12902
▁flooding	-12903
▁capability	-12904
▁traditionally	-12905
▁dialogue	-12906
TC	-12907
▁patent	-12908
▁encourages	-12909
▁PA	-12910
thal	-12911
▁gaps	-12912
▁Basic	-12913
▁Davis	-12914
▁commod	-12915
▁avoided	-12916
▁settlers	-12917
▁pink	-12918
▁drives	-12919
▁enabled	-12920
aki	-12921
▁Hon	-12922
▁heal	-12923
▁intelligent	-12924
▁configuration	-12925
▁HP	-12926
atre	-12927
▁Hom	-12928
▁संर	-12929
▁संसद	-12930
▁accomplished	-12931
umns	-12932
isconsin	-12933
2%	-12934
cor	-12935
▁cha	-12936
▁pond	-12937
▁Darwin	-12938
▁अतिरिक्त	-12939
azz	-12940
▁CN	-12941
anas	-12942
▁रचना	-12943
▁hypert	-12944
▁Quality	-12945
ần	-12946
▁toile	-12947
▁criticism	-12948
▁एशिया	-12949
▁mobility	-12950
▁`	-12951
▁misc	-12952
▁boxes	-12953
▁harsh	-12954
▁hay	-12955
burgh	-12956
▁meteor	-12957
▁robots	-12958
▁tourism	-12959
▁artistic	-12960
▁imperial	-12961
▁रखते	-12962
▁डिज	-12963
▁manufacturer	-12964
▁bin	-12965
▁fallen	-12966
▁Enc	-12967
▁nas	-12968
iosity	-12969
▁emission	-12970
vy	-12971
ंडा	-12972
▁..	-12973
▁dow	-12974
▁2021	-12975
▁परेशान	-12976
जल	-12977
bat	-12978
▁Cold	-12979
▁Mand	-12980
▁STEM	-12981
▁भीतर	-12982
****	-12983
▁extrem	-12984
De	-12985
ho	-12986
▁Diabetes	-12987
▁drainage	-12988
''	-12989
Bl	-12990
▁Earl	-12991
▁पीड़	-12992
56	-12993
▁Sher	-12994
▁Tues	-12995
▁Video	-12996
▁प्रार	-12997
▁comparing	-12998
▁इलाज	-12999
dominal	-13000
▁namely	-13001
aning	-13002
atories	-13003
▁जाएंगे	-13004
iro	-13005
▁अथ	-13006
▁Pap	-13007
▁sle	-13008
▁Lower	-13009
▁discom	-13010
▁thrive	-13011
▁Han	-13012
▁Corps	-13013
▁thickness	-13014
▁proport	-13015
▁promising	-13016
▁μ	-13017
ido	-13018
▁ग्रह	-13019
▁ought	-13020
▁routes	-13021
dimensional	-13022
auc	-13023
▁wed	-13024
ashed	-13025
▁Hung	-13026
▁rubber	-13027
▁destination	-13028
▁सेट	-13029
▁हज़ार	-13030
▁historian	-13031
▁progression	-13032
1%	-13033
▁Zh	-13034
▁torn	-13035
▁appet	-13036
▁गोल	-13037
▁जिसकी	-13038
▁relatives	-13039
▁mart	-13040
▁tang	-13041
swered	-13042
▁हॉ	-13043
case	-13044
▁21,	-13045
▁Anne	-13046
inflamm	-13047
▁render	-13048
▁Jefferson	-13049
▁qualified	-13050
▁Additional	-13051
▁correlation	-13052
विध	-13053
onin	-13054
दाता	-13055
▁Tro	-13056
▁tid	-13057
▁Core	-13058
▁इनके	-13059
▁aster	-13060
▁transformed	-13061
vol	-13062
मैं	-13063
▁equations	-13064
▁गीत	-13065
thood	-13066
▁reson	-13067
▁devoted	-13068
▁Cape	-13069
▁जिम्म	-13070
▁multip	-13071
▁founder	-13072
▁instant	-13073
57	-13074
▁फोटो	-13075
▁deadly	-13076
▁expressions	-13077
▁distances	-13078
▁Democratic	-13079
▁meditation	-13080
arded	-13081
▁rebu	-13082
▁अनेक	-13083
▁utilize	-13084
▁submitted	-13085
पान	-13086
▁समुदाय	-13087
▁doctrine	-13088
▁explored	-13089
▁striking	-13090
▁WHO	-13091
▁gains	-13092
▁बालों	-13093
▁हल	-13094
ceeds	-13095
▁meter	-13096
▁tape	-13097
▁scenarios	-13098
▁provisions	-13099
atile	-13100
▁रेड	-13101
▁hang	-13102
spring	-13103
▁illustrated	-13104
gged	-13105
dated	-13106
▁courage	-13107
▁designing	-13108
▁गौर	-13109
▁algae	-13110
▁क्षमता	-13111
▁Pa	-13112
▁Rose	-13113
▁loyal	-13114
▁Yellow	-13115
▁छात्रों	-13116
▁बल्लेबा	-13117
▁symb	-13118
▁लेना	-13119
▁Abstract	-13120
▁Published	-13121
▁organisation	-13122
Pub	-13123
enders	-13124
uclear	-13125
▁Grant	-13126
ecessary	-13127
ergarten	-13128
फर	-13129
omon	-13130
ूर्ति	-13131
▁governor	-13132
▁distribut	-13133
Ps	-13134
▁चुना	-13135
▁nerves	-13136
▁colored	-13137
▁Exec	-13138
▁sperm	-13139
▁injection	-13140
टो	-13141
▁भ्र	-13142
▁exem	-13143
My	-13144
PD	-13145
▁Linux	-13146
▁चित्र	-13147
▁persistent	-13148
ượ	-13149
▁Win	-13150
▁obser	-13151
pur	-13152
ener	-13153
▁gau	-13154
▁1940	-13155
▁उनमें	-13156
uine	-13157
ानों	-13158
▁चाहे	-13159
▁हेतु	-13160
▁celebration	-13161
LS	-13162
▁yes	-13163
▁खत्म	-13164
▁fluids	-13165
▁defines	-13166
IST	-13167
▁(9	-13168
aser	-13169
▁League	-13170
क्सी	-13171
inian	-13172
▁bearing	-13173
▁shallow	-13174
▁Generally	-13175
▁Prime	-13176
▁Account	-13177
▁carbohydrates	-13178
vae	-13179
MC	-13180
▁locally	-13181
▁Psychology	-13182
▁perspectives	-13183
istent	-13184
▁Along	-13185
▁legacy	-13186
▁administered	-13187
ados	-13188
▁19,	-13189
▁दोष	-13190
▁Nazi	-13191
▁safer	-13192
▁रहेगा	-13193
▁distract	-13194
▁Throughout	-13195
ूक	-13196
▁gear	-13197
▁leak	-13198
▁रिली	-13199
▁ethics	-13200
doi	-13201
▁उनको	-13202
▁महान	-13203
urated	-13204
▁Begin	-13205
entieth	-13206
▁फ़ेसबुक	-13207
othy	-13208
▁परम	-13209
▁spir	-13210
▁heter	-13211
▁प्रत्येक	-13212
▁Wisconsin	-13213
▁controversial	-13214
1-	-13215
FC	-13216
Hz	-13217
UC	-13218
kal	-13219
psy	-13220
उंड	-13221
type	-13222
▁चरण	-13223
▁एक्ट	-13224
▁थाना	-13225
▁magnesium	-13226
▁allergy	-13227
Se	-13228
▁Bor	-13229
▁हरा	-13230
▁Month	-13231
▁promotes	-13232
▁rou	-13233
▁attain	-13234
▁Sex	-13235
▁accompany	-13236
▁विपक्ष	-13237
▁confused	-13238
▁अली	-13239
▁alike	-13240
▁Particip	-13241
/10.	-13242
▁Oil	-13243
▁Opp	-13244
ooked	-13245
phones	-13246
▁deleg	-13247
▁bladder	-13248
▁distinctive	-13249
▁Imag	-13250
▁Sens	-13251
▁fate	-13252
▁nick	-13253
▁tribe	-13254
▁obviously	-13255
▁Rub	-13256
▁Marx	-13257
▁guns	-13258
▁atomic	-13259
▁defects	-13260
▁overwhelming	-13261
▁जता	-13262
▁keys	-13263
▁देकर	-13264
▁Index	-13265
owa	-13266
▁nort	-13267
▁लड़क	-13268
▁पुत्र	-13269
▁Observ	-13270
Pl	-13271
▁पॉ	-13272
▁Primary	-13273
▁acknowledge	-13274
▁Kim	-13275
▁pests	-13276
▁Kansas	-13277
▁vacuum	-13278
बीआई	-13279
▁zinc	-13280
▁mystery	-13281
icting	-13282
▁मुसलमान	-13283
▁reserves	-13284
▁इंस	-13285
quarters	-13286
▁Thursday	-13287
▁monument	-13288
▁अल्	-13289
ेश्वर	-13290
income	-13291
▁अपराध	-13292
▁precision	-13293
iy	-13294
emet	-13295
arium	-13296
▁Wars	-13297
▁talks	-13298
▁mercury	-13299
53	-13300
▁Poll	-13301
▁bills	-13302
▁indicators	-13303
ất	-13304
cult	-13305
fare	-13306
▁genus	-13307
▁Recent	-13308
▁golden	-13309
▁उद्योग	-13310
▁Physics	-13311
▁Years	-13312
cha	-13313
▁Give	-13314
▁bits	-13315
▁brid	-13316
▁racism	-13317
▁Od	-13318
▁1800	-13319
▁artif	-13320
verages	-13321
▁poorly	-13322
▁pediatric	-13323
जरी	-13324
▁cerv	-13325
▁Stone	-13326
▁Caribbean	-13327
vo	-13328
▁प्ल	-13329
▁धीरे	-13330
▁antibiotic	-13331
▁inflammatory	-13332
insula	-13333
▁anten	-13334
▁किताब	-13335
▁Types	-13336
▁coins	-13337
▁उदाहरण	-13338
▁inadequ	-13339
▁generating	-13340
-200	-13341
seud	-13342
▁सांसद	-13343
reement	-13344
▁Usually	-13345
▁Intellig	-13346
▁कंपनियों	-13347
▁गृह	-13348
nesday	-13349
▁embedded	-13350
▁unexpected	-13351
▁IC	-13352
▁phon	-13353
teenth	-13354
onomous	-13355
▁Species	-13356
▁gathering	-13357
▁succeeded	-13358
▁parliament	-13359
▁ن	-13360
कृति	-13361
▁ride	-13362
▁employers	-13363
▁investigated	-13364
nedy	-13365
▁Jane	-13366
▁Things	-13367
▁निर्णय	-13368
▁answered	-13369
▁Tuesday	-13370
▁Franklin	-13371
▁thorough	-13372
▁ऑस्ट्रेलिया	-13373
That	-13374
▁Balt	-13375
▁tied	-13376
▁distress	-13377
▁writings	-13378
Co	-13379
▁कप्ता	-13380
▁विज्ञान	-13381
▁integral	-13382
▁để	-13383
rophic	-13384
▁occurrence	-13385
▁Tib	-13386
▁pushed	-13387
▁Ford	-13388
iversary	-13389
▁authentic	-13390
63	-13391
▁Jean	-13392
▁खाना	-13393
▁chron	-13394
▁भावना	-13395
▁Job	-13396
▁Tree	-13397
▁facial	-13398
▁tracks	-13399
▁आंदोलन	-13400
▁shouldn	-13401
्टर	-13402
▁magnet	-13403
▁declined	-13404
▁accordance	-13405
▁preservation	-13406
this	-13407
▁tubes	-13408
▁Perform	-13409
لا	-13410
▁Bad	-13411
▁लंब	-13412
lings	-13413
त्कार	-13414
▁Duke	-13415
▁Fall	-13416
▁Greg	-13417
▁discomfort	-13418
दु	-13419
▁Anim	-13420
▁Very	-13421
▁Represent	-13422
iking	-13423
storm	-13424
▁mira	-13425
▁सितंबर	-13426
▁searching	-13427
▁extraordinary	-13428
▁constitutional	-13429
▁कब	-13430
▁Dom	-13431
▁फ़ॉ	-13432
osity	-13433
stration	-13434
▁rocket	-13435
▁reproduction	-13436
▁टिक	-13437
front	-13438
icides	-13439
▁rotation	-13440
▁associations	-13441
▁Vo	-13442
▁पल	-13443
▁hip	-13444
▁empower	-13445
▁demonstrates	-13446
400	-13447
राइ	-13448
doors	-13449
▁assumptions	-13450
▁emerge	-13451
▁Victoria	-13452
▁influential	-13453
ulsion	-13454
▁skull	-13455
▁labels	-13456
▁mistake	-13457
▁territories	-13458
At	-13459
Ref	-13460
▁irre	-13461
▁Carbon	-13462
▁epidemic	-13463
▁revolutionary	-13464
▁जल्दी	-13465
▁defeat	-13466
▁Qur	-13467
▁Python	-13468
rac	-13469
▁Body	-13470
▁packaging	-13471
ynt	-13472
ग्रह	-13473
▁tet	-13474
▁चरम	-13475
▁masses	-13476
▁शासन	-13477
ronaut	-13478
▁Volume	-13479
▁implies	-13480
▁considerably	-13481
▁NC	-13482
▁रस	-13483
▁हट	-13484
ishers	-13485
▁Sweden	-13486
▁cameras	-13487
▁severely	-13488
▁AT	-13489
▁horn	-13490
▁डर	-13491
acon	-13492
▁rear	-13493
▁2007.	-13494
idae	-13495
▁30,	-13496
▁Fem	-13497
▁steady	-13498
▁spelling	-13499
ंदन	-13500
aran	-13501
iotic	-13502
▁vector	-13503
▁pathways	-13504
▁suspected	-13505
▁você	-13506
▁समेत	-13507
▁संस्थान	-13508
▁Ak	-13509
▁afraid	-13510
▁methane	-13511
▁multipl	-13512
ायी	-13513
▁Ty	-13514
▁counterpart	-13515
▁Ra	-13516
arse	-13517
nals	-13518
▁swallow	-13519
دي	-13520
TML	-13521
icked	-13522
▁categor	-13523
▁surprised	-13524
▁transactions	-13525
ili	-13526
असल	-13527
role	-13528
▁lift	-13529
▁storms	-13530
RS	-13531
म्मद	-13532
▁coral	-13533
▁sustained	-13534
4%	-13535
▁infin	-13536
▁इंग्लैंड	-13537
▁Tax	-13538
▁yard	-13539
▁पीएम	-13540
▁expenses	-13541
▁fertility	-13542
▁2013,	-13543
▁Answer	-13544
▁immigration	-13545
▁hazardous	-13546
▁नार	-13547
rared	-13548
▁Leon	-13549
▁2007,	-13550
▁suspect	-13551
▁कार्यालय	-13552
▁classrooms	-13553
sk	-13554
pson	-13555
▁Magn	-13556
▁2015,	-13557
▁coinc	-13558
▁von	-13559
▁entity	-13560
▁vomiting	-13561
▁permitted	-13562
asses	-13563
▁casual	-13564
▁substr	-13565
▁specimens	-13566
▁weapon	-13567
▁peripher	-13568
alog	-13569
▁Ger	-13570
▁जरूर	-13571
▁जिन्हें	-13572
▁stops	-13573
▁Depression	-13574
▁cope	-13575
▁प्रत	-13576
▁Results	-13577
▁कंप्यूटर	-13578
▁inspiration	-13579
▁20%	-13580
▁Hal	-13581
agle	-13582
rels	-13583
names	-13584
▁scal	-13585
▁essence	-13586
▁electronics	-13587
▁कविता	-13588
▁Always	-13589
▁dollar	-13590
▁enabling	-13591
▁execution	-13592
▁recommends	-13593
ikes	-13594
▁volumes	-13595
sub	-13596
▁24,	-13597
▁Guid	-13598
▁वर्ण	-13599
iatric	-13600
▁Gir	-13601
uster	-13602
▁2017.	-13603
▁पहुँच	-13604
mn	-13605
.''	-13606
क्टूबर	-13607
▁nurse	-13608
▁58	-13609
▁Lind	-13610
▁Dougl	-13611
▁Healthy	-13612
▁NS	-13613
uble	-13614
▁25,	-13615
ocated	-13616
ognition	-13617
▁mu	-13618
▁một	-13619
▁फिल	-13620
▁Rand	-13621
▁insu	-13622
▁restored	-13623
▁Sac	-13624
▁बेटे	-13625
▁timing	-13626
▁feather	-13627
▁arrangement	-13628
▁Deep	-13629
▁buck	-13630
▁frozen	-13631
▁economies	-13632
gered	-13633
person	-13634
▁संचाल	-13635
▁replic	-13636
▁columns	-13637
ंतर	-13638
ocent	-13639
▁situated	-13640
▁hills	-13641
emetery	-13642
▁वार	-13643
acher	-13644
olitan	-13645
▁हिंसा	-13646
▁dengan	-13647
▁acceptance	-13648
जु	-13649
rust	-13650
वंबर	-13651
वाले	-13652
▁toys	-13653
▁Front	-13654
▁firms	-13655
▁cataly	-13656
▁ignore	-13657
ropriate	-13658
oved	-13659
▁poems	-13660
▁pathogens	-13661
agger	-13662
▁contributes	-13663
igm	-13664
▁Ray	-13665
▁frog	-13666
▁conducting	-13667
▁इच्छ	-13668
!)	-13669
afe	-13670
▁RE	-13671
ivals	-13672
▁quad	-13673
▁apple	-13674
▁मुकाब	-13675
ugar	-13676
▁Rus	-13677
लेक्ट	-13678
▁प्रभ	-13679
velt	-13680
▁transf	-13681
▁enemies	-13682
▁Lt	-13683
feeding	-13684
GS	-13685
चीन	-13686
ैया	-13687
aman	-13688
▁matrix	-13689
▁Transport	-13690
▁publications	-13691
2/	-13692
▁खर्च	-13693
develop	-13694
▁Educational	-13695
orks	-13696
▁Mit	-13697
erness	-13698
▁प्रश्	-13699
▁inspect	-13700
actic	-13701
▁không	-13702
▁uncertainty	-13703
▁stakeholders	-13704
▁segment	-13705
▁originated	-13706
▁Marg	-13707
▁Pict	-13708
▁filters	-13709
▁Wednesday	-13710
▁lig	-13711
▁तुर	-13712
range	-13713
▁crust	-13714
▁हमारा	-13715
ECT	-13716
फोन	-13717
▁5:	-13718
yard	-13719
▁23,	-13720
▁Belg	-13721
▁Trump	-13722
Re	-13723
▁bulk	-13724
▁तारी	-13725
▁पुस्त	-13726
▁100,000	-13727
pm	-13728
▁ج	-13729
▁85	-13730
स्तु	-13731
▁Pas	-13732
uting	-13733
▁encompass	-13734
▁simulation	-13735
एक	-13736
onent	-13737
▁दुकान	-13738
▁disappear	-13739
▁calculations	-13740
ERS	-13741
phal	-13742
▁कही	-13743
▁यूपी	-13744
▁Kennedy	-13745
▁compliance	-13746
▁advertising	-13747
high	-13748
weet	-13749
▁Site	-13750
▁Vers	-13751
hester	-13752
▁brill	-13753
▁Smart	-13754
▁lying	-13755
▁सालों	-13756
▁behalf	-13757
▁voting	-13758
▁15.	-13759
▁2.5	-13760
▁Evolution	-13761
▁Industrial	-13762
human	-13763
▁dispar	-13764
▁solely	-13765
▁Period	-13766
▁आधारित	-13767
▁ensures	-13768
▁99	-13769
▁Raj	-13770
▁Conc	-13771
owners	-13772
rology	-13773
▁thinks	-13774
▁मिलेगा	-13775
▁मुद्दे	-13776
▁Reserve	-13777
▁executed	-13778
ول	-13779
riction	-13780
essional	-13781
▁satellites	-13782
▁determination	-13783
fold	-13784
▁Choose	-13785
▁catast	-13786
▁foster	-13787
▁attracted	-13788
▁exclusively	-13789
neg	-13790
▁AIDS	-13791
▁cardiac	-13792
▁circles	-13793
▁Az	-13794
▁परिष	-13795
▁investors	-13796
▁2-	-13797
iors	-13798
▁जिनमें	-13799
▁कृषि	-13800
▁incredibly	-13801
बोध	-13802
▁bor	-13803
▁Pear	-13804
school	-13805
▁Imper	-13806
▁dominated	-13807
▁prevalent	-13808
▁continuously	-13809
स्टम	-13810
▁Chap	-13811
omatic	-13812
▁Monitor	-13813
▁markers	-13814
▁newspapers	-13815
upp	-13816
uty	-13817
▁OR	-13818
▁सिल	-13819
▁Collect	-13820
▁liberty	-13821
▁counties	-13822
प्स	-13823
▁Ib	-13824
▁anch	-13825
▁lunch	-13826
▁Prior	-13827
▁patri	-13828
▁Related	-13829
िरी	-13830
eared	-13831
▁हरिया	-13832
▁viewing	-13833
▁chapters	-13834
▁payments	-13835
▁Republican	-13836
▁ruling	-13837
vez	-13838
▁FOR	-13839
▁चिंता	-13840
▁नवंबर	-13841
osevelt	-13842
▁moments	-13843
▁supplied	-13844
▁^	-13845
▁शीर्ष	-13846
▁Materials	-13847
onto	-13848
▁Bow	-13849
▁सारी	-13850
▁caffe	-13851
▁enact	-13852
▁22,	-13853
▁overs	-13854
onymous	-13855
▁yields	-13856
ountered	-13857
▁सत	-13858
▁Thank	-13859
एच	-13860
hard	-13861
▁जाति	-13862
▁hunger	-13863
▁Ni	-13864
▁node	-13865
ysical	-13866
▁loans	-13867
▁अक्टूबर	-13868
ंकर	-13869
rise	-13870
▁Ban	-13871
▁चाहती	-13872
▁seasons	-13873
▁प्रतिनि	-13874
वर्	-13875
▁bom	-13876
▁stiff	-13877
▁थोड़ा	-13878
▁प्रसाद	-13879
▁impression	-13880
aze	-13881
▁Jup	-13882
▁metres	-13883
▁preschool	-13884
एड	-13885
eav	-13886
▁ऊर्जा	-13887
▁प्रतिक	-13888
▁dangers	-13889
▁लोकप्रिय	-13890
▁explaining	-13891
hedral	-13892
▁[...]	-13893
▁whilst	-13894
▁politicians	-13895
▁hepat	-13896
▁festival	-13897
▁2014,	-13898
▁Mission	-13899
▁incorrect	-13900
دة	-13901
▁bay	-13902
▁आसानी	-13903
▁educate	-13904
▁institutional	-13905
▁EN	-13906
▁Arthur	-13907
▁Bridge	-13908
▁coordination	-13909
▁56	-13910
inea	-13911
leton	-13912
विधान	-13913
▁दरअसल	-13914
▁referring	-13915
▁precipitation	-13916
tte	-13917
▁khi	-13918
▁Buddha	-13919
▁invited	-13920
▁extraction	-13921
▁manufactured	-13922
▁filling	-13923
▁genuine	-13924
▁aluminum	-13925
▁compat	-13926
.-	-13927
जित	-13928
▁मस्	-13929
ochond	-13930
▁expend	-13931
▁Architect	-13932
▁Fle	-13933
flies	-13934
▁census	-13935
▁texture	-13936
▁genetically	-13937
igma	-13938
rell	-13939
▁Teacher	-13940
▁अमेरिकी	-13941
▁necessity	-13942
▁मौसम	-13943
▁gland	-13944
▁diagnose	-13945
▁protects	-13946
▁encountered	-13947
ML	-13948
▁कोल	-13949
▁Series	-13950
▁picked	-13951
▁retire	-13952
▁dehyd	-13953
▁gastro	-13954
▁imaginary	-13955
▁ऑफ़	-13956
▁Miller	-13957
खण्ड	-13958
▁mim	-13959
▁पूर्	-13960
▁WH	-13961
wall	-13962
▁Draw	-13963
asures	-13964
▁Polish	-13965
▁कोरिया	-13966
▁सप्ताह	-13967
▁चयन	-13968
▁Tips	-13969
▁expense	-13970
▁inclusion	-13971
▁Was	-13972
▁निर्धार	-13973
aug	-13974
द्रा	-13975
▁Rog	-13976
▁दिवस	-13977
▁Marsh	-13978
▁tired	-13979
्वी	-13980
▁atom	-13981
▁inver	-13982
▁phrases	-13983
▁कथ	-13984
▁फल	-13985
olly	-13986
▁धारा	-13987
▁पहुंचा	-13988
▁reserve	-13989
▁stressed	-13990
▁summarized	-13991
▁fears	-13992
ternoon	-13993
▁chains	-13994
heastern	-13995
▁स्मार्ट	-13996
▁genetics	-13997
▁prostate	-13998
arth	-13999
conf	-14000
▁हटा	-14001
्रिया	-14002
▁Love	-14003
▁Requ	-14004
▁Advanced	-14005
emed	-14006
▁28,	-14007
▁Political	-14008
orient	-14009
▁pride	-14010
▁विदेशी	-14011
bro	-14012
▁subtle	-14013
!"	-14014
3%	-14015
vals	-14016
▁Inv	-14017
▁orn	-14018
▁soap	-14019
▁phases	-14020
▁football	-14021
▁belonging	-14022
▁discussing	-14023
aver	-14024
▁spell	-14025
én	-14026
▁ख़बर	-14027
cm	-14028
ình	-14029
▁Dur	-14030
father	-14031
arter	-14032
▁syll	-14033
▁Taylor	-14034
▁analog	-14035
▁presum	-14036
▁मू	-14037
▁pathway	-14038
▁shipping	-14039
▁Knowledge	-14040
भाल	-14041
▁मध	-14042
▁Eval	-14043
▁हिस्से	-14044
▁expedition	-14045
▁ic	-14046
▁ric	-14047
▁philosophical	-14048
ंटर	-14049
▁củ	-14050
▁palm	-14051
▁Compar	-14052
बो	-14053
▁Fram	-14054
▁uter	-14055
▁नीति	-14056
स्तानी	-14057
cts	-14058
▁consensus	-14059
▁repeatedly	-14060
▁march	-14061
▁receptors	-14062
▁geographic	-14063
▁ingredient	-14064
arts	-14065
▁viable	-14066
security	-14067
▁ब्रिटेन	-14068
▁incredible	-14069
▁respective	-14070
▁conservative	-14071
ordan	-14072
▁1994	-14073
osphere	-14074
▁Visual	-14075
▁Movement	-14076
▁limiting	-14077
▁stimulate	-14078
▁cer	-14079
▁gums	-14080
▁प्रेर	-14081
▁determines	-14082
▁departments	-14083
▁chip	-14084
▁metap	-14085
▁condem	-14086
▁Benefits	-14087
▁compassion	-14088
▁overweight	-14089
▁assignments	-14090
जो	-14091
▁Cro	-14092
▁Kat	-14093
▁kin	-14094
ancial	-14095
▁सार्व	-14096
▁whales	-14097
89	-14098
▁Ark	-14099
▁फ्ल	-14100
ammad	-14101
▁ट्वीट	-14102
▁deterior	-14103
pa	-14104
thening	-14105
▁Census	-14106
▁organize	-14107
▁Roosevelt	-14108
▁conversations	-14109
कम	-14110
▁तह	-14111
sized	-14112
▁दिला	-14113
▁Syria	-14114
▁precious	-14115
▁SM	-14116
▁ger	-14117
▁Team	-14118
▁seeks	-14119
▁wra	-14120
▁epidem	-14121
▁लक्ष्य	-14122
▁dismiss	-14123
▁Barb	-14124
▁राहत	-14125
▁snake	-14126
igration	-14127
▁Captain	-14128
▁conce	-14129
▁galaxies	-14130
▁recycled	-14131
7%	-14132
▁mant	-14133
▁pries	-14134
▁वैज्ञान	-14135
who	-14136
▁ती	-14137
bral	-14138
ausea	-14139
▁coin	-14140
▁Cultural	-14141
FS	-14142
▁मस	-14143
▁fifty	-14144
atching	-14145
▁cooked	-14146
▁portions	-14147
inton	-14148
▁पर्य	-14149
run	-14150
▁Dor	-14151
▁देखकर	-14152
▁Philippines	-14153
▁descriptions	-14154
▁करनी	-14155
▁जोड़	-14156
▁herbs	-14157
▁propos	-14158
▁sẽ	-14159
▁Pil	-14160
▁pec	-14161
▁लखन	-14162
▁dinner	-14163
▁प्रचार	-14164
▁disposal	-14165
Read	-14166
orney	-14167
▁मनुष	-14168
▁2,000	-14169
▁pitch	-14170
▁curious	-14171
▁applicable	-14172
iley	-14173
▁Bot	-14174
▁accessed	-14175
▁entities	-14176
▁Mountains	-14177
००	-14178
ello	-14179
eous	-14180
▁शोध	-14181
▁पूछा	-14182
▁2005,	-14183
▁unity	-14184
▁aggreg	-14185
ại	-14186
▁मुह	-14187
▁yoga	-14188
lessly	-14189
▁crash	-14190
▁abroad	-14191
▁पुराने	-14192
▁combust	-14193
▁mounted	-14194
▁unemployment	-14195
▁व्	-14196
▁26,	-14197
▁Bru	-14198
▁Dat	-14199
▁Overall	-14200
▁Sche	-14201
▁Buddhist	-14202
▁shopping	-14203
ée	-14204
3),	-14205
anna	-14206
▁Rod	-14207
▁विजय	-14208
▁meets	-14209
▁senses	-14210
▁colleges	-14211
▁GP	-14212
▁pupp	-14213
▁बिल्	-14214
▁भोजन	-14215
▁Relations	-14216
▁telescope	-14217
▁ren	-14218
▁सजा	-14219
▁dign	-14220
▁sket	-14221
▁मैदान	-14222
▁177	-14223
▁relieve	-14224
▁commands	-14225
▁realistic	-14226
▁surveillance	-14227
600	-14228
jan	-14229
opt	-14230
inator	-14231
▁नियंत्रण	-14232
▁physiological	-14233
irs	-14234
श्वर	-14235
annel	-14236
▁damaging	-14237
▁discusses	-14238
▁Communication	-14239
ết	-14240
▁मं	-14241
▁आलो	-14242
iolet	-14243
ंघ	-14244
▁Had	-14245
▁चढ़	-14246
▁Edition	-14247
▁considerations	-14248
lear	-14249
▁bands	-14250
▁illustrate	-14251
ogene	-14252
there	-14253
▁आनंद	-14254
estion	-14255
▁alien	-14256
▁सलमान	-14257
▁blacks	-14258
▁विकसित	-14259
▁conclude	-14260
▁Sustainable	-14261
hour	-14262
▁Nig	-14263
▁2006,	-14264
▁Taking	-14265
▁strand	-14266
▁Amendment	-14267
lob	-14268
▁Rout	-14269
▁sorts	-14270
restrial	-14271
▁của	-14272
▁Init	-14273
▁yeast	-14274
▁summarize	-14275
▁comparable	-14276
ày	-14277
▁episode	-14278
▁skilled	-14279
▁marginal	-14280
iri	-14281
sur	-14282
उंट	-14283
▁surre	-14284
▁Plants	-14285
▁Defense	-14286
▁participated	-14287
yt	-14288
rage	-14289
▁icon	-14290
▁Arist	-14291
ặc	-14292
▁Boy	-14293
▁बनाई	-14294
ructive	-14295
▁Argent	-14296
▁farmer	-14297
▁automatic	-14298
▁nineteenth	-14299
makers	-14300
▁milit	-14301
▁timber	-14302
▁worksheet	-14303
▁dictionary	-14304
▁SD	-14305
ilib	-14306
▁Hispan	-14307
WS	-14308
ारोह	-14309
ocaust	-14310
▁explos	-14311
inflammatory	-14312
hr	-14313
निक	-14314
▁गू	-14315
▁potatoes	-14316
▁प्रकाशित	-14317
3:	-14318
▁टा	-14319
▁आंक	-14320
▁stuck	-14321
rying	-14322
▁दबाव	-14323
▁डिग्री	-14324
▁gaining	-14325
UM	-14326
-17	-14327
▁beds	-14328
▁rhythm	-14329
▁shadow	-14330
▁flowing	-14331
ड्ड	-14332
▁FA	-14333
▁Aqu	-14334
▁Archae	-14335
▁boards	-14336
▁induced	-14337
EST	-14338
▁नेट	-14339
▁इंस्ट	-14340
▁admitted	-14341
कृ	-14342
▁cro	-14343
▁सुख	-14344
▁bowel	-14345
▁Jupiter	-14346
▁Personal	-14347
▁discoveries	-14348
▁लै	-14349
▁Bon	-14350
▁Virt	-14351
▁disput	-14352
▁appetite	-14353
▁architectural	-14354
Sc	-14355
▁41	-14356
प्ति	-14357
▁काफ़ी	-14358
▁costly	-14359
▁Market	-14360
▁Therapy	-14361
▁telephone	-14362
▁programmes	-14363
▁substitute	-14364
▁degradation	-14365
fn	-14366
ंतु	-14367
▁vow	-14368
▁पहन	-14369
imedia	-14370
▁galaxy	-14371
▁दूध	-14372
ilton	-14373
▁Utah	-14374
▁बारिश	-14375
▁motivated	-14376
arding	-14377
▁flesh	-14378
▁vapor	-14379
▁grants	-14380
▁nurses	-14381
▁voices	-14382
away	-14383
comp	-14384
▁Bah	-14385
▁dishes	-14386
▁Imm	-14387
वै	-14388
▁Pow	-14389
apped	-14390
▁enters	-14391
eld	-14392
▁चेहरे	-14393
▁तैयारी	-14394
▁Effects	-14395
थि	-14396
▁desp	-14397
▁Ethiop	-14398
iplinary	-14399
▁announce	-14400
▁Moh	-14401
▁quote	-14402
instein	-14403
▁battles	-14404
▁passive	-14405
▁स्वर	-14406
▁kings	-14407
▁Saturday	-14408
▁सुरक्षित	-14409
▁assumption	-14410
▁arbit	-14411
▁decomp	-14412
▁specialists	-14413
▁181	-14414
▁digit	-14415
▁वृद्धि	-14416
▁pharmac	-14417
▁Archived	-14418
▁mutation	-14419
▁recovered	-14420
.2	-14421
ोत्	-14422
▁bold	-14423
ailing	-14424
▁angry	-14425
▁stack	-14426
▁larvae	-14427
▁odd	-14428
▁Ball	-14429
▁tomb	-14430
▁datas	-14431
▁mainstream	-14432
▁resilience	-14433
egu	-14434
▁atau	-14435
▁जमीन	-14436
▁संके	-14437
▁Freedom	-14438
▁alphabet	-14439
▁fulfill	-14440
▁singing	-14441
▁inherited	-14442
▁frequencies	-14443
▁methodology	-14444
यम	-14445
ivo	-14446
arma	-14447
orie	-14448
▁beta	-14449
▁gross	-14450
▁प्रशिक्ष	-14451
▁examining	-14452
▁डेट	-14453
▁pued	-14454
▁checked	-14455
okes	-14456
One	-14457
मेल	-14458
ilty	-14459
arest	-14460
▁tunnel	-14461
▁operators	-14462
म्मू	-14463
▁27,	-14464
isphere	-14465
▁ignored	-14466
▁electrom	-14467
▁ईरान	-14468
▁scenes	-14469
▁verbal	-14470
ographer	-14471
▁protocols	-14472
▁enterprise	-14473
▁95	-14474
rets	-14475
▁Past	-14476
▁खड़े	-14477
▁दर्श	-14478
▁Facts	-14479
▁समारोह	-14480
ếu	-14481
essee	-14482
isible	-14483
▁Clear	-14484
▁resur	-14485
▁प्रथम	-14486
▁compact	-14487
▁graphic	-14488
▁machinery	-14489
▁groundwater	-14490
stan	-14491
▁globally	-14492
▁traveled	-14493
Con	-14494
▁री	-14495
▁समी	-14496
▁Cham	-14497
▁guided	-14498
▁बढ़ाने	-14499
▁transparent	-14500
ल्क	-14501
▁Pit	-14502
▁Tal	-14503
▁क्व	-14504
▁चीज़	-14505
▁disasters	-14506
्रेट	-14507
▁PMID	-14508
▁Tibet	-14509
▁ceremony	-14510
▁attempting	-14511
▁interpreted	-14512
चि	-14513
oxic	-14514
▁cher	-14515
▁guides	-14516
ben	-14517
hops	-14518
▁गुरुवार	-14519
اب	-14520
rea	-14521
जिये	-14522
▁mul	-14523
▁तेजी	-14524
asting	-14525
▁पढ़ें	-14526
▁static	-14527
▁warmer	-14528
खर	-14529
क्षक	-14530
▁बेच	-14531
onald	-14532
▁lapt	-14533
▁Around	-14534
▁shortly	-14535
96	-14536
cr	-14537
sun	-14538
illy	-14539
▁Issue	-14540
▁hearts	-14541
▁उल्लेख	-14542
LC	-14543
पन्न	-14544
▁gel	-14545
वस्था	-14546
▁Summer	-14547
▁cavity	-14548
▁smallest	-14549
▁photography	-14550
▁Independence	-14551
▁historically	-14552
▁SO	-14553
link	-14554
▁विल	-14555
▁careg	-14556
▁plaque	-14557
▁powered	-14558
▁defeated	-14559
look	-14560
▁deals	-14561
▁angles	-14562
▁aquatic	-14563
▁outdoors	-14564
▁publicly	-14565
▁Pra	-14566
▁Analy	-14567
▁Share	-14568
▁धार्म	-14569
▁मजबूत	-14570
रेट	-14571
etry	-14572
▁Bob	-14573
▁Hawaii	-14574
▁shield	-14575
▁Command	-14576
▁Foreign	-14577
▁Creative	-14578
▁efficacy	-14579
▁interviews	-14580
VD	-14581
urg	-14582
▁refriger	-14583
▁prolonged	-14584
ॉग	-14585
Tube	-14586
IO	-14587
rup	-14588
▁Nap	-14589
▁Includ	-14590
▁campaigns	-14591
uana	-14592
▁Nat	-14593
▁कारो	-14594
govern	-14595
▁Fri	-14596
▁needle	-14597
aret	-14598
त्रों	-14599
▁एजेंसी	-14600
ochemical	-14601
▁BBC	-14602
▁infl	-14603
▁disin	-14604
▁उत्पादन	-14605
▁headaches	-14606
▁Ages	-14607
natural	-14608
▁Strateg	-14609
3–	-14610
▁gifts	-14611
▁grave	-14612
▁oxide	-14613
▁rings	-14614
▁Credit	-14615
▁mutual	-14616
▁pulled	-14617
▁extends	-14618
▁meanings	-14619
97	-14620
aux	-14621
▁नै	-14622
host	-14623
warf	-14624
▁Hub	-14625
▁Muh	-14626
▁आये	-14627
elson	-14628
▁chim	-14629
▁grat	-14630
▁Maria	-14631
▁immense	-14632
▁2016,	-14633
▁contra	-14634
▁crossing	-14635
▁उल	-14636
lades	-14637
shore	-14638
▁HTML	-14639
ियोजना	-14640
▁Block	-14641
aga	-14642
▁अका	-14643
white	-14644
▁forb	-14645
imeter	-14646
▁residence	-14647
non	-14648
▁१९	-14649
▁wealthy	-14650
▁arteries	-14651
्मा	-14652
▁patch	-14653
▁मिलती	-14654
▁basket	-14655
▁dreams	-14656
▁quantitative	-14657
नु	-14658
otyp	-14659
▁Chile	-14660
▁movies	-14661
▁abdominal	-14662
eland	-14663
▁Bapt	-14664
▁bugs	-14665
▁lith	-14666
▁लखनऊ	-14667
▁Albert	-14668
डर	-14669
पोर्ट	-14670
▁fled	-14671
▁Eating	-14672
▁breathe	-14673
▁केन्द्र	-14674
ibli	-14675
onge	-14676
▁ओवर	-14677
▁indicator	-14678
▁tremendous	-14679
apore	-14680
inced	-14681
▁aspir	-14682
▁Fisher	-14683
कारों	-14684
▁Urban	-14685
▁संपर्क	-14686
laration	-14687
▁staying	-14688
▁republic	-14689
▁furniture	-14690
▁grey	-14691
▁Diagn	-14692
▁prophe	-14693
▁निर	-14694
▁advised	-14695
▁profits	-14696
▁seemingly	-14697
▁practitioners	-14698
▁Build	-14699
▁Evidence	-14700
▁digestion	-14701
▁Dub	-14702
▁tech	-14703
▁Everyone	-14704
▁neighbors	-14705
▁purple	-14706
▁Confederate	-14707
lyn	-14708
▁मेड	-14709
▁Cert	-14710
▁obsc	-14711
▁Freder	-14712
▁pollen	-14713
▁drawings	-14714
▁परियोजना	-14715
▁Louisiana	-14716
▁afternoon	-14717
▁membership	-14718
These	-14719
▁pipes	-14720
hot	-14721
▁गोली	-14722
acular	-14723
aments	-14724
letter	-14725
िश्चित	-14726
▁बनाकर	-14727
▁makers	-14728
▁overse	-14729
▁analyzing	-14730
▁devastating	-14731
tem	-14732
सिद्ध	-14733
▁धार्मिक	-14734
▁counting	-14735
▁promoted	-14736
sl	-14737
हे	-14738
▁os	-14739
osaurs	-14740
▁Norway	-14741
▁Stress	-14742
▁updates	-14743
▁UC	-14744
scill	-14745
▁Total	-14746
▁इलाके	-14747
▁Golden	-14748
ांक	-14749
▁साध	-14750
bestos	-14751
▁imbal	-14752
ूनी	-14753
anth	-14754
ष्टा	-14755
PP	-14756
olith	-14757
▁brick	-14758
▁fluctu	-14759
phe	-14760
▁फा	-14761
▁तलाश	-14762
नगर	-14763
▁pushing	-14764
▁ش	-14765
unes	-14766
▁किन	-14767
▁Cust	-14768
▁mais	-14769
ét	-14770
fol	-14771
plus	-14772
sets	-14773
▁मौका	-14774
▁Maybe	-14775
▁initiated	-14776
▁धर	-14777
▁चीनी	-14778
▁पकड़	-14779
▁compress	-14780
▁promised	-14781
ới	-14782
▁Philip	-14783
enc	-14784
▁सॉ	-14785
▁adul	-14786
▁दलित	-14787
▁जम्मू	-14788
▁cannab	-14789
▁anniversary	-14790
10,	-14791
हान	-14792
▁Hunt	-14793
▁Tennessee	-14794
▁personally	-14795
elle	-14796
▁Lie	-14797
▁beer	-14798
▁मॉडल	-14799
appy	-14800
keys	-14801
▁18.	-14802
▁लगाए	-14803
▁unnecessary	-14804
▁Deb	-14805
opathy	-14806
▁flies	-14807
▁carcin	-14808
▁decent	-14809
▁conceptual	-14810
8%	-14811
ोम	-14812
▁aids	-14813
▁rises	-14814
▁caffeine	-14815
▁Afghanistan	-14816
ESS	-14817
...\	-14818
▁ज़ि	-14819
▁Live	-14820
▁बाबा	-14821
▁Lesson	-14822
▁prosec	-14823
style	-14824
▁suppress	-14825
MD	-14826
ट्र	-14827
दीप	-14828
osex	-14829
ाइनल	-14830
▁paths	-14831
▁colours	-14832
▁nucleus	-14833
So	-14834
Us	-14835
्प	-14836
▁ख़ु	-14837
▁Nort	-14838
urally	-14839
▁Impact	-14840
▁circuits	-14841
▁किलोमीटर	-14842
▁conjunction	-14843
ARS	-14844
▁वाय	-14845
▁हवा	-14846
▁clusters	-14847
▁collaborative	-14848
Do	-14849
▁wax	-14850
▁butt	-14851
▁लंबे	-14852
monary	-14853
▁slide	-14854
etheless	-14855
रीज	-14856
▁Mas	-14857
▁tent	-14858
▁absent	-14859
▁denied	-14860
▁blockchain	-14861
4),	-14862
▁AB	-14863
▁Rap	-14864
▁Tai	-14865
mouth	-14866
oub	-14867
agus	-14868
▁ket	-14869
▁Initi	-14870
▁Commer	-14871
ltry	-14872
▁consisted	-14873
▁Publishing	-14874
▁Exercise	-14875
▁Fun	-14876
▁लाइन	-14877
▁compensation	-14878
ध्यक्ष	-14879
▁Clark	-14880
▁Treaty	-14881
▁tender	-14882
▁whites	-14883
▁interrupt	-14884
▁documentation	-14885
▁4-	-14886
▁Ta	-14887
▁अश	-14888
vity	-14889
▁90%	-14890
▁परमाण	-14891
▁Literature	-14892
▁predictions	-14893
▁1-	-14894
▁cod	-14895
▁Anti	-14896
▁तनाव	-14897
▁Prize	-14898
▁boats	-14899
▁संविधान	-14900
▁navigation	-14901
▁स्टेशन	-14902
▁इंटरनेट	-14903
▁replacing	-14904
aund	-14905
▁fungi	-14906
ilateral	-14907
▁Affairs	-14908
▁contracts	-14909
-11	-14910
▁कहती	-14911
screen	-14912
▁poisoning	-14913
▁highlighted	-14914
ART	-14915
orb	-14916
▁Nich	-14917
▁magic	-14918
▁fragments	-14919
▁archaeological	-14920
View	-14921
▁panic	-14922
▁breakfast	-14923
▁शौ	-14924
बीबीसी	-14925
▁overt	-14926
▁informal	-14927
▁volcanic	-14928
▁designers	-14929
fat	-14930
▁Appl	-14931
activity	-14932
izational	-14933
▁scheduled	-14934
▁dirt	-14935
▁अग्र	-14936
roleum	-14937
▁fleet	-14938
▁weren	-14939
▁Lawrence	-14940
▁terminal	-14941
▁convinced	-14942
▁Lady	-14943
▁तमाम	-14944
▁endeav	-14945
▁equity	-14946
▁locate	-14947
▁speaks	-14948
cow	-14949
मित	-14950
first	-14951
abetic	-14952
iously	-14953
▁chips	-14954
▁tempt	-14955
▁soldier	-14956
▁Resource	-14957
uming	-14958
स्तुत	-14959
▁विरा	-14960
angers	-14961
▁basin	-14962
▁builds	-14963
▁अनुमान	-14964
▁editing	-14965
▁religions	-14966
igs	-14967
athic	-14968
▁dual	-14969
▁पैसा	-14970
▁Radio	-14971
ulative	-14972
▁शुभ	-14973
▁Historic	-14974
▁accumulation	-14975
keley	-14976
▁counts	-14977
▁raises	-14978
▁operator	-14979
▁structured	-14980
ब्र	-14981
ार्ज	-14982
abama	-14983
कालीन	-14984
▁रखना	-14985
▁बाहरी	-14986
▁Military	-14987
whe	-14988
▁700	-14989
ococc	-14990
▁unto	-14991
▁defining	-14992
▁गौ	-14993
weed	-14994
▁unclear	-14995
जनिक	-14996
lastname	-14997
▁tin	-14998
▁सीख	-14999
▁beef	-15000
▁basics	-15001
▁strengths	-15002
▁महाराष्ट्र	-15003
▁मित्र	-15004
▁checking	-15005
▁explanations	-15006
AV	-15007
▁Tele	-15008
▁drag	-15009
embered	-15010
▁possession	-15011
▁feas	-15012
▁hosts	-15013
▁kidneys	-15014
▁polymer	-15015
▁विस्तार	-15016
▁pressures	-15017
▁deple	-15018
▁pound	-15019
कीय	-15020
▁Tu	-15021
▁pix	-15022
▁plug	-15023
▁Person	-15024
▁voters	-15025
▁Corporation	-15026
6%	-15027
दक	-15028
lux	-15029
▁6:	-15030
▁उपाय	-15031
itored	-15032
.]	-15033
py	-15034
esy	-15035
▁fails	-15036
▁castle	-15037
▁arrested	-15038
▁commemor	-15039
arbon	-15040
jamin	-15041
▁करिए	-15042
inates	-15043
▁मिलकर	-15044
assment	-15045
▁premature	-15046
▁बिक	-15047
▁sore	-15048
▁emergence	-15049
▁pollutants	-15050
▁Sri	-15051
▁Sant	-15052
▁empir	-15053
▁traged	-15054
▁Banglades	-15055
▁Typically	-15056
▁Definition	-15057
यु	-15058
▁मिट	-15059
▁Tour	-15060
▁Editor	-15061
▁worried	-15062
▁receptor	-15063
▁observing	-15064
▁कप्तान	-15065
graduate	-15066
▁closest	-15067
▁हरियाणा	-15068
▁insulation	-15069
▁Gas	-15070
▁glory	-15071
▁घोषित	-15072
▁Persian	-15073
त्तीस	-15074
▁Comb	-15075
▁belt	-15076
▁Images	-15077
▁margin	-15078
▁Planning	-15079
اع	-15080
खों	-15081
ania	-15082
▁bases	-15083
▁आरोपी	-15084
▁affirm	-15085
--------	-15086
ibration	-15087
▁CL	-15088
asis	-15089
▁Iowa	-15090
▁अथवा	-15091
▁बंगाल	-15092
▁projected	-15093
▁regulated	-15094
▁governance	-15095
▁(7	-15096
▁एच	-15097
they	-15098
organisms	-15099
▁Link	-15100
▁forty	-15101
▁हाथों	-15102
▁virtue	-15103
▁certified	-15104
▁satisfaction	-15105
,000.	-15106
▁....	-15107
▁dans	-15108
▁Innov	-15109
▁illustrations	-15110
▁प्रती	-15111
▁united	-15112
जाम	-15113
▁Youth	-15114
▁Collection	-15115
▁acquisition	-15116
ikh	-15117
tre	-15118
▁$2	-15119
▁cheaper	-15120
▁labeled	-15121
▁winning	-15122
▁afterwards	-15123
87	-15124
ushes	-15125
induced	-15126
▁Stanford	-15127
▁geography	-15128
ni	-15129
-30	-15130
▁sho	-15131
▁rescue	-15132
▁biomass	-15133
▁Kentucky	-15134
▁responded	-15135
▁consultation	-15136
▁geographical	-15137
▁hypertension	-15138
rase	-15139
▁proc	-15140
▁ignor	-15141
▁हिंदू	-15142
▁defect	-15143
▁menstru	-15144
▁Imperial	-15145
▁demonstration	-15146
▁16.	-15147
▁Bird	-15148
▁reads	-15149
▁परमाणु	-15150
ोने	-15151
▁Haz	-15152
▁بال	-15153
▁offspring	-15154
ور	-15155
▁Rain	-15156
▁fraud	-15157
otechnology	-15158
काम	-15159
▁McG	-15160
eterm	-15161
▁relates	-15162
▁indication	-15163
dig	-15164
▁ok	-15165
oths	-15166
▁Rena	-15167
▁bars	-15168
▁quot	-15169
olecular	-15170
▁constitu	-15171
▁sacrific	-15172
▁प्रतियोग	-15173
▁practicing	-15174
asm	-15175
▁अके	-15176
▁जाएँ	-15177
▁lacking	-15178
▁survivors	-15179
▁inadequate	-15180
roach	-15181
▁artery	-15182
▁अनुमति	-15183
▁उद्देश	-15184
▁Character	-15185
▁Declaration	-15186
▁ED	-15187
▁Coal	-15188
▁देंगे	-15189
▁banking	-15190
▁Memorial	-15191
▁presidential	-15192
aying	-15193
▁2006.	-15194
▁champ	-15195
▁तुरंत	-15196
ovenant	-15197
▁twentieth	-15198
imb	-15199
▁Dak	-15200
▁सुपर	-15201
estinal	-15202
▁retreat	-15203
▁advocate	-15204
▁floating	-15205
eton	-15206
▁murd	-15207
▁Android	-15208
gic	-15209
▁Syn	-15210
▁mines	-15211
▁alleged	-15212
▁corporations	-15213
द्द	-15214
▁आखिर	-15215
iencies	-15216
▁स्थापना	-15217
▁licensed	-15218
▁dimension	-15219
▁Sci	-15220
▁Jordan	-15221
▁Buddhism	-15222
▁substantially	-15223
▁Cru	-15224
▁Gil	-15225
▁रखी	-15226
▁headed	-15227
▁Austria	-15228
▁प्रवक्ता	-15229
▁Executive	-15230
▁neighbour	-15231
arb	-15232
▁Box	-15233
▁searc	-15234
rasound	-15235
▁individ	-15236
ationally	-15237
▁Regional	-15238
▁Chemistry	-15239
▁astronaut	-15240
▁सार्वजनिक	-15241
مكن	-15242
iasis	-15243
▁Hong	-15244
▁chat	-15245
▁Beyond	-15246
illes	-15247
▁Nobel	-15248
▁admit	-15249
▁Prevent	-15250
cat	-15251
▁परिषद	-15252
▁सदस्यों	-15253
fficiency	-15254
itzerland	-15255
▁integrate	-15256
uz	-15257
▁jet	-15258
▁बुला	-15259
▁prejud	-15260
▁फिल्मों	-15261
▁darkness	-15262
good	-15263
▁carp	-15264
▁breakdown	-15265
UD	-15266
exts	-15267
▁Sin	-15268
▁trap	-15269
▁explores	-15270
icul	-15271
▁मशीन	-15272
▁Adams	-15273
▁जुड़ी	-15274
▁Almost	-15275
▁दिसंबर	-15276
▁imagery	-15277
▁inability	-15278
▁Il	-15279
▁कौ	-15280
▁Gro	-15281
▁evac	-15282
▁dated	-15283
▁bottles	-15284
▁reforms	-15285
▁challenged	-15286
54	-15287
mill	-15288
▁Tok	-15289
▁2000,	-15290
▁विवाह	-15291
▁जिन्होंने	-15292
-16	-15293
bits	-15294
▁obese	-15295
▁persec	-15296
▁conform	-15297
▁releases	-15298
supp	-15299
▁80%	-15300
▁सीधे	-15301
▁परिवर्तन	-15302
hend	-15303
चारी	-15304
न्ना	-15305
▁Games	-15306
▁Machine	-15307
▁modules	-15308
▁रूस	-15309
▁omega	-15310
▁talked	-15311
▁रिश्ते	-15312
▁reliability	-15313
▁जनरल	-15314
▁Broad	-15315
▁enthusi	-15316
▁imposed	-15317
▁preference	-15318
▁cyt	-15319
▁وال	-15320
▁Kenya	-15321
▁Veter	-15322
▁Ze	-15323
forward	-15324
▁Mechan	-15325
▁testim	-15326
▁socially	-15327
▁↑	-15328
▁Joh	-15329
▁चली	-15330
▁Song	-15331
▁vocal	-15332
▁surely	-15333
▁अक्ष	-15334
▁सेवन	-15335
▁steep	-15336
▁शिकार	-15337
ighters	-15338
▁हथियार	-15339
▁eligible	-15340
▁elevation	-15341
▁Description	-15342
52	-15343
olas	-15344
tics	-15345
▁Fat	-15346
▁Focus	-15347
▁cement	-15348
▁YouTube	-15349
▁introducing	-15350
ائ	-15351
ायण	-15352
urred	-15353
▁भूमि	-15354
▁rebell	-15355
▁accused	-15356
▁intervals	-15357
▁corruption	-15358
यें	-15359
ेदार	-15360
ulses	-15361
▁fees	-15362
▁Prote	-15363
▁melan	-15364
▁wells	-15365
▁Alabama	-15366
▁railway	-15367
▁Activity	-15368
▁Singapore	-15369
▁purchasing	-15370
▁interference	-15371
spe	-15372
▁Armen	-15373
▁Visit	-15374
▁affil	-15375
▁सामग्री	-15376
unciation	-15377
▁radioactive	-15378
▁não	-15379
▁completing	-15380
oen	-15381
risk	-15382
सीसी	-15383
▁अभि	-15384
▁relies	-15385
▁symmet	-15386
▁throne	-15387
▁investigations	-15388
ांश	-15389
ietal	-15390
▁नारा	-15391
▁Stock	-15392
▁करेगी	-15393
▁Country	-15394
▁microbes	-15395
▁संस्कृति	-15396
▁combinations	-15397
▁tear	-15398
▁कितना	-15399
▁suited	-15400
▁सिर्फ़	-15401
▁monitored	-15402
▁Population	-15403
▁Gi	-15404
▁ot	-15405
धिकारिक	-15406
▁provinces	-15407
▁fee	-15408
▁4000	-15409
▁epit	-15410
▁inherit	-15411
▁interval	-15412
▁explosion	-15413
ुनिक	-15414
heres	-15415
▁drew	-15416
▁Words	-15417
▁radar	-15418
angular	-15419
▁edited	-15420
▁lenses	-15421
▁Together	-15422
▁founding	-15423
▁5-	-15424
▁EM	-15425
iens	-15426
▁fart	-15427
▁शराब	-15428
▁2018.	-15429
▁loads	-15430
▁Prophet	-15431
▁Ay	-15432
▁bon	-15433
adays	-15434
▁USDA	-15435
▁feat	-15436
▁बांग	-15437
▁emperor	-15438
▁Syndrome	-15439
▁ozone	-15440
▁शब्दों	-15441
▁Indiana	-15442
▁confined	-15443
▁comprehension	-15444
▁रोड	-15445
▁Nurs	-15446
▁intu	-15447
▁आकर्ष	-15448
▁मानना	-15449
▁thrown	-15450
▁Astronom	-15451
▁contexts	-15452
[...]
