<unk>	0
<pad>	0
<s>	0
</s>	0
<ASST>	0
<USER>	0
▁t	-0
▁a	-1
he	-2
in	-3
re	-4
▁the	-5
on	-6
er	-7
▁o	-8
at	-9
▁s	-10
en	-11
▁c	-12
▁w	-13
es	-14
is	-15
nd	-16
it	-17
or	-18
▁p	-19
al	-20
▁b	-21
ed	-22
▁of	-23
an	-24
▁f	-25
ing	-26
▁in	-27
ou	-28
ar	-29
▁m	-30
▁and	-31
▁to	-32
ic	-33
▁d	-34
ion	-35
le	-36
ro	-37
as	-38
▁h	-39
ent	-40
▁th	-41
ct	-42
▁e	-43
il	-44
▁re	-45
▁T	-46
om	-47
ve	-48
▁l	-49
st	-50
▁n	-51
ly	-52
▁be	-53
▁is	-54
se	-55
ol	-56
▁A	-57
▁g	-58
ation	-59
im	-60
id	-61
et	-62
ut	-63
ce	-64
▁S	-65
ot	-66
ur	-67
ra	-68
ch	-69
▁I	-70
ow	-71
▁for	-72
ig	-73
▁u	-74
▁C	-75
▁on	-76
▁that	-77
▁st	-78
ver	-79
▁The	-80
▁y	-81
ir	-82
ul	-83
ay	-84
am	-85
▁as	-86
ith	-87
el	-88
ad	-89
▁pro	-90
her	-91
▁are	-92
▁con	-93
▁an	-94
▁with	-95
▁M	-96
if	-97
▁you	-98
▁wh	-99
▁or	-100
▁it	-101
▁al	-102
▁P	-103
od	-104
ter	-105
▁(	-106
▁1	-107
▁B	-108
ment	-109
ge	-110
th	-111
▁W	-112
op	-113
ist	-114
ate	-115
ers	-116
▁de	-117
ess	-118
▁H	-119
ill	-120
ies	-121
▁he	-122
ab	-123
▁ex	-124
▁su	-125
▁we	-126
ect	-127
▁com	-128
ore	-129
us	-130
ity	-131
est	-132
▁ha	-133
res	-134
ive	-135
ac	-136
▁D	-137
um	-138
rom	-139
▁v	-140
ld	-141
os	-142
ke	-143
▁by	-144
▁E	-145
ant	-146
▁F	-147
qu	-148
iv	-149
em	-150
ain	-151
▁R	-152
nt	-153
▁at	-154
pp	-155
igh	-156
▁can	-157
▁was	-158
ud	-159
▁-	-160
▁from	-161
▁ch	-162
oc	-163
▁r	-164
ort	-165
and	-166
▁ne	-167
▁2	-168
▁N	-169
ial	-170
▁se	-171
▁G	-172
▁L	-173
ure	-174
un	-175
▁not	-176
▁le	-177
ical	-178
art	-179
▁have	-180
ri	-181
og	-182
▁sh	-183
▁en	-184
▁sp	-185
▁this	-186
▁O	-187
pt	-188
▁In	-189
▁ab	-190
ight	-191
▁wor	-192
ich	-193
rou	-194
all	-195
red	-196
ions	-197
ther	-198
ould	-199
00	-200
ost	-201
gh	-202
our	-203
ome	-204
du	-205
▁im	-206
ated	-207
per	-208
ine	-209
▁us	-210
▁pl	-211
ag	-212
out	-213
ard	-214
act	-215
▁their	-216
ell	-217
ff	-218
ide	-219
▁int	-220
pl	-221
▁J	-222
▁U	-223
▁Th	-224
ast	-225
ans	-226
ear	-227
age	-228
ak	-229
▁your	-230
ust	-231
▁which	-232
▁k	-233
▁whe	-234
▁they	-235
ous	-236
iz	-237
ec	-238
ood	-239
▁ad	-240
ult	-241
▁all	-242
▁will	-243
▁cont	-244
ib	-245
▁inc	-246
end	-247
cc	-248
▁dis	-249
ru	-250
▁comp	-251
ap	-252
▁more	-253
▁“	-254
▁res	-255
ong	-256
ip	-257
vel	-258
ations	-259
ia	-260
▁has	-261
ew	-262
ere	-263
▁do	-264
so	-265
orm	-266
ary	-267
ater	-268
ence	-269
able	-270
are	-271
ild	-272
▁man	-273
▁cl	-274
ual	-275
▁other	-276
ks	-277
▁but	-278
▁were	-279
ry	-280
ind	-281
▁te	-282
ents	-283
▁imp	-284
ep	-285
▁per	-286
ance	-287
ach	-288
▁also	-289
▁me	-290
▁one	-291
ign	-292
ose	-293
reat	-294
ake	-295
ress	-296
ase	-297
ass	-298
▁19	-299
av	-300
▁St	-301
au	-302
▁j	-303
▁so	-304
ction	-305
ition	-306
▁It	-307
▁out	-308
ice	-309
▁un	-310
ber	-311
▁app	-312
ime	-313
one	-314
very	-315
▁ar	-316
▁part	-317
▁stud	-318
▁This	-319
▁about	-320
ord	-321
▁"	-322
ace	-323
▁ev	-324
ens	-325
ory	-326
▁K	-327
ount	-328
ok	-329
ish	-330
ire	-331
▁who	-332
▁pe	-333
▁inf	-334
).	-335
ack	-336
ame	-337
▁sy	-338
▁his	-339
▁comm	-340
ue	-341
ors	-342
▁sc	-343
▁them	-344
ub	-345
ang	-346
ces	-347
ite	-348
ike	-349
ree	-350
ound	-351
olog	-352
now	-353
▁pre	-354
low	-355
▁bec	-356
▁Ch	-357
▁up	-358
ric	-359
▁may	-360
▁than	-361
▁qu	-362
iff	-363
ie	-364
ile	-365
ople	-366
ays	-367
▁rec	-368
▁some	-369
▁year	-370
▁20	-371
▁V	-372
▁when	-373
ail	-374
▁been	-375
ates	-376
nder	-377
▁Y	-378
▁there	-379
▁3	-380
ings	-381
mer	-382
ian	-383
▁its	-384
▁into	-385
ren	-386
rit	-387
▁work	-388
ough	-389
▁tra	-390
▁time	-391
▁go	-392
▁ag	-393
▁over	-394
ph	-395
▁diff	-396
▁these	-397
▁how	-398
▁people	-399
vers	-400
erv	-401
▁ro	-402
ally	-403
ons	-404
rough	-405
te	-406
lud	-407
ause	-408
▁cons	-409
▁col	-410
▁use	-411
ond	-412
ific	-413
▁ra	-414
▁tr	-415
ll	-416
ms	-417
▁our	-418
▁act	-419
▁had	-420
tern	-421
ove	-422
▁bet	-423
▁most	-424
we	-425
alth	-426
ys	-427
▁like	-428
int	-429
ities	-430
▁under	-431
▁know	-432
irst	-433
▁bl	-434
lect	-435
▁sa	-436
lic	-437
▁acc	-438
ments	-439
▁des	-440
les	-441
row	-442
ject	-443
ook	-444
ious	-445
..	-446
ning	-447
▁would	-448
velop	-449
stem	-450
▁tw	-451
ffect	-452
▁new	-453
▁need	-454
▁rel	-455
▁such	-456
▁Wh	-457
▁rep	-458
▁if	-459
▁child	-460
▁hel	-461
ient	-462
▁gen	-463
▁includ	-464
▁any	-465
ob	-466
ational	-467
ative	-468
cess	-469
ple	-470
▁what	-471
▁pr	-472
ular	-473
▁help	-474
hed	-475
▁ph	-476
▁used	-477
ced	-478
▁produ	-479
yp	-480
▁only	-481
▁Un	-482
ating	-483
ool	-484
ov	-485
▁ind	-486
▁prov	-487
▁no	-488
▁many	-489
▁off	-490
▁am	-491
▁develop	-492
▁through	-493
▁first	-494
▁fe	-495
▁spec	-496
),	-497
▁ac	-498
ath	-499
▁As	-500
fter	-501
iet	-502
▁em	-503
ise	-504
round	-505
ics	-506
ark	-507
uc	-508
oss	-509
▁reg	-510
▁po	-511
▁exp	-512
uring	-513
▁differe	-514
ful	-515
▁two	-516
▁system	-517
hen	-518
ts	-519
erm	-520
▁He	-521
rib	-522
oth	-523
eth	-524
iss	-525
▁–	-526
ne	-527
▁ob	-528
ink	-529
ied	-530
▁4	-531
▁201	-532
ility	-533
rop	-534
als	-535
▁dec	-536
▁ass	-537
old	-538
ased	-539
▁add	-540
ible	-541
▁att	-542
ange	-543
ten	-544
▁sur	-545
ower	-546
▁should	-547
arch	-548
▁well	-549
ife	-550
ures	-551
ble	-552
fore	-553
▁fl	-554
▁supp	-555
ract	-556
ween	-557
ert	-558
▁5	-559
▁water	-560
ng	-561
▁rem	-562
aw	-563
ram	-564
▁co	-565
▁sub	-566
▁inv	-567
own	-568
▁health	-569
▁years	-570
gan	-571
▁sm	-572
▁between	-573
sel	-574
ution	-575
ade	-576
▁high	-577
▁pres	-578
▁could	-579
hes	-580
▁where	-581
cy	-582
its	-583
▁200	-584
ever	-585
ick	-586
▁trans	-587
▁If	-588
▁make	-589
ily	-590
ants	-591
▁rese	-592
wn	-593
uch	-594
▁get	-595
▁import	-596
▁pers	-597
ology	-598
▁bu	-599
chool	-600
xt	-601
▁We	-602
chn	-603
form	-604
ural	-605
▁her	-606
ience	-607
ident	-608
▁ear	-609
▁inter	-610
▁mod	-611
▁form	-612
▁inst	-613
▁num	-614
ited	-615
▁pol	-616
meric	-617
ting	-618
▁How	-619
▁exam	-620
ivers	-621
▁Al	-622
ines	-623
ins	-624
▁disc	-625
▁different	-626
▁An	-627
land	-628
ef	-629
ness	-630
ata	-631
▁sim	-632
▁lear	-633
▁For	-634
▁effect	-635
▁found	-636
▁because	-637
▁car	-638
ict	-639
ists	-640
▁exper	-641
ually	-642
ont	-643
▁after	-644
▁med	-645
▁long	-646
ism	-647
▁then	-648
gy	-649
▁lar	-650
▁world	-651
▁incre	-652
▁cent	-653
ft	-654
▁very	-655
▁just	-656
ature	-657
▁ed	-658
▁even	-659
oy	-660
cept	-661
▁way	-662
▁typ	-663
▁count	-664
▁18	-665
▁det	-666
▁hum	-667
▁resp	-668
▁Americ	-669
urn	-670
get	-671
▁inform	-672
aking	-673
▁sign	-674
vent	-675
ically	-676
▁var	-677
▁see	-678
▁ke	-679
▁those	-680
other	-681
▁gener	-682
ck	-683
ives	-684
iew	-685
▁fol	-686
▁ref	-687
▁pat	-688
▁Pro	-689
▁ext	-690
▁Re	-691
▁soc	-692
▁every	-693
▁result	-694
▁prog	-695
▁pub	-696
▁call	-697
cer	-698
▁process	-699
▁said	-700
▁children	-701
arm	-702
▁Com	-703
ros	-704
▁fact	-705
ases	-706
▁gra	-707
.”	-708
▁being	-709
ues	-710
▁ca	-711
▁each	-712
▁loc	-713
ds	-714
led	-715
ps	-716
▁sec	-717
▁There	-718
▁They	-719
▁6	-720
ruct	-721
▁important	-722
ody	-723
iron	-724
▁requ	-725
▁techn	-726
▁partic	-727
▁life	-728
ages	-729
▁commun	-730
ork	-731
▁dist	-732
▁set	-733
tle	-734
▁she	-735
▁much	-736
ved	-737
▁mon	-738
▁ent	-739
io	-740
▁def	-741
▁dep	-742
▁during	-743
ather	-744
▁cre	-745
▁fam	-746
▁art	-747
▁students	-748
ized	-749
cent	-750
imes	-751
▁follow	-752
ward	-753
▁lead	-754
▁sk	-755
▁level	-756
▁read	-757
▁food	-758
▁own	-759
▁my	-760
vern	-761
ices	-762
▁study	-763
▁information	-764
▁aut	-765
gg	-766
▁Ar	-767
▁same	-768
▁right	-769
▁does	-770
ize	-771
▁data	-772
▁grow	-773
▁made	-774
any	-775
ection	-776
▁proble	-777
▁person	-778
▁But	-779
▁You	-780
▁good	-781
hip	-782
▁school	-783
▁min	-784
▁cur	-785
▁find	-786
0.	-787
▁str	-788
▁end	-789
▁av	-790
onom	-791
▁back	-792
▁both	-793
▁ins	-794
ality	-795
▁di	-796
ale	-797
ted	-798
▁che	-799
▁using	-800
▁Sp	-801
.,	-802
▁show	-803
▁pop	-804
▁expl	-805
▁hist	-806
und	-807
▁Ind	-808
▁comple	-809
viron	-810
▁cor	-811
▁grou	-812
▁before	-813
ivid	-814
read	-815
▁test	-816
▁gl	-817
▁small	-818
stand	-819
ially	-820
▁main	-821
iel	-822
▁What	-823
iversity	-824
▁treat	-825
||	-826
▁bo	-827
▁Sc	-828
ock	-829
ince	-830
▁New	-831
ined	-832
▁val	-833
inal	-834
▁often	-835
▁again	-836
▁br	-837
▁less	-838
▁sol	-839
omen	-840
▁prot	-841
ix	-842
der	-843
ars	-844
rol	-845
ergy	-846
▁day	-847
▁(1	-848
nce	-849
▁while	-850
ty	-851
▁poss	-852
▁dise	-853
▁state	-854
▁take	-855
imate	-856
ien	-857
▁lit	-858
▁research	-859
ished	-860
▁number	-861
ute	-862
akes	-863
ax	-864
▁7	-865
▁ec	-866
▁occ	-867
▁serv	-868
▁now	-869
▁power	-870
▁And	-871
ral	-872
▁|	-873
oh	-874
▁organ	-875
▁body	-876
▁ris	-877
ex	-878
▁activ	-879
▁cell	-880
▁fun	-881
▁mem	-882
20	-883
ier	-884
▁When	-885
vironment	-886
▁him	-887
▁provid	-888
▁char	-889
ulation	-890
▁vis	-891
000	-892
dition	-893
iety	-894
ury	-895
▁design	-896
▁human	-897
▁class	-898
iqu	-899
▁hand	-900
▁These	-901
irect	-902
▁around	-903
up	-904
▁redu	-905
▁support	-906
▁down	-907
▁three	-908
iving	-909
com	-910
▁8	-911
ves	-912
air	-913
ered	-914
▁bel	-915
▁common	-916
-1	-917
hers	-918
ters	-919
ital	-920
▁start	-921
ah	-922
▁conf	-923
▁must	-924
ger	-925
ium	-926
aj	-927
▁look	-928
▁elect	-929
uss	-930
▁Is	-931
▁est	-932
ven	-933
▁cle	-934
▁point	-935
acter	-936
▁great	-937
rent	-938
▁10	-939
ross	-940
▁To	-941
ains	-942
ving	-943
,”	-944
day	-945
▁plan	-946
▁example	-947
▁ser	-948
▁land	-949
▁govern	-950
▁report	-951
▁large	-952
ave	-953
▁did	-954
▁care	-955
the	-956
▁writ	-957
self	-958
cl	-959
▁contin	-960
ional	-961
▁‘	-962
▁9	-963
▁op	-964
rain	-965
▁Se	-966
ron	-967
ouse	-968
itions	-969
ull	-970
gen	-971
ared	-972
▁adv	-973
▁equ	-974
▁allow	-975
▁including	-976
orn	-977
▁understand	-978
anc	-979
▁educ	-980
▁const	-981
▁ret	-982
way	-983
▁met	-984
▁though	-985
▁cour	-986
▁called	-987
ash	-988
▁build	-989
...	-990
▁dr	-991
▁At	-992
▁known	-993
outh	-994
ividual	-995
▁De	-996
esp	-997
▁pract	-998
ner	-999
aterial	-1000
iver	-1001
▁still	-1002
▁public	-1003
▁beh	-1004
The	-1005
▁som	-1006
iven	-1007
ential	-1008
me	-1009
ids	-1010
▁quest	-1011
els	-1012
ired	-1013
▁eas	-1014
oms	-1015
▁gu	-1016
▁place	-1017
▁Ad	-1018
▁ide	-1019
iod	-1020
oci	-1021
ries	-1022
ected	-1023
osed	-1024
▁However	-1025
▁might	-1026
▁gre	-1027
inc	-1028
de	-1029
▁appro	-1030
itive	-1031
▁think	-1032
ization	-1033
▁mat	-1034
erest	-1035
▁few	-1036
▁present	-1037
lish	-1038
▁caus	-1039
eng	-1040
ering	-1041
▁Eng	-1042
ination	-1043
ank	-1044
raph	-1045
▁chang	-1046
▁stand	-1047
▁individual	-1048
▁within	-1049
ources	-1050
ption	-1051
▁energy	-1052
▁tem	-1053
▁environment	-1054
▁dem	-1055
▁Con	-1056
▁pur	-1057
▁change	-1058
oun	-1059
bers	-1060
▁want	-1061
▁product	-1062
ration	-1063
▁Ex	-1064
ording	-1065
▁without	-1066
▁development	-1067
ior	-1068
▁phys	-1069
ffic	-1070
ived	-1071
▁iss	-1072
ets	-1073
line	-1074
▁sym	-1075
▁meth	-1076
▁199	-1077
ense	-1078
▁material	-1079
▁impro	-1080
angu	-1081
▁cap	-1082
▁University	-1083
▁imm	-1084
▁play	-1085
ertain	-1086
▁prof	-1087
ason	-1088
▁light	-1089
."	-1090
▁Ph	-1091
▁air	-1092
▁pot	-1093
agn	-1094
▁Sh	-1095
▁ident	-1096
▁spe	-1097
▁project	-1098
,000	-1099
▁American	-1100
▁ben	-1101
▁disease	-1102
▁learn	-1103
man	-1104
▁sl	-1105
▁ve	-1106
▁bre	-1107
▁Res	-1108
sp	-1109
▁pos	-1110
iness	-1111
alk	-1112
▁don	-1113
▁eng	-1114
▁area	-1115
less	-1116
▁sit	-1117
▁social	-1118
▁direct	-1119
arent	-1120
▁anal	-1121
ental	-1122
eral	-1123
ability	-1124
ological	-1125
▁pass	-1126
▁&	-1127
ield	-1128
▁meas	-1129
ton	-1130
▁women	-1131
▁best	-1132
bs	-1133
▁another	-1134
illion	-1135
orth	-1136
ajor	-1137
▁blood	-1138
ified	-1139
▁et	-1140
gin	-1141
▁ant	-1142
▁include	-1143
▁home	-1144
▁bas	-1145
ians	-1146
▁law	-1147
▁cult	-1148
▁pain	-1149
▁belie	-1150
▁Cl	-1151
▁On	-1152
▁Be	-1153
erc	-1154
▁mark	-1155
ained	-1156
▁mus	-1157
ris	-1158
▁interest	-1159
atural	-1160
ug	-1161
ify	-1162
▁risk	-1163
▁[	-1164
atic	-1165
▁become	-1166
▁control	-1167
▁desc	-1168
ccess	-1169
▁rest	-1170
rodu	-1171
▁Le	-1172
ently	-1173
▁opp	-1174
▁econom	-1175
ining	-1176
az	-1177
▁low	-1178
▁sever	-1179
▁early	-1180
▁proper	-1181
▁better	-1182
▁Q	-1183
▁old	-1184
▁So	-1185
▁method	-1186
▁move	-1187
▁anim	-1188
▁par	-1189
ern	-1190
▁leg	-1191
ource	-1192
▁war	-1193
arc	-1194
▁ess	-1195
ways	-1196
▁program	-1197
ats	-1198
hor	-1199
▁Pl	-1200
ision	-1201
ik	-1202
ills	-1203
▁against	-1204
lished	-1205
ients	-1206
▁mil	-1207
▁tre	-1208
ware	-1209
▁fore	-1210
▁last	-1211
▁government	-1212
▁—	-1213
▁here	-1214
here	-1215
▁oper	-1216
ider	-1217
▁keep	-1218
▁second	-1219
▁history	-1220
ories	-1221
▁too	-1222
rap	-1223
▁.	-1224
▁ele	-1225
▁cause	-1226
▁order	-1227
▁means	-1228
▁major	-1229
▁real	-1230
▁occur	-1231
▁Col	-1232
▁infl	-1233
▁15	-1234
rist	-1235
ission	-1236
▁provide	-1237
▁top	-1238
▁Can	-1239
str	-1240
▁group	-1241
▁ter	-1242
view	-1243
▁avail	-1244
tt	-1245
▁family	-1246
▁perform	-1247
▁indu	-1248
▁particular	-1249
ples	-1250
ards	-1251
ention	-1252
amp	-1253
icle	-1254
▁dev	-1255
▁United	-1256
▁current	-1257
▁learning	-1258
▁possible	-1259
▁period	-1260
▁saf	-1261
▁addition	-1262
▁langu	-1263
ograph	-1264
▁invol	-1265
use	-1266
▁say	-1267
▁several	-1268
▁species	-1269
▁unt	-1270
▁near	-1271
▁hig	-1272
▁mean	-1273
▁Z	-1274
irc	-1275
oid	-1276
▁orig	-1277
▁plant	-1278
ote	-1279
▁signific	-1280
▁benef	-1281
▁fin	-1282
par	-1283
▁affect	-1284
▁bus	-1285
▁able	-1286
▁percent	-1287
▁cal	-1288
ina	-1289
▁prom	-1290
▁Comm	-1291
▁God	-1292
▁happ	-1293
▁non	-1294
▁All	-1295
ogn	-1296
▁men	-1297
ator	-1298
idence	-1299
▁since	-1300
▁el	-1301
▁open	-1302
sy	-1303
▁lim	-1304
▁feel	-1305
▁cost	-1306
ilar	-1307
▁scient	-1308
▁things	-1309
▁One	-1310
ane	-1311
urop	-1312
▁mar	-1313
▁areas	-1314
▁among	-1315
▁En	-1316
▁treatment	-1317
ole	-1318
▁Te	-1319
osp	-1320
ret	-1321
▁others	-1322
▁12	-1323
though	-1324
▁says	-1325
▁country	-1326
ends	-1327
ended	-1328
▁based	-1329
▁times	-1330
▁following	-1331
▁17	-1332
ots	-1333
▁prevent	-1334
▁del	-1335
elf	-1336
▁four	-1337
▁available	-1338
▁fac	-1339
▁head	-1340
ling	-1341
▁access	-1342
urther	-1343
▁cond	-1344
aper	-1345
▁fre	-1346
ocus	-1347
▁case	-1348
cing	-1349
▁name	-1350
▁Or	-1351
▁prop	-1352
▁Some	-1353
ances	-1354
ames	-1355
▁States	-1356
▁With	-1357
▁wee	-1358
▁struct	-1359
une	-1360
ably	-1361
ised	-1362
▁free	-1363
▁come	-1364
▁month	-1365
▁lo	-1366
ploy	-1367
1.	-1368
▁certain	-1369
▁age	-1370
▁problem	-1371
▁object	-1372
to	-1373
▁conn	-1374
sc	-1375
▁lab	-1376
▁type	-1377
▁view	-1378
be	-1379
,"	-1380
▁list	-1381
▁rece	-1382
▁natural	-1383
▁post	-1384
▁bi	-1385
▁put	-1386
▁run	-1387
oint	-1388
▁bro	-1389
▁press	-1390
urope	-1391
ression	-1392
▁Cent	-1393
ww	-1394
▁gr	-1395
▁creat	-1396
▁levels	-1397
▁local	-1398
▁problems	-1399
▁success	-1400
▁intern	-1401
olution	-1402
▁book	-1403
ring	-1404
▁vol	-1405
eg	-1406
ones	-1407
▁hard	-1408
▁cells	-1409
▁impact	-1410
▁associ	-1411
▁National	-1412
▁significant	-1413
ope	-1414
▁little	-1415
▁amount	-1416
▁mult	-1417
ggest	-1418
icult	-1419
▁flow	-1420
▁Af	-1421
▁bir	-1422
2.	-1423
br	-1424
work	-1425
▁due	-1426
resent	-1427
▁making	-1428
▁let	-1429
▁far	-1430
▁young	-1431
▁Bl	-1432
▁later	-1433
▁vir	-1434
por	-1435
▁Fr	-1436
▁short	-1437
ortun	-1438
ething	-1439
ledge	-1440
atory	-1441
▁By	-1442
▁turn	-1443
ither	-1444
▁until	-1445
▁focus	-1446
▁Europe	-1447
oks	-1448
▁suggest	-1449
▁sw	-1450
ides	-1451
ately	-1452
ication	-1453
▁comput	-1454
▁Christ	-1455
▁invest	-1456
stit	-1457
▁given	-1458
uture	-1459
ged	-1460
▁cho	-1461
▁Wor	-1462
ured	-1463
▁US	-1464
▁behav	-1465
▁determ	-1466
yd	-1467
▁function	-1468
▁education	-1469
hem	-1470
▁systems	-1471
▁polit	-1472
▁rad	-1473
▁circ	-1474
aken	-1475
▁16	-1476
▁seem	-1477
omm	-1478
▁likely	-1479
▁days	-1480
agement	-1481
▁heart	-1482
over	-1483
aps	-1484
cle	-1485
not	-1486
10	-1487
▁obs	-1488
ead	-1489
face	-1490
▁course	-1491
▁'	-1492
▁comb	-1493
▁along	-1494
▁fil	-1495
▁language	-1496
▁death	-1497
▁teac	-1498
▁appear	-1499
▁Med	-1500
ending	-1501
oph	-1502
▁sing	-1503
▁community	-1504
▁results	-1505
▁increase	-1506
orts	-1507
▁something	-1508
ried	-1509
__	-1510
▁technology	-1511
ohn	-1512
▁past	-1513
▁always	-1514
vious	-1515
▁usually	-1516
▁rele	-1517
▁dra	-1518
▁Ear	-1519
▁similar	-1520
pect	-1521
▁words	-1522
▁specific	-1523
▁$	-1524
▁consum	-1525
ape	-1526
ecially	-1527
pr	-1528
aster	-1529
▁character	-1530
▁enc	-1531
▁clear	-1532
▁temper	-1533
▁difficult	-1534
etic	-1535
▁author	-1536
▁create	-1537
asing	-1538
▁ey	-1539
▁experience	-1540
▁conditions	-1541
3.	-1542
▁works	-1543
▁space	-1544
ned	-1545
ember	-1546
▁give	-1547
▁effective	-1548
▁That	-1549
ym	-1550
▁century	-1551
ptoms	-1552
▁cr	-1553
▁ill	-1554
▁exist	-1555
▁population	-1556
▁record	-1557
isc	-1558
▁crit	-1559
ators	-1560
▁cancer	-1561
ours	-1562
▁needs	-1563
▁parent	-1564
▁profess	-1565
af	-1566
▁brain	-1567
▁across	-1568
▁today	-1569
▁(2	-1570
▁why	-1571
▁discuss	-1572
▁Afric	-1573
▁line	-1574
aining	-1575
idd	-1576
▁million	-1577
ler	-1578
especially	-1579
▁Brit	-1580
▁dam	-1581
▁While	-1582
rug	-1583
of	-1584
▁higher	-1585
▁necess	-1586
▁changes	-1587
▁various	-1588
▁above	-1589
▁describ	-1590
▁applic	-1591
1,	-1592
obal	-1593
▁special	-1594
ored	-1595
▁however	-1596
▁future	-1597
ruction	-1598
▁strong	-1599
▁er	-1600
4.	-1601
iation	-1602
ribut	-1603
min	-1604
ysis	-1605
mit	-1606
▁next	-1607
ox	-1608
▁countries	-1609
▁Im	-1610
▁working	-1611
ateg	-1612
▁toget	-1613
▁together	-1614
▁business	-1615
app	-1616
▁least	-1617
▁mov	-1618
▁try	-1619
▁begin	-1620
▁kind	-1621
▁require	-1622
▁side	-1623
ique	-1624
reen	-1625
▁ask	-1626
▁respons	-1627
▁improve	-1628
▁patients	-1629
atch	-1630
▁Dr	-1631
▁John	-1632
▁plants	-1633
▁estab	-1634
▁mot	-1635
ode	-1636
most	-1637
▁effects	-1638
put	-1639
▁left	-1640
ilities	-1641
▁researc	-1642
ray	-1643
▁away	-1644
▁Gen	-1645
▁tool	-1646
selves	-1647
▁colle	-1648
▁never	-1649
▁complete	-1650
▁Ab	-1651
▁ways	-1652
aves	-1653
acy	-1654
oney	-1655
▁cy	-1656
ilt	-1657
▁enough	-1658
5.	-1659
omes	-1660
▁sens	-1661
▁After	-1662
▁especially	-1663
▁1.	-1664
▁tru	-1665
sw	-1666
aces	-1667
▁prim	-1668
▁term	-1669
▁key	-1670
▁team	-1671
▁chem	-1672
▁Germ	-1673
▁net	-1674
▁general	-1675
▁influ	-1676
alf	-1677
oot	-1678
▁full	-1679
nal	-1680
50	-1681
▁studies	-1682
▁cases	-1683
aching	-1684
iting	-1685
let	-1686
ales	-1687
▁relations	-1688
▁consider	-1689
▁subject	-1690
▁War	-1691
amm	-1692
▁types	-1693
▁Go	-1694
thing	-1695
▁having	-1696
ires	-1697
duct	-1698
ument	-1699
ges	-1700
lement	-1701
acc	-1702
ley	-1703
▁step	-1704
▁role	-1705
▁norm	-1706
▁lower	-1707
ush	-1708
▁whether	-1709
aring	-1710
▁account	-1711
side	-1712
▁opt	-1713
▁knowledge	-1714
▁going	-1715
ipp	-1716
port	-1717
▁Am	-1718
chie	-1719
▁became	-1720
▁physical	-1721
▁self	-1722
▁Ne	-1723
oman	-1724
▁further	-1725
▁symptoms	-1726
▁sum	-1727
istic	-1728
▁z	-1729
▁World	-1730
▁city	-1731
▁English	-1732
▁represent	-1733
ued	-1734
▁pred	-1735
▁concer	-1736
▁198	-1737
ann	-1738
▁(19	-1739
▁protect	-1740
▁mind	-1741
ency	-1742
▁Stud	-1743
▁polic	-1744
▁makes	-1745
ae	-1746
▁Car	-1747
▁reason	-1748
aim	-1749
▁science	-1750
▁production	-1751
ready	-1752
▁Health	-1753
▁mic	-1754
▁wr	-1755
ification	-1756
▁house	-1757
apt	-1758
▁Tr	-1759
itor	-1760
NA	-1761
▁Mar	-1762
ables	-1763
sych	-1764
▁ens	-1765
▁live	-1766
▁chall	-1767
▁question	-1768
ery	-1769
▁She	-1770
ott	-1771
//	-1772
▁text	-1773
▁ground	-1774
atures	-1775
▁toward	-1776
▁paper	-1777
▁value	-1778
eds	-1779
▁range	-1780
ung	-1781
▁fund	-1782
▁sure	-1783
▁activity	-1784
lo	-1785
▁big	-1786
▁Resear	-1787
cul	-1788
iol	-1789
▁employ	-1790
bon	-1791
▁dig	-1792
▁model	-1793
▁growth	-1794
ibility	-1795
ites	-1796
▁quality	-1797
▁Do	-1798
6.	-1799
▁potential	-1800
▁activities	-1801
▁indic	-1802
▁nut	-1803
▁particip	-1804
▁Ge	-1805
aut	-1806
edi	-1807
▁seen	-1808
▁eff	-1809
▁Intern	-1810
▁Pr	-1811
ream	-1812
▁already	-1813
urch	-1814
by	-1815
ird	-1816
▁loss	-1817
verage	-1818
▁below	-1819
▁30	-1820
for	-1821
▁groups	-1822
▁stat	-1823
2,	-1824
8.	-1825
ee	-1826
▁lot	-1827
uation	-1828
▁close	-1829
iple	-1830
rel	-1831
augh	-1832
▁field	-1833
▁done	-1834
▁offic	-1835
▁resources	-1836
▁rather	-1837
osis	-1838
▁word	-1839
▁fall	-1840
▁really	-1841
▁wind	-1842
▁developed	-1843
erence	-1844
▁story	-1845
://	-1846
▁diet	-1847
▁either	-1848
mber	-1849
oura	-1850
▁recogn	-1851
etimes	-1852
▁products	-1853
▁neg	-1854
9.	-1855
▁single	-1856
▁achie	-1857
7.	-1858
▁South	-1859
▁Cal	-1860
▁deg	-1861
▁oil	-1862
ands	-1863
esc	-1864
overed	-1865
▁May	-1866
▁according	-1867
3,	-1868
▁abs	-1869
▁mass	-1870
▁phot	-1871
▁14	-1872
fact	-1873
▁event	-1874
▁prob	-1875
▁indust	-1876
unt	-1877
▁=	-1878
▁Acc	-1879
▁skills	-1880
amin	-1881
▁medical	-1882
leep	-1883
wh	-1884
▁North	-1885
▁ur	-1886
▁bat	-1887
▁tradition	-1888
ival	-1889
▁observ	-1890
▁drug	-1891
iam	-1892
yl	-1893
▁reduce	-1894
▁source	-1895
idered	-1896
▁surface	-1897
ison	-1898
▁national	-1899
▁rate	-1900
▁concept	-1901
ask	-1902
yn	-1903
▁collect	-1904
▁climate	-1905
▁init	-1906
▁once	-1907
▁issues	-1908
▁flu	-1909
▁building	-1910
▁site	-1911
rams	-1912
▁five	-1913
▁America	-1914
▁article	-1915
▁red	-1916
▁2.	-1917
▁taken	-1918
▁fr	-1919
eter	-1920
▁researchers	-1921
▁tot	-1922
▁address	-1923
▁soil	-1924
ER	-1925
val	-1926
ivil	-1927
▁questions	-1928
ivity	-1929
▁introdu	-1930
▁dom	-1931
▁evidence	-1932
▁Ass	-1933
▁whole	-1934
▁Cont	-1935
▁size	-1936
▁recomm	-1937
rict	-1938
▁sent	-1939
▁fail	-1940
5,	-1941
▁ann	-1942
urity	-1943
rect	-1944
roll	-1945
▁nature	-1946
ule	-1947
▁considered	-1948
▁associated	-1949
▁upon	-1950
▁members	-1951
▁sun	-1952
▁cut	-1953
fficient	-1954
▁meet	-1955
▁ver	-1956
▁created	-1957
▁sal	-1958
▁frequ	-1959
▁doct	-1960
▁white	-1961
▁wide	-1962
fer	-1963
▁Rep	-1964
▁Man	-1965
▁Many	-1966
▁fri	-1967
▁detail	-1968
30	-1969
▁skin	-1970
▁market	-1971
▁increased	-1972
▁pressure	-1973
▁tell	-1974
▁Soc	-1975
▁states	-1976
reme	-1977
▁relig	-1978
ublic	-1979
▁11	-1980
▁return	-1981
illed	-1982
epend	-1983
ips	-1984
▁themselves	-1985
▁pay	-1986
▁came	-1987
▁repl	-1988
reg	-1989
▁animals	-1990
▁understanding	-1991
▁political	-1992
ights	-1993
▁living	-1994
▁cannot	-1995
▁actually	-1996
ober	-1997
▁practice	-1998
▁required	-1999
▁histor	-2000
▁hold	-2001
▁simple	-2002
▁stress	-2003
▁Aust	-2004
▁sound	-2005
▁No	-2006
ensive	-2007
ournal	-2008
▁Act	-2009
▁opportun	-2010
▁dest	-2011
ening	-2012
▁relationship	-2013
▁Hist	-2014
▁week	-2015
aced	-2016
▁entire	-2017
▁His	-2018
▁black	-2019
ety	-2020
▁purp	-2021
sequ	-2022
▁economic	-2023
utions	-2024
▁thought	-2025
org	-2026
ibr	-2027
▁lay	-2028
▁related	-2029
▁ability	-2030
▁Dep	-2031
oon	-2032
▁complex	-2033
▁adult	-2034
itud	-2035
▁needed	-2036
▁Gu	-2037
▁materials	-2038
▁famil	-2039
▁Pe	-2040
▁engine	-2041
▁healthy	-2042
▁197	-2043
▁prote	-2044
▁Fl	-2045
▁analysis	-2046
ications	-2047
▁maint	-2048
▁student	-2049
enn	-2050
like	-2051
▁published	-2052
▁condition	-2053
▁global	-2054
▁quick	-2055
▁modern	-2056
sh	-2057
▁idea	-2058
▁comes	-2059
▁htt	-2060
▁writing	-2061
".	-2062
aging	-2063
▁arg	-2064
▁factors	-2065
11	-2066
▁itself	-2067
4,	-2068
▁port	-2069
artment	-2070
▁answ	-2071
-2	-2072
▁fish	-2073
acks	-2074
▁provides	-2075
AS	-2076
▁Em	-2077
ai	-2078
▁fat	-2079
▁doc	-2080
▁Co	-2081
▁X	-2082
▁dog	-2083
▁parts	-2084
▁almost	-2085
▁exerc	-2086
▁experien	-2087
▁avoid	-2088
aged	-2089
▁services	-2090
itary	-2091
vere	-2092
eb	-2093
▁coll	-2094
▁management	-2095
ened	-2096
▁York	-2097
mon	-2098
rad	-2099
▁vers	-2100
ging	-2101
chan	-2102
▁money	-2103
▁Earth	-2104
▁months	-2105
▁sam	-2106
▁Most	-2107
lying	-2108
▁necessary	-2109
hing	-2110
▁path	-2111
▁half	-2112
▁react	-2113
▁State	-2114
ney	-2115
▁mor	-2116
ump	-2117
ores	-2118
ences	-2119
oses	-2120
▁super	-2121
hib	-2122
▁weight	-2123
go	-2124
▁rights	-2125
▁approach	-2126
):	-2127
▁cat	-2128
▁measure	-2129
▁bar	-2130
urs	-2131
gest	-2132
▁100	-2133
▁assess	-2134
▁More	-2135
▁arch	-2136
olic	-2137
eding	-2138
uel	-2139
▁liter	-2140
ply	-2141
▁produce	-2142
erve	-2143
bo	-2144
▁suff	-2145
ystem	-2146
▁began	-2147
▁Su	-2148
▁gas	-2149
▁job	-2150
▁parents	-2151
6,	-2152
izing	-2153
▁soft	-2154
abor	-2155
▁link	-2156
▁took	-2157
onse	-2158
▁pattern	-2159
▁Although	-2160
based	-2161
▁green	-2162
▁priv	-2163
▁ever	-2164
▁tar	-2165
usion	-2166
▁Research	-2167
8,	-2168
▁emer	-2169
▁personal	-2170
▁color	-2171
▁conduct	-2172
▁196	-2173
▁individuals	-2174
▁arr	-2175
▁throughout	-2176
▁British	-2177
▁Here	-2178
▁chemical	-2179
▁computer	-2180
nces	-2181
▁ge	-2182
ma	-2183
▁princ	-2184
▁increasing	-2185
▁popular	-2186
7,	-2187
iction	-2188
utes	-2189
▁region	-2190
emic	-2191
rown	-2192
▁cop	-2193
▁stop	-2194
▁reading	-2195
irm	-2196
▁yet	-2197
9,	-2198
▁regard	-2199
ese	-2200
▁farm	-2201
iddle	-2202
▁online	-2203
▁therap	-2204
▁shows	-2205
pid	-2206
▁content	-2207
itation	-2208
igure	-2209
ze	-2210
▁interact	-2211
▁society	-2212
▁fire	-2213
ume	-2214
▁built	-2215
▁total	-2216
▁separ	-2217
▁anc	-2218
▁taking	-2219
oll	-2220
▁sleep	-2221
▁action	-2222
▁win	-2223
▁longer	-2224
ections	-2225
▁structure	-2226
empt	-2227
son	-2228
▁recent	-2229
▁ut	-2230
▁company	-2231
▁Canad	-2232
erous	-2233
▁claim	-2234
▁six	-2235
my	-2236
ID	-2237
▁bur	-2238
▁rul	-2239
▁sense	-2240
▁clean	-2241
▁previous	-2242
apan	-2243
▁industry	-2244
▁Me	-2245
▁hab	-2246
▁Jew	-2247
hold	-2248
ript	-2249
▁training	-2250
yle	-2251
▁la	-2252
anced	-2253
het	-2254
astic	-2255
iment	-2256
▁According	-2257
▁service	-2258
uck	-2259
▁50	-2260
ising	-2261
estern	-2262
▁Par	-2263
ches	-2264
pro	-2265
▁heav	-2266
▁temperature	-2267
ively	-2268
▁caused	-2269
▁Pre	-2270
▁terms	-2271
▁hours	-2272
▁travel	-2273
▁inj	-2274
icles	-2275
▁talk	-2276
▁position	-2277
ES	-2278
▁behavior	-2279
▁deb	-2280
▁schools	-2281
▁diagn	-2282
▁heat	-2283
.)	-2284
▁rev	-2285
▁causes	-2286
201	-2287
▁Per	-2288
▁check	-2289
reng	-2290
▁matter	-2291
▁environmental	-2292
▁School	-2293
▁spread	-2294
▁Int	-2295
▁benefits	-2296
▁disord	-2297
▁13	-2298
▁mach	-2299
aily	-2300
▁meaning	-2301
▁sat	-2302
ulations	-2303
▁surv	-2304
▁break	-2305
▁Sec	-2306
▁II	-2307
▁thing	-2308
▁vari	-2309
▁Other	-2310
▁conc	-2311
▁Your	-2312
▁Qu	-2313
▁App	-2314
▁ste	-2315
▁contact	-2316
▁Instit	-2317
▁ce	-2318
lt	-2319
▁positive	-2320
▁provided	-2321
minist	-2322
AT	-2323
▁contain	-2324
lex	-2325
▁CO	-2326
fully	-2327
istance	-2328
▁lives	-2329
▁India	-2330
▁sex	-2331
▁true	-2332
▁bring	-2333
▁shown	-2334
▁easy	-2335
▁prec	-2336
▁safe	-2337
▁bacter	-2338
▁etc	-2339
ns	-2340
aff	-2341
▁designed	-2342
vey	-2343
ows	-2344
▁Will	-2345
▁Comp	-2346
▁accept	-2347
▁includes	-2348
▁From	-2349
ricult	-2350
hood	-2351
▁194	-2352
▁regular	-2353
ropri	-2354
istics	-2355
ronic	-2356
▁fru	-2357
▁Japan	-2358
AR	-2359
▁carbon	-2360
inary	-2361
▁wild	-2362
▁methods	-2363
▁Pres	-2364
ene	-2365
▁Of	-2366
▁variety	-2367
asc	-2368
▁deep	-2369
▁led	-2370
▁viol	-2371
▁fem	-2372
mb	-2373
▁vide	-2374
▁standard	-2375
▁simply	-2376
ederal	-2377
▁eat	-2378
rought	-2379
ister	-2380
▁...	-2381
▁review	-2382
atives	-2383
▁response	-2384
▁relative	-2385
▁Us	-2386
ched	-2387
▁3.	-2388
gar	-2389
▁target	-2390
▁average	-2391
ster	-2392
ufact	-2393
▁lif	-2394
ength	-2395
▁psych	-2396
ades	-2397
verse	-2398
aving	-2399
▁0	-2400
▁Not	-2401
▁greater	-2402
aries	-2403
abet	-2404
▁movement	-2405
▁origin	-2406
▁issue	-2407
▁Ed	-2408
rast	-2409
▁mechan	-2410
▁exc	-2411
▁earth	-2412
▁subst	-2413
▁King	-2414
rior	-2415
▁compl	-2416
▁events	-2417
▁programs	-2418
▁poll	-2419
imately	-2420
▁threat	-2421
▁culture	-2422
lands	-2423
▁Min	-2424
▁music	-2425
▁slow	-2426
▁scientists	-2427
ners	-2428
▁original	-2429
▁face	-2430
▁Part	-2431
▁sometimes	-2432
▁•	-2433
▁involved	-2434
▁compan	-2435
amed	-2436
know	-2437
dom	-2438
▁reported	-2439
▁love	-2440
rench	-2441
eration	-2442
▁written	-2443
aling	-2444
▁damage	-2445
▁Cons	-2446
duc	-2447
▁believe	-2448
▁helps	-2449
▁Rec	-2450
▁--	-2451
▁normal	-2452
▁micro	-2453
▁streng	-2454
▁sources	-2455
▁compet	-2456
▁identify	-2457
arily	-2458
▁remov	-2459
▁encoura	-2460
▁Science	-2461
▁outside	-2462
▁doing	-2463
▁respect	-2464
▁uses	-2465
▁electric	-2466
osition	-2467
ials	-2468
ban	-2469
▁,	-2470
▁Austral	-2471
▁compon	-2472
▁demon	-2473
▁foods	-2474
▁cust	-2475
icine	-2476
light	-2477
▁basic	-2478
▁bal	-2479
▁Har	-2480
▁i	-2481
▁camp	-2482
ender	-2483
▁emot	-2484
aches	-2485
▁ensure	-2486
ucle	-2487
▁forms	-2488
▁integ	-2489
elling	-2490
▁image	-2491
▁particularly	-2492
▁poor	-2493
▁Ag	-2494
▁virus	-2495
▁tax	-2496
oor	-2497
rand	-2498
▁lack	-2499
▁displ	-2500
uge	-2501
▁essential	-2502
new	-2503
▁produced	-2504
hel	-2505
oles	-2506
▁ple	-2507
▁China	-2508
▁generally	-2509
▁developing	-2510
▁page	-2511
ises	-2512
▁Gl	-2513
▁challeng	-2514
idge	-2515
▁feet	-2516
ctions	-2517
▁growing	-2518
▁ox	-2519
▁pict	-2520
▁emb	-2521
▁lat	-2522
▁harm	-2523
▁forest	-2524
:1	-2525
▁refer	-2526
▁extreme	-2527
▁Jan	-2528
umb	-2529
▁aff	-2530
▁teachers	-2531
▁attention	-2532
▁coun	-2533
▁late	-2534
▁appl	-2535
▁share	-2536
▁serious	-2537
▁Ke	-2538
▁webs	-2539
rie	-2540
▁force	-2541
▁Now	-2542
▁First	-2543
▁Our	-2544
▁ap	-2545
▁attempt	-2546
▁wood	-2547
rated	-2548
▁patient	-2549
ached	-2550
bor	-2551
osure	-2552
▁select	-2553
▁consist	-2554
▁network	-2555
ief	-2556
▁implement	-2557
issions	-2558
ops	-2559
▁During	-2560
▁squ	-2561
room	-2562
▁defin	-2563
cil	-2564
▁included	-2565
▁ir	-2566
▁correct	-2567
▁numbers	-2568
▁sust	-2569
▁probably	-2570
▁Bec	-2571
▁log	-2572
▁Sm	-2573
▁animal	-2574
▁Ac	-2575
▁attack	-2576
isions	-2577
ems	-2578
▁25	-2579
▁Bo	-2580
▁/	-2581
ervation	-2582
▁continue	-2583
▁aware	-2584
▁Count	-2585
ads	-2586
raft	-2587
▁manufact	-2588
▁magn	-2589
▁safety	-2590
▁draw	-2591
▁visit	-2592
▁ideas	-2593
▁independ	-2594
--	-2595
▁hyd	-2596
ribution	-2597
▁takes	-2598
▁El	-2599
▁doesn	-2600
▁print	-2601
▁kids	-2602
osing	-2603
▁Ju	-2604
▁colon	-2605
▁My	-2606
▁therefore	-2607
▁dou	-2608
▁Educ	-2609
fect	-2610
▁vacc	-2611
▁media	-2612
▁Child	-2613
▁Art	-2614
eed	-2615
▁series	-2616
▁Aug	-2617
▁night	-2618
ming	-2619
▁express	-2620
ana	-2621
▁getting	-2622
ography	-2623
imum	-2624
▁mess	-2625
set	-2626
IS	-2627
▁veget	-2628
▁policy	-2629
imin	-2630
▁prep	-2631
▁daily	-2632
ground	-2633
▁commit	-2634
Th	-2635
▁fa	-2636
▁easily	-2637
IN	-2638
▁0.	-2639
▁concent	-2640
ties	-2641
▁someone	-2642
▁communities	-2643
▁Tw	-2644
▁international	-2645
▁investig	-2646
▁financ	-2647
▁wall	-2648
▁thus	-2649
▁leaders	-2650
ha	-2651
▁looking	-2652
cies	-2653
▁bab	-2654
▁cover	-2655
irit	-2656
▁theory	-2657
▁sea	-2658
▁primary	-2659
ension	-2660
▁mother	-2661
oly	-2662
▁sil	-2663
▁cit	-2664
na	-2665
uth	-2666
asons	-2667
▁earl	-2668
▁performance	-2669
uary	-2670
▁ful	-2671
iot	-2672
ided	-2673
▁cross	-2674
vention	-2675
▁instead	-2676
▁mental	-2677
▁started	-2678
ino	-2679
erg	-2680
▁difference	-2681
▁estim	-2682
▁town	-2683
▁added	-2684
▁Since	-2685
rew	-2686
▁offer	-2687
▁traditional	-2688
▁Center	-2689
▁tree	-2690
▁warm	-2691
iency	-2692
▁ago	-2693
▁instit	-2694
▁div	-2695
▁allows	-2696
▁civil	-2697
▁tiss	-2698
▁diseases	-2699
▁appropri	-2700
▁multiple	-2701
▁vit	-2702
▁tools	-2703
ying	-2704
▁sold	-2705
▁progress	-2706
rs	-2707
▁Sch	-2708
▁eth	-2709
▁European	-2710
▁capt	-2711
erson	-2712
▁compared	-2713
haps	-2714
▁quite	-2715
▁dang	-2716
▁French	-2717
itude	-2718
▁tur	-2719
▁books	-2720
▁Reg	-2721
▁hy	-2722
cell	-2723
ancy	-2724
0,	-2725
▁Tra	-2726
▁eval	-2727
▁determine	-2728
▁Indian	-2729
▁inside	-2730
▁decre	-2731
▁achieve	-2732
ington	-2733
▁thous	-2734
ror	-2735
▁fav	-2736
▁nation	-2737
▁points	-2738
overy	-2739
ius	-2740
inks	-2741
▁humans	-2742
▁Even	-2743
▁eye	-2744
▁reflect	-2745
▁military	-2746
▁companies	-2747
▁scientific	-2748
▁larger	-2749
▁sou	-2750
▁established	-2751
▁reve	-2752
where	-2753
▁held	-2754
▁unique	-2755
rate	-2756
▁tend	-2757
▁Calif	-2758
▁trees	-2759
19	-2760
▁third	-2761
▁quickly	-2762
▁feed	-2763
ellow	-2764
▁additional	-2765
ims	-2766
▁infection	-2767
ounds	-2768
▁Apr	-2769
▁speak	-2770
anks	-2771
▁altern	-2772
12	-2773
▁acid	-2774
▁answer	-2775
▁critical	-2776
▁Char	-2777
▁rout	-2778
▁Oct	-2779
▁dry	-2780
▁immedi	-2781
▁severe	-2782
ille	-2783
▁negative	-2784
▁(200	-2785
▁Ant	-2786
▁Her	-2787
▁Jes	-2788
▁extra	-2789
ift	-2790
ls	-2791
▁directly	-2792
▁Department	-2793
▁active	-2794
elt	-2795
▁Lear	-2796
nov	-2797
▁although	-2798
▁highly	-2799
▁front	-2800
▁March	-2801
iers	-2802
▁West	-2803
olar	-2804
▁Africa	-2805
▁essay	-2806
abetes	-2807
▁40	-2808
▁document	-2809
term	-2810
▁broad	-2811
▁German	-2812
▁gard	-2813
icated	-2814
▁towards	-2815
▁analy	-2816
▁Institute	-2817
▁proced	-2818
▁birth	-2819
▁exercise	-2820
▁History	-2821
▁demonstr	-2822
▁behind	-2823
▁bit	-2824
▁write	-2825
▁aspect	-2826
▁tri	-2827
▁clin	-2828
useum	-2829
www	-2830
▁security	-2831
undred	-2832
joy	-2833
vant	-2834
▁Why	-2835
▁foot	-2836
▁purpose	-2837
AN	-2838
att	-2839
▁Californ	-2840
▁bad	-2841
▁solar	-2842
▁families	-2843
arr	-2844
▁walk	-2845
cean	-2846
▁prior	-2847
▁soon	-2848
▁custom	-2849
▁Russ	-2850
▁drink	-2851
ulate	-2852
▁labor	-2853
▁central	-2854
▁hor	-2855
▁har	-2856
▁Read	-2857
aly	-2858
▁Br	-2859
▁aud	-2860
▁host	-2861
▁useful	-2862
▁protein	-2863
▁obt	-2864
pe	-2865
iques	-2866
▁quant	-2867
▁June	-2868
▁supply	-2869
▁values	-2870
gency	-2871
▁leading	-2872
▁hot	-2873
▁Sept	-2874
▁teaching	-2875
omet	-2876
▁shall	-2877
▁doctor	-2878
▁fram	-2879
▁accur	-2880
▁stay	-2881
▁stra	-2882
▁Ret	-2883
▁http	-2884
isms	-2885
ils	-2886
▁International	-2887
▁African	-2888
ON	-2889
▁decl	-2890
▁Cor	-2891
itis	-2892
thern	-2893
den	-2894
yond	-2895
▁Mus	-2896
▁California	-2897
▁1,	-2898
▁Mon	-2899
▁went	-2900
▁Inc	-2901
▁whose	-2902
uries	-2903
▁length	-2904
We	-2905
mar	-2906
▁search	-2907
▁expect	-2908
▁section	-2909
yr	-2910
▁limited	-2911
▁situation	-2912
▁4.	-2913
ilos	-2914
▁beginning	-2915
▁capital	-2916
▁August	-2917
▁lost	-2918
▁features	-2919
▁influence	-2920
▁base	-2921
oes	-2922
OR	-2923
▁Sw	-2924
▁minutes	-2925
fl	-2926
▁impl	-2927
formation	-2928
▁Bar	-2929
▁Because	-2930
▁transport	-2931
▁elements	-2932
▁hands	-2933
▁strateg	-2934
▁24	-2935
▁April	-2936
rition	-2937
▁pack	-2938
▁Sim	-2939
▁*	-2940
hern	-2941
▁seems	-2942
▁video	-2943
▁software	-2944
▁contribut	-2945
▁card	-2946
▁workers	-2947
▁ang	-2948
▁contains	-2949
oring	-2950
cial	-2951
iber	-2952
▁Then	-2953
▁habit	-2954
▁mount	-2955
-3	-2956
itch	-2957
▁application	-2958
▁Dav	-2959
ription	-2960
▁block	-2961
iter	-2962
▁ones	-2963
hens	-2964
▁Gree	-2965
▁fight	-2966
▁ancient	-2967
pper	-2968
gn	-2969
▁requires	-2970
lection	-2971
▁exact	-2972
inct	-2973
rogen	-2974
bol	-2975
oming	-2976
▁news	-2977
-19	-2978
▁jud	-2979
▁dark	-2980
▁stri	-2981
▁importance	-2982
▁Mc	-2983
▁nucle	-2984
IC	-2985
istry	-2986
hest	-2987
▁mom	-2988
▁thinking	-2989
▁unc	-2990
▁jo	-2991
ologies	-2992
▁rates	-2993
”.	-2994
▁financial	-2995
▁wa	-2996
▁got	-2997
▁July	-2998
▁x	-2999
▁bacteria	-3000
uman	-3001
▁Also	-3002
▁enjoy	-3003
▁demand	-3004
▁interp	-3005
uk	-3006
▁brought	-3007
▁nearly	-3008
▁fast	-3009
▁received	-3010
fort	-3011
▁largest	-3012
imal	-3013
izations	-3014
▁protection	-3015
▁disp	-3016
▁Wash	-3017
▁else	-3018
▁administ	-3019
cks	-3020
▁Jesus	-3021
rote	-3022
▁weeks	-3023
▁described	-3024
equ	-3025
▁except	-3026
▁hundred	-3027
▁capac	-3028
▁William	-3029
▁images	-3030
▁adults	-3031
▁sn	-3032
ext	-3033
▁solution	-3034
▁mill	-3035
▁becomes	-3036
▁Fin	-3037
▁waste	-3038
coh	-3039
▁costs	-3040
▁ord	-3041
▁devices	-3042
ields	-3043
▁processes	-3044
wise	-3045
▁carry	-3046
orthern	-3047
▁stru	-3048
▁leaves	-3049
▁agree	-3050
▁sustain	-3051
▁River	-3052
▁lines	-3053
▁fit	-3054
▁places	-3055
ulated	-3056
▁veh	-3057
▁decision	-3058
▁agricult	-3059
▁Let	-3060
▁Serv	-3061
▁private	-3062
ipment	-3063
▁laws	-3064
▁located	-3065
▁ep	-3066
▁speed	-3067
▁respond	-3068
▁ult	-3069
▁north	-3070
▁communication	-3071
▁reach	-3072
▁table	-3073
▁game	-3074
▁mole	-3075
mission	-3076
▁adop	-3077
▁summer	-3078
▁install	-3079
In	-3080
ipl	-3081
entially	-3082
vest	-3083
iles	-3084
▁President	-3085
▁website	-3086
▁Over	-3087
▁testing	-3088
rag	-3089
▁England	-3090
▁Americans	-3091
▁cred	-3092
▁Press	-3093
▁tests	-3094
▁appropriate	-3095
▁typically	-3096
odies	-3097
▁sites	-3098
▁:	-3099
▁crop	-3100
▁season	-3101
used	-3102
▁remain	-3103
▁told	-3104
▁goal	-3105
▁cultural	-3106
▁Associ	-3107
▁establish	-3108
▁rapid	-3109
▁friends	-3110
▁property	-3111
▁adj	-3112
▁efforts	-3113
____	-3114
▁projects	-3115
▁rare	-3116
▁adapt	-3117
▁eyes	-3118
▁memory	-3119
see	-3120
rael	-3121
▁deal	-3122
uous	-3123
▁south	-3124
▁Canada	-3125
▁egg	-3126
idents	-3127
▁advant	-3128
▁father	-3129
▁remains	-3130
▁Day	-3131
▁born	-3132
▁mix	-3133
▁techniques	-3134
itable	-3135
sect	-3136
▁Trans	-3137
▁vict	-3138
come	-3139
▁Techn	-3140
▁accom	-3141
▁People	-3142
itect	-3143
▁himself	-3144
ford	-3145
▁Are	-3146
▁High	-3147
▁mention	-3148
▁Just	-3149
▁Another	-3150
ibrary	-3151
▁surround	-3152
▁teeth	-3153
IV	-3154
atur	-3155
▁gives	-3156
▁Ec	-3157
▁creating	-3158
▁beaut	-3159
AC	-3160
oke	-3161
▁Govern	-3162
EN	-3163
▁religious	-3164
▁stage	-3165
izes	-3166
ceed	-3167
iece	-3168
year	-3169
ondon	-3170
▁Christian	-3171
▁transl	-3172
80	-3173
▁citiz	-3174
▁Mod	-3175
▁Prog	-3176
▁Education	-3177
▁Inst	-3178
▁basis	-3179
inese	-3180
▁Each	-3181
▁applications	-3182
oud	-3183
estic	-3184
king	-3185
▁IS	-3186
bit	-3187
▁breat	-3188
med	-3189
▁king	-3190
▁died	-3191
▁cold	-3192
▁teacher	-3193
▁September	-3194
▁Cong	-3195
▁Use	-3196
ica	-3197
▁coast	-3198
▁examples	-3199
▁Dis	-3200
▁behavi	-3201
▁eating	-3202
▁expected	-3203
16	-3204
▁cool	-3205
resh	-3206
aul	-3207
▁Red	-3208
▁center	-3209
iar	-3210
▁monitor	-3211
▁cou	-3212
▁reasons	-3213
▁affected	-3214
ony	-3215
arian	-3216
It	-3217
▁pan	-3218
▁dead	-3219
▁saw	-3220
▁Church	-3221
cles	-3222
ogen	-3223
▁Bi	-3224
▁therapy	-3225
ham	-3226
▁Sur	-3227
▁practices	-3228
▁anti	-3229
▁sugar	-3230
▁final	-3231
▁room	-3232
▁construction	-3233
▁calcul	-3234
▁miles	-3235
▁Pol	-3236
life	-3237
▁January	-3238
cember	-3239
▁gradu	-3240
▁Great	-3241
▁responsible	-3242
▁cele	-3243
▁fuel	-3244
▁anything	-3245
▁Feb	-3246
▁web	-3247
▁son	-3248
head	-3249
ype	-3250
▁command	-3251
▁sequ	-3252
▁cam	-3253
▁hope	-3254
▁der	-3255
▁imag	-3256
▁Park	-3257
▁autom	-3258
▁depend	-3259
▁October	-3260
▁followed	-3261
▁Once	-3262
▁controll	-3263
-0	-3264
illing	-3265
ding	-3266
▁pen	-3267
ED	-3268
aught	-3269
▁everything	-3270
▁receive	-3271
▁digital	-3272
▁und	-3273
▁bott	-3274
15	-3275
back	-3276
▁device	-3277
▁Develop	-3278
▁trade	-3279
ico	-3280
▁older	-3281
▁cru	-3282
bur	-3283
▁connect	-3284
▁Journal	-3285
ellig	-3286
ama	-3287
uments	-3288
ari	-3289
mosp	-3290
▁hous	-3291
▁benefit	-3292
▁ice	-3293
▁objects	-3294
▁code	-3295
ribute	-3296
▁forces	-3297
rim	-3298
▁middle	-3299
▁recently	-3300
▁Commun	-3301
ira	-3302
▁Pat	-3303
eal	-3304
▁bul	-3305
load	-3306
cohol	-3307
▁fear	-3308
▁consequ	-3309
▁nothing	-3310
water	-3311
▁conflic	-3312
▁Washington	-3313
ovember	-3314
▁beyond	-3315
▁enh	-3316
▁legal	-3317
▁mid	-3318
strial	-3319
▁providing	-3320
▁City	-3321
▁ten	-3322
▁Israel	-3323
▁rock	-3324
apter	-3325
▁opportunity	-3326
▁screen	-3327
▁exposure	-3328
wor	-3329
▁hyp	-3330
▁Prof	-3331
▁models	-3332
▁economy	-3333
▁professional	-3334
▁weather	-3335
▁overall	-3336
▁yourself	-3337
▁diabetes	-3338
▁equipment	-3339
▁guid	-3340
ran	-3341
▁choose	-3342
40	-3343
▁asked	-3344
▁recommend	-3345
ought	-3346
▁Chinese	-3347
oe	-3348
▁currently	-3349
▁date	-3350
▁21	-3351
▁occurs	-3352
▁tit	-3353
▁rain	-3354
▁System	-3355
▁Water	-3356
unch	-3357
▁shape	-3358
▁degree	-3359
▁differences	-3360
iples	-3361
▁instru	-3362
uff	-3363
ula	-3364
▁pregn	-3365
▁federal	-3366
▁spirit	-3367
▁cra	-3368
▁via	-3369
▁sett	-3370
▁successful	-3371
▁alone	-3372
▁pet	-3373
time	-3374
▁Arch	-3375
isl	-3376
▁smaller	-3377
▁Black	-3378
▁predict	-3379
▁strength	-3380
▁rise	-3381
omb	-3382
IT	-3383
aid	-3384
▁won	-3385
▁beg	-3386
▁constit	-3387
▁wrote	-3388
sec	-3389
▁Mex	-3390
▁Vir	-3391
▁everyone	-3392
▁swe	-3393
▁commonly	-3394
▁organization	-3395
▁insp	-3396
ospital	-3397
▁Cur	-3398
rees	-3399
▁visual	-3400
▁birds	-3401
▁London	-3402
ests	-3403
enge	-3404
▁measures	-3405
▁allowed	-3406
);	-3407
▁trying	-3408
▁standards	-3409
25	-3410
▁woman	-3411
60	-3412
▁Under	-3413
ech	-3414
tery	-3415
▁location	-3416
▁rob	-3417
▁winter	-3418
anish	-3419
▁drugs	-3420
▁See	-3421
▁East	-3422
PA	-3423
vert	-3424
▁isn	-3425
▁earlier	-3426
amic	-3427
▁scale	-3428
▁categ	-3429
con	-3430
▁poly	-3431
▁completely	-3432
▁goes	-3433
icate	-3434
lin	-3435
▁max	-3436
▁Val	-3437
▁collection	-3438
▁December	-3439
▁Cour	-3440
▁effort	-3441
▁constant	-3442
▁steps	-3443
airs	-3444
▁virt	-3445
ensity	-3446
iest	-3447
▁Tod	-3448
▁rules	-3449
▁approx	-3450
▁Don	-3451
book	-3452
rick	-3453
▁named	-3454
▁former	-3455
▁193	-3456
ingu	-3457
▁display	-3458
wide	-3459
▁eight	-3460
▁interesting	-3461
▁exec	-3462
▁DNA	-3463
▁reduced	-3464
ste	-3465
▁purch	-3466
▁powerful	-3467
men	-3468
▁applied	-3469
▁genetic	-3470
▁perfect	-3471
▁placed	-3472
▁continued	-3473
▁joint	-3474
▁tox	-3475
▁billion	-3476
▁user	-3477
▁identified	-3478
▁electr	-3479
▁maintain	-3480
▁November	-3481
▁discovered	-3482
▁sch	-3483
ibly	-3484
▁historical	-3485
▁Law	-3486
▁leave	-3487
irection	-3488
▁occup	-3489
rig	-3490
co	-3491
ocr	-3492
▁General	-3493
aur	-3494
▁hon	-3495
▁ball	-3496
▁road	-3497
▁County	-3498
▁users	-3499
▁file	-3500
uit	-3501
▁member	-3502
▁track	-3503
▁majority	-3504
▁commerc	-3505
bre	-3506
▁sect	-3507
ara	-3508
▁enter	-3509
▁presence	-3510
▁Thus	-3511
▁fruit	-3512
ocks	-3513
▁neigh	-3514
▁gold	-3515
hemat	-3516
▁acqu	-3517
▁195	-3518
hy	-3519
▁assign	-3520
mitted	-3521
▁immune	-3522
▁mob	-3523
reet	-3524
▁coming	-3525
▁Coun	-3526
▁den	-3527
▁Aut	-3528
▁mis	-3529
▁Their	-3530
▁pow	-3531
rieved	-3532
▁rich	-3533
que	-3534
▁+	-3535
oration	-3536
▁compar	-3537
▁Prot	-3538
ords	-3539
▁Roman	-3540
iable	-3541
▁showed	-3542
▁context	-3543
▁rule	-3544
▁destro	-3545
alt	-3546
▁60	-3547
▁church	-3548
ruary	-3549
▁wond	-3550
known	-3551
▁planet	-3552
▁bra	-3553
enty	-3554
▁miss	-3555
edom	-3556
▁machine	-3557
▁status	-3558
▁formed	-3559
▁fair	-3560
▁Conf	-3561
▁acad	-3562
aled	-3563
▁properties	-3564
▁signs	-3565
▁teach	-3566
aters	-3567
▁philos	-3568
▁increases	-3569
▁limit	-3570
▁factor	-3571
▁gave	-3572
ogle	-3573
gery	-3574
ss	-3575
▁patterns	-3576
▁version	-3577
rab	-3578
cious	-3579
▁San	-3580
▁nutri	-3581
edia	-3582
▁situ	-3583
▁cook	-3584
▁House	-3585
▁mig	-3586
▁5.	-3587
21	-3588
▁fully	-3589
▁mouth	-3590
▁court	-3591
▁emp	-3592
ament	-3593
▁cry	-3594
craft	-3595
▁capacity	-3596
▁atmosp	-3597
▁illness	-3598
▁baby	-3599
▁assist	-3600
▁Every	-3601
▁Spec	-3602
▁choice	-3603
▁strugg	-3604
▁cities	-3605
ocol	-3606
▁Children	-3607
▁rat	-3608
▁asse	-3609
ev	-3610
▁female	-3611
AL	-3612
▁relatively	-3613
▁tissue	-3614
▁symbol	-3615
▁incor	-3616
▁dat	-3617
▁perhaps	-3618
▁Rel	-3619
▁emissions	-3620
can	-3621
off	-3622
▁belief	-3623
▁actions	-3624
▁Environment	-3625
bl	-3626
▁antib	-3627
▁Australia	-3628
▁promot	-3629
ees	-3630
▁efficient	-3631
▁Che	-3632
▁Ro	-3633
▁mut	-3634
iring	-3635
aint	-3636
▁Germany	-3637
▁gir	-3638
orge	-3639
aste	-3640
gypt	-3641
related	-3642
▁Society	-3643
▁evolution	-3644
phas	-3645
▁note	-3646
▁TH	-3647
▁UK	-3648
▁remember	-3649
▁unit	-3650
▁task	-3651
▁stories	-3652
▁root	-3653
▁vill	-3654
▁construct	-3655
▁illust	-3656
▁appears	-3657
▁anx	-3658
▁peace	-3659
more	-3660
▁components	-3661
▁staff	-3662
▁Public	-3663
hab	-3664
▁worth	-3665
▁effic	-3666
▁tou	-3667
encies	-3668
▁didn	-3669
▁educational	-3670
13	-3671
emy	-3672
▁existing	-3673
▁changed	-3674
▁wid	-3675
▁susp	-3676
rief	-3677
▁hair	-3678
▁stim	-3679
▁moment	-3680
▁experim	-3681
▁innov	-3682
▁architect	-3683
18	-3684
odes	-3685
▁#	-3686
▁Lat	-3687
▁moving	-3688
▁Green	-3689
era	-3690
resp	-3691
▁challenges	-3692
udd	-3693
▁functions	-3694
▁ast	-3695
▁offers	-3696
▁piece	-3697
▁consumption	-3698
▁forward	-3699
ygen	-3700
▁Phil	-3701
▁Today	-3702
▁price	-3703
▁Union	-3704
▁opportunities	-3705
▁Jewish	-3706
▁reports	-3707
▁equal	-3708
aign	-3709
inated	-3710
▁transfer	-3711
▁initi	-3712
▁February	-3713
▁ing	-3714
▁contract	-3715
▁Ang	-3716
▁Mic	-3717
iences	-3718
ternal	-3719
▁expand	-3720
▁style	-3721
▁worked	-3722
rehens	-3723
▁element	-3724
",	-3725
▁giving	-3726
▁pp	-3727
ux	-3728
▁direction	-3729
▁tele	-3730
▁Inter	-3731
▁balance	-3732
▁fresh	-3733
▁France	-3734
▁resistance	-3735
▁guide	-3736
▁star	-3737
....	-3738
▁instance	-3739
▁detect	-3740
abilities	-3741
lor	-3742
▁absor	-3743
▁distance	-3744
iful	-3745
▁weak	-3746
▁observed	-3747
▁findings	-3748
▁huge	-3749
▁evalu	-3750
▁Des	-3751
▁names	-3752
▁convers	-3753
▁repe	-3754
rome	-3755
rupt	-3756
▁foreign	-3757
▁significantly	-3758
▁Dec	-3759
▁collabor	-3760
▁vo	-3761
omas	-3762
▁alcohol	-3763
▁mal	-3764
▁map	-3765
▁mission	-3766
▁box	-3767
▁river	-3768
care	-3769
▁strategies	-3770
▁income	-3771
ero	-3772
▁wrong	-3773
▁garden	-3774
force	-3775
▁Students	-3776
14	-3777
▁Av	-3778
▁James	-3779
▁picture	-3780
house	-3781
▁Mat	-3782
▁blue	-3783
ifically	-3784
amb	-3785
▁Association	-3786
▁iron	-3787
iny	-3788
ky	-3789
▁plastic	-3790
▁options	-3791
▁Retrieved	-3792
▁breast	-3793
▁thousands	-3794
▁Pal	-3795
▁UN	-3796
▁Colle	-3797
▁Egypt	-3798
▁aim	-3799
ession	-3800
▁believed	-3801
▁defined	-3802
▁suggests	-3803
▁vision	-3804
▁qual	-3805
▁regions	-3806
icip	-3807
▁explain	-3808
▁disorder	-3809
EC	-3810
▁running	-3811
bed	-3812
▁planning	-3813
hors	-3814
▁citizens	-3815
▁Congress	-3816
▁survey	-3817
▁friend	-3818
▁Work	-3819
▁famous	-3820
▁util	-3821
▁native	-3822
▁fix	-3823
▁instruct	-3824
▁Bra	-3825
▁attract	-3826
22	-3827
▁carried	-3828
ching	-3829
▁feature	-3830
▁Therefore	-3831
”,	-3832
orage	-3833
▁assum	-3834
▁Rem	-3835
▁bone	-3836
▁divid	-3837
▁muscle	-3838
70	-3839
▁presented	-3840
▁office	-3841
▁gain	-3842
asion	-3843
▁spect	-3844
▁Mor	-3845
apers	-3846
▁treated	-3847
▁Social	-3848
▁clinical	-3849
▁details	-3850
▁watch	-3851
▁suppl	-3852
igen	-3853
▁eventually	-3854
▁bound	-3855
▁chance	-3856
▁male	-3857
ald	-3858
▁Western	-3859
▁heavy	-3860
▁Mary	-3861
▁novel	-3862
isation	-3863
▁extremely	-3864
▁Lord	-3865
▁insect	-3866
▁classroom	-3867
oma	-3868
rec	-3869
-4	-3870
▁Mich	-3871
▁seven	-3872
▁experiences	-3873
▁items	-3874
▁explore	-3875
▁fert	-3876
▁separate	-3877
▁highest	-3878
▁plans	-3879
▁excess	-3880
▁passed	-3881
▁technologies	-3882
▁Food	-3883
▁structures	-3884
▁rot	-3885
iox	-3886
▁celebr	-3887
▁Vol	-3888
▁liqu	-3889
▁goals	-3890
▁decades	-3891
▁requirements	-3892
▁organizations	-3893
▁mo	-3894
▁Plan	-3895
▁spring	-3896
▁favor	-3897
part	-3898
▁generation	-3899
pped	-3900
▁Rev	-3901
▁commercial	-3902
che	-3903
▁Bel	-3904
▁exhib	-3905
▁David	-3906
▁happen	-3907
DA	-3908
ographic	-3909
▁figure	-3910
▁easier	-3911
▁sac	-3912
▁apply	-3913
▁glass	-3914
pris	-3915
II	-3916
▁Ob	-3917
▁phen	-3918
ube	-3919
▁Sub	-3920
iant	-3921
▁Internet	-3922
uls	-3923
▁medicine	-3924
▁depression	-3925
iding	-3926
eces	-3927
wards	-3928
▁urban	-3929
▁Bu	-3930
▁immediately	-3931
ares	-3932
▁bank	-3933
asks	-3934
▁pick	-3935
▁milk	-3936
▁Human	-3937
ulum	-3938
▁journal	-3939
nes	-3940
▁board	-3941
▁industrial	-3942
lim	-3943
pan	-3944
▁sample	-3945
▁topic	-3946
▁conducted	-3947
▁dyn	-3948
▁Di	-3949
ken	-3950
▁learned	-3951
iance	-3952
OS	-3953
▁Net	-3954
▁emphas	-3955
ologist	-3956
▁Found	-3957
▁hom	-3958
.;	-3959
▁Using	-3960
3)	-3961
▁Council	-3962
17	-3963
uing	-3964
▁vary	-3965
▁intellig	-3966
▁reality	-3967
▁Japanese	-3968
▁save	-3969
▁cand	-3970
▁electricity	-3971
▁distribution	-3972
▁agg	-3973
▁resource	-3974
▁serve	-3975
▁contrast	-3976
▁faith	-3977
EM	-3978
▁actual	-3979
▁neu	-3980
▁slight	-3981
▁remove	-3982
▁literature	-3983
▁records	-3984
▁fig	-3985
zz	-3986
▁mer	-3987
▁performed	-3988
▁release	-3989
enth	-3990
90	-3991
▁challenge	-3992
▁populations	-3993
gal	-3994
▁introduced	-3995
▁oxygen	-3996
▁decisions	-3997
▁approximately	-3998
imens	-3999
▁Gra	-4000
▁Program	-4001
bal	-4002
▁truth	-4003
▁Two	-4004
▁letter	-4005
This	-4006
▁experiment	-4007
▁Further	-4008
change	-4009
▁recommended	-4010
ophy	-4011
▁bed	-4012
▁connected	-4013
▁legisl	-4014
▁president	-4015
▁perspect	-4016
▁bodies	-4017
▁22	-4018
▁cycle	-4019
ida	-4020
▁speech	-4021
▁College	-4022
▁temperatures	-4023
▁kid	-4024
▁Sam	-4025
▁metal	-4026
▁alternative	-4027
▁graph	-4028
▁violence	-4029
▁plat	-4030
tical	-4031
▁ves	-4032
▁(201	-4033
erate	-4034
▁nutrition	-4035
cast	-4036
▁aspects	-4037
▁Web	-4038
antic	-4039
▁becoming	-4040
▁estimated	-4041
▁Rober	-4042
▁moved	-4043
▁stream	-4044
ET	-4045
▁gene	-4046
▁mag	-4047
▁household	-4048
▁Phys	-4049
▁Organ	-4050
AM	-4051
St	-4052
▁Paul	-4053
▁sexual	-4054
▁Air	-4055
▁organic	-4056
▁disorders	-4057
▁widely	-4058
iate	-4059
▁combination	-4060
▁chronic	-4061
▁released	-4062
▁party	-4063
▁causing	-4064
ously	-4065
▁flood	-4066
▁solutions	-4067
▁desp	-4068
▁destroy	-4069
▁opin	-4070
▁George	-4071
▁ign	-4072
▁Test	-4073
▁resulting	-4074
▁trust	-4075
▁operations	-4076
▁Som	-4077
▁failure	-4078
▁nuclear	-4079
▁vitamin	-4080
Wh	-4081
▁numerous	-4082
▁23	-4083
▁participants	-4084
▁buy	-4085
▁independent	-4086
porary	-4087
tee	-4088
othes	-4089
▁college	-4090
▁Tur	-4091
clus	-4092
▁characteristics	-4093
▁store	-4094
ructure	-4095
▁film	-4096
▁190	-4097
raw	-4098
ulf	-4099
char	-4100
roph	-4101
▁shap	-4102
▁notes	-4103
▁buildings	-4104
▁reducing	-4105
▁frequently	-4106
uses	-4107
▁statement	-4108
rant	-4109
▁thr	-4110
▁fields	-4111
▁homes	-4112
ressive	-4113
▁bottom	-4114
ager	-4115
ped	-4116
▁NAS	-4117
▁wanted	-4118
▁Def	-4119
▁changing	-4120
▁assessment	-4121
▁killed	-4122
▁186	-4123
▁esc	-4124
▁Greek	-4125
▁doub	-4126
unction	-4127
▁dogs	-4128
▁clearly	-4129
icial	-4130
raction	-4131
elines	-4132
5%	-4133
do	-4134
cont	-4135
▁Hel	-4136
▁minor	-4137
▁Fore	-4138
ologists	-4139
▁Its	-4140
▁risks	-4141
▁policies	-4142
▁Development	-4143
▁univers	-4144
▁prepar	-4145
▁email	-4146
▁Government	-4147
▁Both	-4148
PS	-4149
▁reference	-4150
met	-4151
tered	-4152
▁Tex	-4153
▁starting	-4154
▁discussion	-4155
▁burn	-4156
▁Mark	-4157
▁80	-4158
▁About	-4159
▁surgery	-4160
▁drop	-4161
▁relationships	-4162
▁drive	-4163
ollow	-4164
ognitive	-4165
ij	-4166
▁counter	-4167
▁ded	-4168
▁setting	-4169
▁initial	-4170
▁inflamm	-4171
▁internal	-4172
▁tour	-4173
▁covered	-4174
rog	-4175
▁dri	-4176
order	-4177
▁trig	-4178
▁Off	-4179
▁prefer	-4180
▁upper	-4181
▁ST	-4182
cular	-4183
works	-4184
ortion	-4185
▁connection	-4186
▁campaign	-4187
ias	-4188
▁sav	-4189
▁Like	-4190
Ch	-4191
▁lived	-4192
▁authors	-4193
▁exactly	-4194
▁layer	-4195
▁distinct	-4196
▁isol	-4197
▁tooth	-4198
▁ready	-4199
hetic	-4200
rosc	-4201
anging	-4202
▁technique	-4203
▁ocean	-4204
▁Spanish	-4205
▁gets	-4206
essor	-4207
▁anyone	-4208
rest	-4209
▁Republic	-4210
ingly	-4211
▁injury	-4212
▁Project	-4213
▁Sy	-4214
▁territ	-4215
▁appe	-4216
erences	-4217
▁arm	-4218
▁thick	-4219
▁Mal	-4220
olved	-4221
▁feeling	-4222
rm	-4223
▁2010	-4224
▁Court	-4225
▁La	-4226
anch	-4227
2)	-4228
ilit	-4229
-5	-4230
▁Ev	-4231
▁noted	-4232
▁partners	-4233
▁referred	-4234
atically	-4235
onds	-4236
amental	-4237
▁turned	-4238
iveness	-4239
▁anxiety	-4240
▁Cath	-4241
olid	-4242
▁hear	-4243
ault	-4244
▁replace	-4245
▁seed	-4246
▁radio	-4247
urance	-4248
ii	-4249
▁Dem	-4250
roup	-4251
▁horm	-4252
▁Museum	-4253
▁mostly	-4254
▁removed	-4255
▁involves	-4256
ocal	-4257
▁upd	-4258
▁tim	-4259
key	-4260
▁vessel	-4261
▁cris	-4262
▁creation	-4263
▁Rich	-4264
▁pi	-4265
▁load	-4266
▁storage	-4267
SA	-4268
erved	-4269
ieties	-4270
▁freedom	-4271
▁advanced	-4272
▁degrees	-4273
▁Mr	-4274
▁seeds	-4275
▁message	-4276
rows	-4277
▁infections	-4278
200	-4279
▁2,	-4280
▁happens	-4281
▁trend	-4282
▁volume	-4283
▁helped	-4284
▁regarding	-4285
▁background	-4286
▁properly	-4287
▁Sun	-4288
▁circum	-4289
▁trib	-4290
▁pal	-4291
▁sand	-4292
78	-4293
▁physic	-4294
▁incorpor	-4295
▁principles	-4296
▁units	-4297
▁conv	-4298
▁confirm	-4299
▁annual	-4300
▁encourage	-4301
▁dangerous	-4302
▁finding	-4303
▁classes	-4304
▁core	-4305
▁fine	-4306
▁option	-4307
▁religion	-4308
▁god	-4309
▁trou	-4310
▁experts	-4311
▁Bas	-4312
▁6.	-4313
▁battle	-4314
▁games	-4315
▁tum	-4316
▁whom	-4317
▁genes	-4318
riculum	-4319
▁output	-4320
▁leads	-4321
▁Second	-4322
▁vul	-4323
▁diss	-4324
osystem	-4325
▁expression	-4326
ios	-4327
▁Ben	-4328
▁scen	-4329
▁reprodu	-4330
▁advantage	-4331
▁exposed	-4332
▁Hen	-4333
uration	-4334
▁Step	-4335
▁Mount	-4336
▁profession	-4337
▁adjust	-4338
lick	-4339
ndrome	-4340
▁die	-4341
▁NASA	-4342
ortunately	-4343
▁academic	-4344
▁nor	-4345
▁excell	-4346
▁comprehens	-4347
▁race	-4348
▁dram	-4349
▁math	-4350
▁promote	-4351
och	-4352
▁pric	-4353
▁emotional	-4354
▁mentioned	-4355
▁conflict	-4356
▁mathemat	-4357
▁Port	-4358
oyal	-4359
▁unf	-4360
▁reb	-4361
▁radiation	-4362
▁elimin	-4363
▁relevant	-4364
ping	-4365
▁transform	-4366
▁synt	-4367
▁meeting	-4368
▁amounts	-4369
▁belong	-4370
▁solid	-4371
▁defic	-4372
▁determined	-4373
▁experienced	-4374
▁grade	-4375
ST	-4376
urt	-4377
▁involve	-4378
▁linked	-4379
ander	-4380
▁White	-4381
▁kept	-4382
ception	-4383
▁Post	-4384
▁please	-4385
▁click	-4386
▁Get	-4387
ressed	-4388
▁landsc	-4389
▁lung	-4390
▁gender	-4391
▁depending	-4392
riage	-4393
▁operation	-4394
orial	-4395
▁spot	-4396
▁2011	-4397
▁jour	-4398
▁round	-4399
▁2012	-4400
▁meat	-4401
▁previously	-4402
▁Mexico	-4403
▁heard	-4404
▁influen	-4405
itz	-4406
▁expert	-4407
▁Isl	-4408
▁Met	-4409
RE	-4410
▁Ser	-4411
▁helping	-4412
▁Elect	-4413
▁Scient	-4414
▁Class	-4415
▁alg	-4416
▁HIV	-4417
▁vot	-4418
ishing	-4419
▁Cle	-4420
▁grant	-4421
▁reaction	-4422
mark	-4423
▁pollution	-4424
ago	-4425
▁Je	-4426
▁processing	-4427
▁sort	-4428
▁calc	-4429
▁farmers	-4430
▁manage	-4431
▁effectively	-4432
▁Bro	-4433
stitution	-4434
ategy	-4435
▁definition	-4436
inter	-4437
▁motor	-4438
▁interested	-4439
▁island	-4440
▁Thomas	-4441
▁presc	-4442
ya	-4443
▁interpret	-4444
▁grass	-4445
oking	-4446
▁describe	-4447
▁eggs	-4448
▁Make	-4449
▁beautiful	-4450
▁(199	-4451
▁wealth	-4452
▁saying	-4453
▁Data	-4454
▁Central	-4455
rum	-4456
ributed	-4457
mat	-4458
▁Treat	-4459
▁spent	-4460
▁coal	-4461
▁Fre	-4462
▁served	-4463
▁concerns	-4464
▁phase	-4465
▁strategy	-4466
▁90	-4467
▁Mac	-4468
▁improved	-4469
▁Asia	-4470
▁mist	-4471
▁Ref	-4472
uted	-4473
▁atmosphere	-4474
▁ship	-4475
▁manufacture	-4476
cers	-4477
umn	-4478
▁Ber	-4479
▁Texas	-4480
▁Old	-4481
▁meant	-4482
ded	-4483
▁prepared	-4484
▁sem	-4485
▁concepts	-4486
▁concern	-4487
wood	-4488
za	-4489
▁manner	-4490
zing	-4491
▁10.	-4492
▁southern	-4493
ta	-4494
▁input	-4495
▁comfort	-4496
▁conservation	-4497
place	-4498
▁pip	-4499
▁decided	-4500
▁Up	-4501
▁mel	-4502
▁aid	-4503
onic	-4504
▁datab	-4505
▁obvious	-4506
▁languages	-4507
▁official	-4508
▁west	-4509
ams	-4510
▁pages	-4511
24	-4512
ek	-4513
▁Sal	-4514
▁pun	-4515
▁square	-4516
▁kill	-4517
lease	-4518
▁Sen	-4519
▁AD	-4520
▁awareness	-4521
▁consult	-4522
isher	-4523
▁26	-4524
▁Op	-4525
▁professor	-4526
▁hearing	-4527
rete	-4528
iverse	-4529
-8	-4530
▁28	-4531
▁Mars	-4532
▁articles	-4533
▁northern	-4534
▁mort	-4535
aughter	-4536
▁Island	-4537
▁signal	-4538
▁efficiency	-4539
ifying	-4540
▁Service	-4541
▁conver	-4542
▁Through	-4543
▁conclud	-4544
rep	-4545
▁cast	-4546
▁vegetables	-4547
▁seek	-4548
▁volunt	-4549
well	-4550
▁procedure	-4551
▁bud	-4552
▁looks	-4553
▁Learning	-4554
ria	-4555
ball	-4556
▁Dist	-4557
▁invent	-4558
▁hour	-4559
▁Addition	-4560
▁cere	-4561
23	-4562
ules	-4563
▁Supp	-4564
board	-4565
▁pret	-4566
▁completed	-4567
▁70	-4568
▁Acad	-4569
▁platform	-4570
acing	-4571
▁appoint	-4572
iling	-4573
▁Mart	-4574
▁Miss	-4575
▁song	-4576
▁chemicals	-4577
▁Jews	-4578
alled	-4579
▁Sk	-4580
▁clos	-4581
▁secret	-4582
▁institutions	-4583
onomic	-4584
▁diagnosis	-4585
▁Energy	-4586
▁contribute	-4587
▁mainly	-4588
▁supported	-4589
▁frequency	-4590
▁pieces	-4591
▁corresp	-4592
▁owners	-4593
▁motiv	-4594
▁samples	-4595
▁hop	-4596
▁https	-4597
▁charge	-4598
itors	-4599
clusion	-4600
▁Disc	-4601
▁engineering	-4602
▁yellow	-4603
berg	-4604
▁vaccine	-4605
▁Hol	-4606
▁lesson	-4607
vision	-4608
▁27	-4609
▁purposes	-4610
su	-4611
rates	-4612
uable	-4613
▁reached	-4614
▁Where	-4615
▁Medical	-4616
nic	-4617
standing	-4618
▁discover	-4619
▁nav	-4620
▁fort	-4621
▁continues	-4622
▁shared	-4623
▁formation	-4624
▁hospital	-4625
▁sustainable	-4626
▁Civil	-4627
aker	-4628
pat	-4629
▁reduction	-4630
▁Life	-4631
rence	-4632
▁toxic	-4633
bi	-4634
umin	-4635
▁recorded	-4636
▁authority	-4637
▁fib	-4638
▁Direct	-4639
▁pul	-4640
ormal	-4641
astern	-4642
▁storm	-4643
▁extensive	-4644
▁flex	-4645
▁brother	-4646
CC	-4647
rations	-4648
▁Britain	-4649
▁Jer	-4650
▁offered	-4651
▁ban	-4652
▁notice	-4653
▁2013	-4654
▁Lou	-4655
▁dro	-4656
▁Ir	-4657
▁Any	-4658
acific	-4659
▁revolution	-4660
OT	-4661
▁ideal	-4662
▁Women	-4663
ounced	-4664
tes	-4665
▁Space	-4666
▁vulner	-4667
▁practical	-4668
istan	-4669
▁News	-4670
comes	-4671
akers	-4672
▁situations	-4673
4)	-4674
▁treatments	-4675
▁facts	-4676
▁lib	-4677
▁station	-4678
▁proposed	-4679
▁lic	-4680
▁primarily	-4681
▁wet	-4682
▁allowing	-4683
-6	-4684
acters	-4685
▁sufficient	-4686
▁focused	-4687
▁jobs	-4688
▁begins	-4689
eters	-4690
▁intended	-4691
otic	-4692
▁electrical	-4693
▁hit	-4694
▁operating	-4695
▁height	-4696
ears	-4697
▁Such	-4698
▁Bur	-4699
▁straight	-4700
▁wonder	-4701
▁Arab	-4702
▁spend	-4703
▁youth	-4704
▁drinking	-4705
▁Cam	-4706
▁Dise	-4707
▁tasks	-4708
▁remained	-4709
▁sector	-4710
des	-4711
▁master	-4712
▁combined	-4713
▁taught	-4714
▁Robert	-4715
ishes	-4716
▁Out	-4717
▁consequences	-4718
▁technical	-4719
▁(18	-4720
eline	-4721
▁liquid	-4722
osite	-4723
espite	-4724
ags	-4725
▁Virgin	-4726
AD	-4727
▁phenomen	-4728
alle	-4729
▁189	-4730
▁finally	-4731
▁specifically	-4732
▁Technology	-4733
▁AN	-4734
▁vital	-4735
▁Exam	-4736
▁renew	-4737
▁coord	-4738
▁kinds	-4739
▁largely	-4740
▁Instead	-4741
ixt	-4742
▁Information	-4743
▁forced	-4744
▁Atl	-4745
▁advance	-4746
▁nutrients	-4747
▁2009	-4748
▁crucial	-4749
▁subjects	-4750
▁collected	-4751
▁showing	-4752
▁muscles	-4753
▁Expl	-4754
▁Mil	-4755
▁career	-4756
▁waters	-4757
▁indicate	-4758
olute	-4759
▁credit	-4760
aturally	-4761
▁certainly	-4762
▁hyper	-4763
inger	-4764
▁Book	-4765
ses	-4766
▁faster	-4767
rapy	-4768
ague	-4769
▁existence	-4770
5).	-4771
▁brief	-4772
oper	-4773
rier	-4774
▁double	-4775
iated	-4776
▁flowers	-4777
▁identity	-4778
▁bird	-4779
lig	-4780
▁bright	-4781
tion	-4782
▁digest	-4783
▁goods	-4784
▁raised	-4785
leg	-4786
▁salt	-4787
▁perman	-4788
▁kn	-4789
5)	-4790
eria	-4791
▁keeping	-4792
▁occurred	-4793
▁Before	-4794
▁impacts	-4795
▁Franc	-4796
EL	-4797
▁army	-4798
▁attacks	-4799
▁ecosystem	-4800
▁Fam	-4801
▁gar	-4802
▁Bay	-4803
▁extent	-4804
].	-4805
inent	-4806
▁familiar	-4807
▁centuries	-4808
inn	-4809
▁Mass	-4810
going	-4811
ulating	-4812
▁letters	-4813
oo	-4814
▁lov	-4815
▁Well	-4816
▁morning	-4817
▁Latin	-4818
▁metab	-4819
▁Bet	-4820
▁advice	-4821
ado	-4822
▁Stand	-4823
inding	-4824
▁emergency	-4825
▁controlled	-4826
▁responsibility	-4827
vis	-4828
▁stone	-4829
AP	-4830
▁characters	-4831
▁particles	-4832
▁syn	-4833
▁doll	-4834
4).	-4835
arrow	-4836
▁settle	-4837
▁moist	-4838
▁detailed	-4839
▁Those	-4840
▁foss	-4841
▁liver	-4842
ework	-4843
▁Army	-4844
▁east	-4845
gra	-4846
hi	-4847
roke	-4848
▁Commission	-4849
▁despite	-4850
ipped	-4851
▁recy	-4852
▁quar	-4853
▁Psych	-4854
▁Fe	-4855
gl	-4856
osen	-4857
rich	-4858
▁wife	-4859
▁felt	-4860
▁vast	-4861
▁maximum	-4862
▁Ste	-4863
▁refers	-4864
▁park	-4865
▁topics	-4866
▁Sum	-4867
▁leader	-4868
▁Medicine	-4869
▁monitoring	-4870
▁Know	-4871
omin	-4872
rian	-4873
7).	-4874
▁2008	-4875
RI	-4876
▁Flor	-4877
▁Common	-4878
▁cert	-4879
▁Histor	-4880
west	-4881
▁fundamental	-4882
roc	-4883
unk	-4884
ossible	-4885
▁aren	-4886
▁grand	-4887
▁excellent	-4888
▁played	-4889
enses	-4890
▁Jud	-4891
atric	-4892
▁periods	-4893
▁motion	-4894
▁proteins	-4895
26	-4896
▁shar	-4897
osc	-4898
gment	-4899
▁bill	-4900
▁haz	-4901
▁Despite	-4902
▁clim	-4903
▁component	-4904
▁biological	-4905
▁Que	-4906
▁nerv	-4907
▁comment	-4908
▁affects	-4909
▁links	-4910
olars	-4911
▁suggested	-4912
▁Jose	-4913
▁onto	-4914
▁measured	-4915
ancing	-4916
▁roll	-4917
▁vehicle	-4918
rastructure	-4919
▁resist	-4920
▁sounds	-4921
▁sche	-4922
▁typical	-4923
▁Cop	-4924
▁sin	-4925
▁voice	-4926
▁potentially	-4927
ras	-4928
▁THE	-4929
▁Yet	-4930
▁Sl	-4931
▁Nor	-4932
▁fif	-4933
nel	-4934
▁Smith	-4935
▁surrounding	-4936
▁Google	-4937
▁police	-4938
▁divided	-4939
▁agricultural	-4940
▁tested	-4941
▁oral	-4942
▁tro	-4943
▁external	-4944
▁slightly	-4945
▁blog	-4946
▁explained	-4947
ails	-4948
ificial	-4949
▁immig	-4950
▁explains	-4951
▁explan	-4952
▁ju	-4953
omy	-4954
anges	-4955
RO	-4956
igenous	-4957
ael	-4958
▁Wind	-4959
▁nations	-4960
▁accurate	-4961
▁facilities	-4962
▁Mem	-4963
▁crisis	-4964
▁cognitive	-4965
▁investment	-4966
li	-4967
▁thin	-4968
▁instruction	-4969
▁kil	-4970
▁7.	-4971
▁Studies	-4972
▁increasingly	-4973
othing	-4974
▁diam	-4975
▁abuse	-4976
field	-4977
roid	-4978
▁happened	-4979
▁vent	-4980
aks	-4981
▁send	-4982
▁crops	-4983
▁Land	-4984
BC	-4985
itness	-4986
▁snow	-4987
▁helpful	-4988
▁interests	-4989
▁otherwise	-4990
band	-4991
▁perspective	-4992
verty	-4993
▁immun	-4994
▁(3	-4995
▁neut	-4996
▁Lake	-4997
▁Budd	-4998
▁smart	-4999
resents	-5000
▁poverty	-5001
▁Bible	-5002
▁domin	-5003
▁nit	-5004
▁rail	-5005
▁Russia	-5006
▁chann	-5007
▁Pacific	-5008
▁BC	-5009
▁roots	-5010
▁thoughts	-5011
▁rural	-5012
▁paint	-5013
▁trial	-5014
▁follows	-5015
▁consists	-5016
▁mere	-5017
▁persons	-5018
ht	-5019
▁CD	-5020
iced	-5021
▁girls	-5022
▁<	-5023
▁walls	-5024
down	-5025
▁flat	-5026
▁interview	-5027
▁sen	-5028
▁fluid	-5029
▁Foundation	-5030
▁curriculum	-5031
▁fruits	-5032
▁greatest	-5033
▁floor	-5034
▁valid	-5035
▁returned	-5036
▁depends	-5037
ION	-5038
▁deliver	-5039
▁subsequ	-5040
stood	-5041
▁latest	-5042
oviet	-5043
▁apparent	-5044
▁Del	-5045
▁Ham	-5046
ville	-5047
▁Tem	-5048
▁instrument	-5049
▁Middle	-5050
▁wel	-5051
point	-5052
▁studied	-5053
▁Charles	-5054
▁playing	-5055
▁Environmental	-5056
6).	-5057
▁stem	-5058
▁phone	-5059
▁lose	-5060
▁request	-5061
oughly	-5062
28	-5063
▁bow	-5064
▁substant	-5065
osa	-5066
▁obtained	-5067
▁Professor	-5068
▁format	-5069
▁>	-5070
▁protected	-5071
▁Good	-5072
▁looked	-5073
ensus	-5074
▁Henry	-5075
▁Sou	-5076
▁prices	-5077
▁grown	-5078
▁lik	-5079
▁satis	-5080
▁represents	-5081
celer	-5082
▁dial	-5083
▁tips	-5084
▁Inf	-5085
▁Saf	-5086
athy	-5087
▁depth	-5088
▁188	-5089
which	-5090
utive	-5091
▁recognized	-5092
name	-5093
▁elev	-5094
lar	-5095
▁Pub	-5096
▁Figure	-5097
▁habitat	-5098
itage	-5099
▁harvest	-5100
▁Catholic	-5101
▁pray	-5102
DF	-5103
▁Nav	-5104
▁officials	-5105
▁disapp	-5106
burg	-5107
▁spl	-5108
▁Mont	-5109
▁Sea	-5110
▁convent	-5111
▁surpris	-5112
BN	-5113
▁cardi	-5114
▁files	-5115
▁pil	-5116
▁stars	-5117
▁western	-5118
▁Engine	-5119
▁concerned	-5120
▁approaches	-5121
▁pregnancy	-5122
what	-5123
▁introduction	-5124
▁employees	-5125
▁band	-5126
col	-5127
▁Carol	-5128
stronom	-5129
▁argument	-5130
ye	-5131
active	-5132
▁Russian	-5133
▁du	-5134
▁closely	-5135
▁deaths	-5136
▁rapidly	-5137
▁medium	-5138
▁prison	-5139
▁governments	-5140
▁dut	-5141
van	-5142
▁Wild	-5143
▁rand	-5144
zy	-5145
▁tried	-5146
▁containing	-5147
▁stock	-5148
mp	-5149
▁km	-5150
chers	-5151
▁fle	-5152
asure	-5153
▁neighbor	-5154
▁diversity	-5155
▁weap	-5156
▁continuous	-5157
▁train	-5158
atever	-5159
▁enhance	-5160
▁Ox	-5161
▁medications	-5162
29	-5163
▁wear	-5164
▁hundreds	-5165
▁accompl	-5166
▁concentration	-5167
▁Kore	-5168
▁Bre	-5169
▁sides	-5170
▁extract	-5171
▁visible	-5172
▁firm	-5173
1)	-5174
fall	-5175
▁valuable	-5176
▁Id	-5177
▁director	-5178
▁driving	-5179
75	-5180
▁san	-5181
▁internet	-5182
▁outcomes	-5183
▁claims	-5184
▁principle	-5185
ascular	-5186
cript	-5187
▁paid	-5188
rolog	-5189
▁random	-5190
▁feelings	-5191
▁therm	-5192
▁od	-5193
▁simpl	-5194
▁frag	-5195
▁wire	-5196
▁justice	-5197
▁conscious	-5198
yright	-5199
▁residents	-5200
▁appearance	-5201
▁param	-5202
▁Soviet	-5203
▁minimum	-5204
▁title	-5205
▁decrease	-5206
▁pu	-5207
▁correspond	-5208
’.	-5209
▁advoc	-5210
▁moral	-5211
umber	-5212
▁secure	-5213
▁distingu	-5214
▁syndrome	-5215
▁Emp	-5216
▁pig	-5217
ship	-5218
▁Prov	-5219
▁reform	-5220
▁selected	-5221
▁suffering	-5222
tenance	-5223
?”	-5224
ooth	-5225
▁IN	-5226
▁Keep	-5227
▁discussed	-5228
▁appeared	-5229
icks	-5230
▁satell	-5231
▁rein	-5232
ellect	-5233
win	-5234
MS	-5235
▁ages	-5236
▁soldiers	-5237
▁procedures	-5238
▁Vis	-5239
right	-5240
TS	-5241
▁domestic	-5242
▁assemb	-5243
indu	-5244
▁Have	-5245
▁shel	-5246
▁views	-5247
▁movements	-5248
▁regularly	-5249
racy	-5250
▁Control	-5251
▁Phot	-5252
▁contem	-5253
▁couple	-5254
▁Att	-5255
▁purs	-5256
▁Power	-5257
▁Review	-5258
▁naturally	-5259
ario	-5260
CO	-5261
▁gun	-5262
▁sets	-5263
▁Nature	-5264
anes	-5265
▁adding	-5266
▁infrastructure	-5267
▁sed	-5268
lers	-5269
▁Exper	-5270
ulin	-5271
▁191	-5272
▁chief	-5273
▁leadership	-5274
▁Micro	-5275
▁circumst	-5276
▁Follow	-5277
▁stated	-5278
▁alt	-5279
▁inflammation	-5280
▁businesses	-5281
▁portion	-5282
▁2000	-5283
▁corpor	-5284
▁pump	-5285
ING	-5286
▁Alex	-5287
▁behaviour	-5288
▁Company	-5289
▁Only	-5290
500	-5291
▁intelligence	-5292
mas	-5293
▁recovery	-5294
mic	-5295
bing	-5296
▁stret	-5297
▁Wil	-5298
▁Div	-5299
▁lessons	-5300
ota	-5301
▁spiritual	-5302
▁expensive	-5303
▁Please	-5304
▁PC	-5305
oster	-5306
▁ingred	-5307
tr	-5308
▁push	-5309
▁steel	-5310
▁leaving	-5311
▁prevention	-5312
▁horse	-5313
6)	-5314
▁rub	-5315
▁mobile	-5316
la	-5317
▁poet	-5318
state	-5319
iled	-5320
▁Management	-5321
▁colors	-5322
rants	-5323
▁funding	-5324
100	-5325
▁sick	-5326
▁healthcare	-5327
▁knew	-5328
▁entirely	-5329
7)	-5330
▁hunt	-5331
▁Add	-5332
▁Writ	-5333
▁sensitive	-5334
stream	-5335
anguage	-5336
▁Who	-5337
▁Group	-5338
US	-5339
▁absolute	-5340
2).	-5341
▁Ap	-5342
▁inches	-5343
▁experiments	-5344
▁2014	-5345
▁Care	-5346
▁Rad	-5347
▁allerg	-5348
▁narr	-5349
▁29	-5350
esity	-5351
▁substance	-5352
▁calls	-5353
▁Bat	-5354
▁Finally	-5355
uke	-5356
▁infected	-5357
asp	-5358
▁wave	-5359
▁Library	-5360
free	-5361
icit	-5362
being	-5363
▁Note	-5364
▁Mo	-5365
▁Det	-5366
▁Long	-5367
▁prem	-5368
▁Ext	-5369
▁nurs	-5370
▁raise	-5371
▁pure	-5372
cling	-5373
▁Design	-5374
dden	-5375
▁suitable	-5376
bert	-5377
▁capable	-5378
▁parties	-5379
▁mit	-5380
▁stages	-5381
▁talking	-5382
▁Ter	-5383
olf	-5384
ffee	-5385
orith	-5386
▁Early	-5387
ocratic	-5388
▁AI	-5389
▁suffer	-5390
▁ble	-5391
▁Pers	-5392
iology	-5393
idden	-5394
▁traffic	-5395
▁fertil	-5396
▁Ann	-5397
▁exchange	-5398
▁lifest	-5399
ga	-5400
▁Global	-5401
oral	-5402
teries	-5403
alse	-5404
pping	-5405
▁agriculture	-5406
▁massive	-5407
▁Louis	-5408
▁recon	-5409
▁closed	-5410
▁discovery	-5411
▁minim	-5412
▁Ess	-5413
▁Federal	-5414
▁antibiot	-5415
inet	-5416
▁Whe	-5417
alysis	-5418
▁diverse	-5419
▁facilit	-5420
osal	-5421
ava	-5422
▁moon	-5423
▁pref	-5424
▁figures	-5425
▁Ca	-5426
asive	-5427
▁adequ	-5428
45	-5429
▁vehicles	-5430
▁recognize	-5431
▁millions	-5432
▁precise	-5433
▁medication	-5434
▁Florida	-5435
▁intake	-5436
othe	-5437
ston	-5438
▁creative	-5439
▁producing	-5440
▁formal	-5441
▁documents	-5442
▁Last	-5443
▁Though	-5444
▁chapter	-5445
▁Rights	-5446
▁normally	-5447
▁computers	-5448
▁Take	-5449
▁describes	-5450
▁Diff	-5451
▁selection	-5452
aser	-5453
long	-5454
▁secondary	-5455
ny	-5456
cules	-5457
▁possibly	-5458
▁interf	-5459
▁incl	-5460
▁tun	-5461
alian	-5462
▁touch	-5463
▁originally	-5464
▁dental	-5465
▁3,	-5466
▁35	-5467
▁inject	-5468
▁manufacturing	-5469
▁apart	-5470
▁generate	-5471
▁myth	-5472
▁trad	-5473
▁database	-5474
▁regional	-5475
▁impossible	-5476
▁Virginia	-5477
▁networks	-5478
ypes	-5479
▁unlike	-5480
agers	-5481
olve	-5482
▁consid	-5483
▁warming	-5484
▁cars	-5485
▁survival	-5486
▁nan	-5487
▁Home	-5488
▁accepted	-5489
flow	-5490
▁sudden	-5491
▁gall	-5492
▁Labor	-5493
▁Natural	-5494
ato	-5495
apping	-5496
CS	-5497
▁phr	-5498
▁understood	-5499
▁comprehensive	-5500
▁worse	-5501
with	-5502
▁village	-5503
ka	-5504
obe	-5505
olester	-5506
▁speaking	-5507
▁decline	-5508
▁opened	-5509
▁toler	-5510
▁possibility	-5511
road	-5512
▁revealed	-5513
33	-5514
▁supplement	-5515
ctic	-5516
▁Office	-5517
▁plays	-5518
VID	-5519
▁candid	-5520
▁185	-5521
▁Joseph	-5522
▁cloud	-5523
▁stored	-5524
▁adopted	-5525
▁index	-5526
▁prepare	-5527
▁brown	-5528
▁houses	-5529
▁doctors	-5530
▁guidelines	-5531
agues	-5532
▁label	-5533
▁harmful	-5534
▁opinion	-5535
▁dream	-5536
▁pictures	-5537
▁Exp	-5538
▁era	-5539
▁Sym	-5540
▁leaf	-5541
pet	-5542
▁professionals	-5543
▁Ill	-5544
▁improving	-5545
▁restrict	-5546
osph	-5547
27	-5548
anged	-5549
▁flight	-5550
▁Peter	-5551
mary	-5552
▁acts	-5553
▁engage	-5554
▁achieved	-5555
▁abund	-5556
▁recip	-5557
▁aircraft	-5558
▁Frank	-5559
▁district	-5560
omach	-5561
▁listed	-5562
ibilities	-5563
▁library	-5564
▁possess	-5565
▁Form	-5566
▁narrow	-5567
liam	-5568
ca	-5569
ilding	-5570
▁worldwide	-5571
▁ISBN	-5572
▁Canadian	-5573
▁transition	-5574
ona	-5575
▁tal	-5576
▁Ken	-5577
▁landscape	-5578
▁gather	-5579
▁suc	-5580
▁chain	-5581
▁starts	-5582
▁repeated	-5583
orter	-5584
▁routine	-5585
hemical	-5586
▁answers	-5587
olesterol	-5588
aph	-5589
abric	-5590
▁fill	-5591
lements	-5592
aria	-5593
▁twice	-5594
▁Constitution	-5595
▁readers	-5596
▁fell	-5597
▁wildlife	-5598
▁stick	-5599
▁amb	-5600
pass	-5601
▁mac	-5602
▁mamm	-5603
inations	-5604
▁marriage	-5605
▁Gold	-5606
▁imper	-5607
▁solve	-5608
rors	-5609
▁ancest	-5610
▁aw	-5611
born	-5612
▁pretty	-5613
ropical	-5614
▁equival	-5615
▁Fact	-5616
▁remote	-5617
▁forests	-5618
kin	-5619
▁bones	-5620
▁edge	-5621
▁2015	-5622
isp	-5623
▁2020	-5624
▁latter	-5625
▁window	-5626
3).	-5627
▁arms	-5628
ifies	-5629
▁agreement	-5630
▁decade	-5631
▁cultiv	-5632
▁plate	-5633
▁budget	-5634
▁Sometimes	-5635
▁administration	-5636
vironments	-5637
ican	-5638
▁Lab	-5639
▁courses	-5640
▁remaining	-5641
▁Paris	-5642
▁Dan	-5643
organ	-5644
▁struggle	-5645
▁tow	-5646
▁afford	-5647
▁surf	-5648
▁USA	-5649
ects	-5650
▁187	-5651
▁expressed	-5652
▁Nations	-5653
ogue	-5654
▁Cre	-5655
▁injuries	-5656
▁catch	-5657
mun	-5658
normal	-5659
ki	-5660
tage	-5661
▁chart	-5662
war	-5663
▁apprec	-5664
▁tail	-5665
▁accounts	-5666
▁aqu	-5667
▁acceler	-5668
▁journey	-5669
▁download	-5670
prise	-5671
nam	-5672
▁switch	-5673
▁sell	-5674
▁obtain	-5675
▁sequence	-5676
anda	-5677
erals	-5678
▁transmission	-5679
oted	-5680
▁Cult	-5681
▁sports	-5682
ini	-5683
99	-5684
▁mountain	-5685
gent	-5686
▁Free	-5687
▁door	-5688
▁unknown	-5689
▁marine	-5690
▁beneficial	-5691
▁dust	-5692
liament	-5693
ua	-5694
▁lands	-5695
▁Time	-5696
▁battery	-5697
▁museum	-5698
ester	-5699
▁filled	-5700
▁ax	-5701
▁unless	-5702
▁Report	-5703
▁sentence	-5704
ada	-5705
▁scholars	-5706
▁opening	-5707
▁Kh	-5708
▁Columb	-5709
▁Commit	-5710
35	-5711
throp	-5712
▁tells	-5713
ait	-5714
add	-5715
▁consistent	-5716
▁Vict	-5717
▁discipl	-5718
▁survive	-5719
▁childhood	-5720
hips	-5721
▁composition	-5722
▁universe	-5723
▁Clin	-5724
▁optim	-5725
▁OF	-5726
▁intellect	-5727
▁electronic	-5728
▁maintenance	-5729
▁Australian	-5730
▁af	-5731
▁reject	-5732
▁extended	-5733
exp	-5734
▁copy	-5735
▁choices	-5736
▁depos	-5737
▁Learn	-5738
▁shell	-5739
▁mur	-5740
ums	-5741
▁(20	-5742
▁Cat	-5743
▁interaction	-5744
ala	-5745
hist	-5746
▁300	-5747
▁agencies	-5748
▁produces	-5749
▁generated	-5750
38	-5751
▁aer	-5752
▁framework	-5753
▁waves	-5754
▁sweet	-5755
▁creates	-5756
imer	-5757
▁algorith	-5758
.’	-5759
▁locations	-5760
eper	-5761
▁broken	-5762
▁wants	-5763
rem	-5764
▁skill	-5765
▁Disease	-5766
▁Study	-5767
▁grav	-5768
▁assistance	-5769
▁tiny	-5770
▁Stat	-5771
inder	-5772
IL	-5773
arant	-5774
orrow	-5775
▁truly	-5776
ena	-5777
▁500	-5778
▁Street	-5779
▁failed	-5780
▁molecules	-5781
▁critic	-5782
▁slowly	-5783
▁error	-5784
spec	-5785
TM	-5786
opl	-5787
cel	-5788
▁derived	-5789
body	-5790
’,	-5791
ivery	-5792
▁Among	-5793
▁studying	-5794
▁troops	-5795
▁fixed	-5796
▁happy	-5797
▁bio	-5798
iform	-5799
irus	-5800
▁institution	-5801
▁End	-5802
▁laun	-5803
inity	-5804
▁Check	-5805
▁outl	-5806
If	-5807
ansion	-5808
▁seeing	-5809
ashion	-5810
icians	-5811
▁raw	-5812
▁lots	-5813
ceived	-5814
▁Haw	-5815
▁boost	-5816
▁kit	-5817
▁circumstances	-5818
ocracy	-5819
▁yield	-5820
.|	-5821
▁AC	-5822
▁intervention	-5823
▁foundation	-5824
▁traum	-5825
▁mechanism	-5826
hma	-5827
icide	-5828
rid	-5829
▁indeed	-5830
▁doi	-5831
lets	-5832
▁flav	-5833
▁Tor	-5834
▁decide	-5835
▁thor	-5836
stein	-5837
▁2016	-5838
▁respir	-5839
▁greatly	-5840
▁photos	-5841
▁responses	-5842
▁managed	-5843
▁doubt	-5844
▁enable	-5845
▁mixed	-5846
▁audience	-5847
▁gal	-5848
▁Meth	-5849
▁sky	-5850
▁cart	-5851
▁circuit	-5852
▁authorities	-5853
▁environments	-5854
▁successfully	-5855
▁Ma	-5856
itudes	-5857
▁AS	-5858
▁Sol	-5859
▁unp	-5860
zen	-5861
▁8.	-5862
▁sod	-5863
▁papers	-5864
▁Climate	-5865
▁consumers	-5866
▁fly	-5867
▁opposite	-5868
▁ratio	-5869
▁calcium	-5870
▁stomach	-5871
▁marked	-5872
▁density	-5873
wing	-5874
▁Rob	-5875
▁colour	-5876
▁indicates	-5877
▁Mill	-5878
▁insects	-5879
▁pull	-5880
inction	-5881
▁Camp	-5882
▁emotions	-5883
▁signals	-5884
▁newsp	-5885
yles	-5886
▁replaced	-5887
▁www	-5888
itative	-5889
▁Richard	-5890
▁wish	-5891
ictionary	-5892
HO	-5893
▁acids	-5894
▁permanent	-5895
▁sight	-5896
▁princip	-5897
ribed	-5898
izer	-5899
▁vessels	-5900
▁hus	-5901
▁description	-5902
▁fasc	-5903
▁bear	-5904
UR	-5905
▁carefully	-5906
▁represented	-5907
kes	-5908
▁highlight	-5909
▁Str	-5910
▁walking	-5911
▁cultures	-5912
▁Ocean	-5913
struct	-5914
▁acknow	-5915
EP	-5916
▁implementation	-5917
▁IP	-5918
icago	-5919
▁Wood	-5920
▁difficulty	-5921
▁dedicated	-5922
▁laboratory	-5923
▁Oh	-5924
▁Mad	-5925
▁protocol	-5926
igation	-5927
ache	-5928
ifications	-5929
no	-5930
erent	-5931
▁Rome	-5932
▁Pract	-5933
▁Hall	-5934
▁thousand	-5935
▁diox	-5936
▁voc	-5937
9).	-5938
▁volunte	-5939
▁reader	-5940
▁nine	-5941
inking	-5942
▁organized	-5943
▁lifestyle	-5944
ipping	-5945
▁corn	-5946
▁conventional	-5947
abul	-5948
Americ	-5949
bour	-5950
▁pron	-5951
48	-5952
▁fossil	-5953
▁university	-5954
▁1990	-5955
tic	-5956
agon	-5957
oned	-5958
▁daughter	-5959
▁2007	-5960
▁necessarily	-5961
▁Quest	-5962
▁reserv	-5963
▁COVID	-5964
▁Forest	-5965
▁Dig	-5966
▁gluc	-5967
cher	-5968
reland	-5969
▁Cancer	-5970
luding	-5971
sis	-5972
▁Southern	-5973
▁comparison	-5974
▁immediate	-5975
▁shift	-5976
▁preval	-5977
▁Eth	-5978
▁persist	-5979
▁machines	-5980
▁ethnic	-5981
▁Vit	-5982
gans	-5983
▁supporting	-5984
using	-5985
▁fiber	-5986
▁stands	-5987
▁Does	-5988
zil	-5989
▁Cap	-5990
▁Creat	-5991
▁ultimately	-5992
▁philosophy	-5993
▁uns	-5994
▁witness	-5995
▁45	-5996
riers	-5997
▁coffee	-5998
▁communicate	-5999
▁attend	-6000
▁List	-6001
▁sharing	-6002
zed	-6003
▁writer	-6004
▁inhib	-6005
▁Color	-6006
▁cholesterol	-6007
▁Similar	-6008
stone	-6009
▁closer	-6010
gu	-6011
▁desire	-6012
▁Cr	-6013
▁magnetic	-6014
reed	-6015
▁electron	-6016
tering	-6017
ml	-6018
level	-6019
ront	-6020
▁gone	-6021
▁cutting	-6022
▁listen	-6023
▁debate	-6024
▁PM	-6025
▁unable	-6026
▁improvement	-6027
▁accum	-6028
▁fighting	-6029
sey	-6030
▁Michael	-6031
▁hero	-6032
▁variable	-6033
▁constitution	-6034
▁Current	-6035
stract	-6036
rine	-6037
▁roof	-6038
▁Furthermore	-6039
▁pup	-6040
▁limits	-6041
icon	-6042
▁Scott	-6043
▁Ireland	-6044
▁younger	-6045
aped	-6046
▁Administ	-6047
hop	-6048
▁Sign	-6049
▁Click	-6050
▁evaluation	-6051
▁brand	-6052
▁recognition	-6053
▁join	-6054
▁handle	-6055
▁din	-6056
▁destroyed	-6057
▁Bank	-6058
9)	-6059
▁dent	-6060
▁noise	-6061
▁alle	-6062
antly	-6063
▁ourselves	-6064
▁Top	-6065
▁chosen	-6066
▁nerve	-6067
▁habits	-6068
▁photograph	-6069
ocy	-6070
▁inner	-6071
▁mild	-6072
▁colleagues	-6073
umes	-6074
▁smoking	-6075
rimination	-6076
▁remark	-6077
▁Look	-6078
▁Plant	-6079
▁Brown	-6080
1).	-6081
bra	-6082
▁Back	-6083
▁agency	-6084
▁exists	-6085
▁rid	-6086
▁inhab	-6087
▁relax	-6088
▁camera	-6089
inate	-6090
orses	-6091
▁artificial	-6092
8).	-6093
▁architecture	-6094
▁Find	-6095
kins	-6096
▁Northern	-6097
▁regulations	-6098
fe	-6099
▁Fort	-6100
▁Royal	-6101
-7	-6102
ints	-6103
▁202	-6104
bridge	-6105
▁biggest	-6106
▁Unf	-6107
ella	-6108
itan	-6109
▁fabric	-6110
▁neck	-6111
orous	-6112
then	-6113
ora	-6114
▁married	-6115
phone	-6116
▁Native	-6117
65	-6118
▁psychological	-6119
▁tea	-6120
▁Italy	-6121
▁overl	-6122
▁compounds	-6123
▁Sing	-6124
▁fewer	-6125
▁Additionally	-6126
under	-6127
azing	-6128
▁contained	-6129
▁multi	-6130
▁regul	-6131
▁breathing	-6132
ett	-6133
▁arrived	-6134
▁eld	-6135
hand	-6136
▁Agricult	-6137
▁supports	-6138
▁Table	-6139
▁founded	-6140
▁organisms	-6141
▁subs	-6142
usal	-6143
irty	-6144
▁ends	-6145
hesis	-6146
▁lies	-6147
eck	-6148
fish	-6149
▁Gal	-6150
▁feeding	-6151
▁concrete	-6152
▁vulnerable	-6153
elled	-6154
▁epid	-6155
▁customers	-6156
▁Scot	-6157
▁dioxide	-6158
▁cm	-6159
▁Pan	-6160
▁cos	-6161
ribe	-6162
▁hydrogen	-6163
▁presentation	-6164
▁attached	-6165
▁Nut	-6166
▁Committee	-6167
rating	-6168
▁equivalent	-6169
▁observations	-6170
▁paralle	-6171
▁Moreover	-6172
omic	-6173
▁obesity	-6174
▁supplies	-6175
▁programming	-6176
▁carb	-6177
▁clust	-6178
ih	-6179
▁competition	-6180
▁Gard	-6181
▁fever	-6182
▁underlying	-6183
▁Times	-6184
▁twenty	-6185
▁participate	-6186
▁Three	-6187
▁Carolina	-6188
▁Non	-6189
▁Revolution	-6190
▁bread	-6191
▁powers	-6192
▁grew	-6193
▁Effect	-6194
▁trials	-6195
▁standing	-6196
▁reactions	-6197
heast	-6198
▁instructions	-6199
ctive	-6200
What	-6201
▁purchase	-6202
▁territory	-6203
▁thy	-6204
▁Valley	-6205
▁Spain	-6206
▁crow	-6207
▁stable	-6208
▁capture	-6209
word	-6210
▁Mag	-6211
▁whereas	-6212
▁vote	-6213
▁willing	-6214
rd	-6215
▁confidence	-6216
▁false	-6217
▁percentage	-6218
▁turns	-6219
▁Researchers	-6220
▁legs	-6221
▁drawing	-6222
▁instruments	-6223
▁launch	-6224
▁mechanisms	-6225
ctor	-6226
▁taste	-6227
▁Conn	-6228
▁shut	-6229
▁Access	-6230
▁Comput	-6231
▁Penn	-6232
▁Adv	-6233
▁delay	-6234
rovers	-6235
▁occasion	-6236
▁unus	-6237
isters	-6238
ola	-6239
▁conclusion	-6240
LE	-6241
▁Chicago	-6242
abled	-6243
▁distur	-6244
-9	-6245
▁Empire	-6246
▁contamin	-6247
▁horiz	-6248
▁regist	-6249
▁trained	-6250
▁guarant	-6251
▁veter	-6252
▁rising	-6253
▁hypothes	-6254
DP	-6255
teen	-6256
▁Pop	-6257
▁row	-6258
▁border	-6259
▁ahead	-6260
▁·	-6261
avery	-6262
anta	-6263
▁1:	-6264
▁server	-6265
▁flo	-6266
▁housing	-6267
▁4,	-6268
As	-6269
▁ment	-6270
ading	-6271
▁relation	-6272
aud	-6273
▁eastern	-6274
▁pool	-6275
▁fract	-6276
▁employment	-6277
▁politics	-6278
▁functional	-6279
▁Board	-6280
▁zone	-6281
utch	-6282
▁supposed	-6283
▁beliefs	-6284
▁2017	-6285
▁accident	-6286
▁medic	-6287
▁pair	-6288
▁behaviors	-6289
hav	-6290
▁membr	-6291
▁resolution	-6292
▁demonstrated	-6293
▁prompt	-6294
▁delivery	-6295
▁insurance	-6296
▁joined	-6297
▁shop	-6298
ifest	-6299
▁feedback	-6300
ita	-6301
▁resulted	-6302
itt	-6303
▁Open	-6304
▁administr	-6305
espread	-6306
▁Teac	-6307
▁debt	-6308
ugh	-6309
erior	-6310
▁Main	-6311
▁Sever	-6312
▁III	-6313
▁virtual	-6314
▁Cy	-6315
exam	-6316
▁diagnosed	-6317
▁Prop	-6318
▁Sciences	-6319
een	-6320
▁drain	-6321
▁knows	-6322
▁transportation	-6323
36	-6324
▁teen	-6325
▁Family	-6326
▁refuge	-6327
▁Special	-6328
▁Academy	-6329
▁demonstrate	-6330
▁crime	-6331
▁mice	-6332
▁whatever	-6333
▁department	-6334
ymph	-6335
▁comments	-6336
▁greenhouse	-6337
▁Bus	-6338
▁prove	-6339
▁examine	-6340
onia	-6341
▁Language	-6342
▁Bab	-6343
▁tank	-6344
▁mining	-6345
▁independence	-6346
▁vs	-6347
▁interactions	-6348
▁partner	-6349
ritis	-6350
▁entry	-6351
▁connections	-6352
▁objective	-6353
▁Unfortunately	-6354
ione	-6355
opy	-6356
▁ath	-6357
▁categories	-6358
▁tissues	-6359
cycl	-6360
▁layers	-6361
▁stroke	-6362
▁Article	-6363
IP	-6364
▁Big	-6365
▁Chapter	-6366
irds	-6367
▁nearby	-6368
▁zero	-6369
▁ships	-6370
▁chrom	-6371
▁poison	-6372
▁employed	-6373
ups	-6374
▁Never	-6375
▁recept	-6376
itivity	-6377
▁funds	-6378
icious	-6379
asters	-6380
▁Start	-6381
▁prev	-6382
▁EU	-6383
▁hur	-6384
plant	-6385
▁frequent	-6386
▁maintaining	-6387
▁ru	-6388
▁generations	-6389
▁voltage	-6390
tra	-6391
▁Age	-6392
called	-6393
▁outbre	-6394
▁substances	-6395
▁challenging	-6396
esis	-6397
▁Mer	-6398
LA	-6399
oding	-6400
▁Equ	-6401
▁explo	-6402
▁sheet	-6403
▁Jo	-6404
▁align	-6405
▁spending	-6406
▁association	-6407
▁estimates	-6408
▁gap	-6409
hered	-6410
▁hem	-6411
▁smoke	-6412
▁Brazil	-6413
▁Hy	-6414
▁Young	-6415
▁Wik	-6416
▁issued	-6417
▁chick	-6418
There	-6419
weight	-6420
▁Py	-6421
▁breath	-6422
▁wasn	-6423
▁matters	-6424
▁launched	-6425
▁Georg	-6426
▁Eastern	-6427
oven	-6428
▁flag	-6429
▁maps	-6430
▁shot	-6431
▁tall	-6432
▁defe	-6433
eenth	-6434
▁arrange	-6435
but	-6436
roduction	-6437
▁painting	-6438
▁scan	-6439
▁hole	-6440
▁bridge	-6441
ults	-6442
▁Mean	-6443
IA	-6444
inating	-6445
anches	-6446
▁Resp	-6447
▁usage	-6448
▁string	-6449
▁define	-6450
▁passage	-6451
itter	-6452
ishment	-6453
▁positions	-6454
▁Sil	-6455
▁workshe	-6456
▁mm	-6457
▁smooth	-6458
xts	-6459
▁Est	-6460
arn	-6461
▁nest	-6462
ureau	-6463
▁bot	-6464
▁Works	-6465
ey	-6466
uh	-6467
▁spok	-6468
▁putting	-6469
cture	-6470
▁Holy	-6471
struction	-6472
▁exercises	-6473
▁mand	-6474
▁astronom	-6475
▁settings	-6476
▁mos	-6477
▁Four	-6478
▁Less	-6479
▁Orig	-6480
▁forget	-6481
▁widespread	-6482
▁compare	-6483
▁184	-6484
ushed	-6485
▁offering	-6486
▁fu	-6487
▁Down	-6488
▁surve	-6489
umps	-6490
▁Author	-6491
▁significance	-6492
▁Mult	-6493
▁drawn	-6494
▁reduces	-6495
▁participation	-6496
▁script	-6497
ployment	-6498
eless	-6499
▁cav	-6500
▁Italian	-6501
▁Victor	-6502
▁legislation	-6503
▁danger	-6504
▁fer	-6505
▁frame	-6506
▁rig	-6507
▁installed	-6508
itely	-6509
how	-6510
▁Martin	-6511
▁award	-6512
earing	-6513
▁match	-6514
37	-6515
▁Guide	-6516
▁reven	-6517
▁transp	-6518
▁involving	-6519
▁pra	-6520
▁insulin	-6521
omp	-6522
▁expansion	-6523
▁fold	-6524
▁players	-6525
▁Pet	-6526
▁neur	-6527
▁industries	-6528
▁cats	-6529
idity	-6530
while	-6531
▁consumer	-6532
IR	-6533
▁ongoing	-6534
scale	-6535
▁1/	-6536
▁cryst	-6537
▁markets	-6538
▁stimul	-6539
▁sections	-6540
▁192	-6541
▁sole	-6542
▁everyday	-6543
▁mode	-6544
▁cup	-6545
ether	-6546
▁explanation	-6547
▁indicated	-6548
ighter	-6549
▁kidney	-6550
▁ended	-6551
8)	-6552
BS	-6553
▁declared	-6554
etime	-6555
such	-6556
▁viruses	-6557
▁9.	-6558
34	-6559
osion	-6560
▁division	-6561
▁committed	-6562
▁covers	-6563
asty	-6564
▁rivers	-6565
▁operate	-6566
▁Lar	-6567
▁vac	-6568
▁rice	-6569
▁brings	-6570
▁controls	-6571
▁reliable	-6572
▁holds	-6573
▁Princ	-6574
▁moisture	-6575
▁organs	-6576
▁Low	-6577
azine	-6578
▁fulf	-6579
▁ille	-6580
acco	-6581
▁shif	-6582
▁scene	-6583
▁constructed	-6584
▁succeed	-6585
ediatric	-6586
▁meal	-6587
▁depart	-6588
▁victims	-6589
▁approved	-6590
ourage	-6591
▁Irish	-6592
otes	-6593
▁sacr	-6594
▁physics	-6595
▁county	-6596
▁intellectual	-6597
-10	-6598
gov	-6599
▁route	-6600
aked	-6601
▁bond	-6602
▁150	-6603
▁oblig	-6604
▁electro	-6605
▁fashion	-6606
rite	-6607
You	-6608
▁somewhat	-6609
▁announced	-6610
▁kne	-6611
▁none	-6612
dule	-6613
▁meters	-6614
▁Atlantic	-6615
▁accessible	-6616
▁Sat	-6617
▁nob	-6618
▁spaces	-6619
▁volcan	-6620
▁swim	-6621
isk	-6622
▁Kingdom	-6623
▁holid	-6624
▁undert	-6625
OC	-6626
▁damaged	-6627
▁photo	-6628
▁blow	-6629
▁Community	-6630
▁election	-6631
▁ske	-6632
▁Men	-6633
▁tons	-6634
fit	-6635
▁Mel	-6636
▁Ver	-6637
irt	-6638
▁Cho	-6639
▁Which	-6640
▁Year	-6641
▁banks	-6642
gical	-6643
▁adequate	-6644
▁©	-6645
▁artists	-6646
Go	-6647
▁1980	-6648
▁receiving	-6649
▁rank	-6650
▁Dar	-6651
▁males	-6652
▁Hill	-6653
▁Resources	-6654
▁centre	-6655
ibl	-6656
oples	-6657
abulary	-6658
▁calories	-6659
▁Ep	-6660
▁boy	-6661
▁earn	-6662
▁destruction	-6663
▁runs	-6664
▁blocks	-6665
▁burning	-6666
▁recommendations	-6667
▁Leg	-6668
▁conven	-6669
▁collaboration	-6670
▁36	-6671
▁texts	-6672
hyth	-6673
ented	-6674
▁mechanical	-6675
▁street	-6676
▁trip	-6677
▁Oxford	-6678
▁strongly	-6679
▁measurements	-6680
▁archae	-6681
she	-6682
▁tight	-6683
▁facility	-6684
▁butter	-6685
occ	-6686
▁surfaces	-6687
▁furn	-6688
▁domain	-6689
▁repair	-6690
▁seeking	-6691
that	-6692
▁Method	-6693
orph	-6694
▁agreed	-6695
▁relief	-6696
▁theories	-6697
car	-6698
▁stre	-6699
▁estimate	-6700
▁holding	-6701
rooms	-6702
▁trouble	-6703
▁historic	-6704
idential	-6705
▁constantly	-6706
▁angle	-6707
hent	-6708
▁blind	-6709
▁manip	-6710
iability	-6711
▁glucose	-6712
39	-6713
▁Word	-6714
▁forth	-6715
▁asking	-6716
▁minerals	-6717
▁tract	-6718
▁Indians	-6719
▁preparation	-6720
▁detection	-6721
▁Fund	-6722
▁composed	-6723
otton	-6724
▁theore	-6725
▁Several	-6726
▁entered	-6727
▁tube	-6728
▁controvers	-6729
▁babies	-6730
▁gram	-6731
▁measurement	-6732
amins	-6733
▁Party	-6734
▁females	-6735
▁missing	-6736
▁neither	-6737
▁roles	-6738
▁Change	-6739
alls	-6740
▁Next	-6741
▁boys	-6742
▁wait	-6743
iah	-6744
▁aband	-6745
▁analys	-6746
▁intense	-6747
gers	-6748
ady	-6749
greg	-6750
▁mortality	-6751
SS	-6752
▁paras	-6753
▁2006	-6754
▁pregnant	-6755
▁criteria	-6756
▁centers	-6757
▁AP	-6758
reek	-6759
▁1970	-6760
onn	-6761
▁pharm	-6762
▁variables	-6763
▁enemy	-6764
etics	-6765
▁coastal	-6766
agram	-6767
last	-6768
▁ring	-6769
▁publication	-6770
▁biod	-6771
▁respectively	-6772
▁Face	-6773
▁column	-6774
ani	-6775
▁Pak	-6776
inson	-6777
▁mood	-6778
▁Security	-6779
aded	-6780
▁proof	-6781
▁nervous	-6782
▁category	-6783
elesc	-6784
ittle	-6785
ocation	-6786
▁orient	-6787
▁advert	-6788
▁Indust	-6789
▁Services	-6790
▁Key	-6791
sen	-6792
▁Gr	-6793
▁seemed	-6794
▁withd	-6795
▁advantages	-6796
▁distributed	-6797
herent	-6798
▁wound	-6799
▁integrated	-6800
▁beauty	-6801
IG	-6802
▁tub	-6803
▁Try	-6804
▁plus	-6805
▁Viet	-6806
▁negot	-6807
▁)	-6808
▁preventing	-6809
▁worry	-6810
▁Po	-6811
▁honor	-6812
▁ped	-6813
▁rocks	-6814
▁husband	-6815
Is	-6816
osh	-6817
▁proportion	-6818
▁gut	-6819
▁Bill	-6820
▁Asian	-6821
ulty	-6822
▁examination	-6823
▁Set	-6824
▁turning	-6825
RC	-6826
rial	-6827
▁Lib	-6828
-18	-6829
▁plenty	-6830
▁renewable	-6831
▁loved	-6832
▁pounds	-6833
UN	-6834
rency	-6835
esides	-6836
▁Naz	-6837
▁cards	-6838
▁engaged	-6839
▁facing	-6840
▁TV	-6841
▁acute	-6842
▁metabol	-6843
▁Christmas	-6844
▁fro	-6845
▁influenced	-6846
IM	-6847
iration	-6848
▁Islam	-6849
▁respiratory	-6850
▁theme	-6851
▁crim	-6852
▁dependent	-6853
▁strict	-6854
▁horses	-6855
▁arts	-6856
OL	-6857
▁intest	-6858
▁Lo	-6859
▁bath	-6860
▁Rom	-6861
thritis	-6862
▁breeding	-6863
▁arrest	-6864
▁dose	-6865
▁fourth	-6866
▁circle	-6867
▁desired	-6868
▁weapons	-6869
igan	-6870
quit	-6871
▁contemporary	-6872
▁31	-6873
▁Zeal	-6874
▁irrit	-6875
▁designs	-6876
▁dischar	-6877
▁outcome	-6878
rot	-6879
making	-6880
▁accuracy	-6881
roat	-6882
isdom	-6883
▁dys	-6884
▁seconds	-6885
itals	-6886
________	-6887
▁complicated	-6888
oln	-6889
▁(4	-6890
airy	-6891
▁considering	-6892
▁Polic	-6893
▁edition	-6894
▁moves	-6895
▁maintained	-6896
▁guidance	-6897
▁ingredients	-6898
▁Type	-6899
▁sought	-6900
▁Without	-6901
▁gradually	-6902
▁1960	-6903
agraph	-6904
iral	-6905
CD	-6906
▁uncertain	-6907
▁favorite	-6908
rene	-6909
▁5,	-6910
▁officers	-6911
rey	-6912
▁silver	-6913
aming	-6914
▁attempts	-6915
▁score	-6916
▁compris	-6917
▁Dou	-6918
hyd	-6919
▁Moon	-6920
operation	-6921
▁forg	-6922
▁nose	-6923
▁parallel	-6924
▁Grand	-6925
▁inn	-6926
▁evaluate	-6927
▁Sup	-6928
▁rely	-6929
▁Modern	-6930
cons	-6931
ohyd	-6932
opes	-6933
▁merely	-6934
▁hun	-6935
arsh	-6936
▁careful	-6937
health	-6938
onomy	-6939
▁conversation	-6940
▁Yes	-6941
▁satellite	-6942
▁realize	-6943
▁phenomenon	-6944
eut	-6945
▁copper	-6946
▁2005	-6947
▁biology	-6948
▁Rock	-6949
apse	-6950
▁incred	-6951
▁Agency	-6952
▁considerable	-6953
▁microb	-6954
▁180	-6955
oom	-6956
peror	-6957
▁commission	-6958
aired	-6959
▁thanks	-6960
eness	-6961
▁absence	-6962
▁MS	-6963
forcement	-6964
▁shapes	-6965
▁artist	-6966
▁removal	-6967
▁molecular	-6968
▁judge	-6969
▁earthqu	-6970
Al	-6971
▁abnormal	-6972
▁subsequent	-6973
df	-6974
sts	-6975
▁discrimination	-6976
orders	-6977
▁mixt	-6978
RA	-6979
▁Zealand	-6980
ventions	-6981
▁stronger	-6982
▁escape	-6983
yal	-6984
▁opposed	-6985
▁essentially	-6986
▁2018	-6987
▁confirmed	-6988
UT	-6989
▁Coll	-6990
▁shock	-6991
▁agents	-6992
emia	-6993
cyclop	-6994
▁captured	-6995
▁Tre	-6996
▁Secret	-6997
▁beings	-6998
▁correl	-6999
iological	-7000
▁implications	-7001
▁carrying	-7002
ovascular	-7003
▁District	-7004
▁aims	-7005
theless	-7006
▁racial	-7007
pling	-7008
olving	-7009
▁slavery	-7010
▁branch	-7011
▁Sir	-7012
▁peak	-7013
rary	-7014
vard	-7015
▁Pot	-7016
▁clothing	-7017
oir	-7018
10.	-7019
pes	-7020
▁serving	-7021
▁bringing	-7022
▁principal	-7023
olesc	-7024
ivered	-7025
32	-7026
▁chlor	-7027
▁universal	-7028
▁(198	-7029
bu	-7030
▁equally	-7031
▁Den	-7032
▁signed	-7033
▁characterized	-7034
abil	-7035
▁pand	-7036
▁sharp	-7037
bar	-7038
▁AND	-7039
▁proven	-7040
▁Whether	-7041
▁Administration	-7042
▁Jac	-7043
▁Heb	-7044
ruption	-7045
▁combat	-7046
▁tut	-7047
▁jump	-7048
▁farming	-7049
▁mathematics	-7050
▁Safety	-7051
heric	-7052
▁messages	-7053
▁Jul	-7054
▁lake	-7055
▁sail	-7056
▁rarely	-7057
▁owner	-7058
▁scientist	-7059
▁dollars	-7060
▁excessive	-7061
▁Source	-7062
▁overw	-7063
rous	-7064
▁presents	-7065
▁id	-7066
▁item	-7067
▁radical	-7068
▁ov	-7069
▁Network	-7070
▁experimental	-7071
oga	-7072
▁clar	-7073
oston	-7074
▁Director	-7075
▁Super	-7076
raining	-7077
▁infant	-7078
gs	-7079
▁Johnson	-7080
▁32	-7081
▁Angel	-7082
▁infect	-7083
▁flower	-7084
▁implemented	-7085
▁varieties	-7086
▁statistics	-7087
▁newly	-7088
▁essays	-7089
▁fung	-7090
▁planned	-7091
▁Centre	-7092
▁focuses	-7093
adder	-7094
▁visitors	-7095
example	-7096
▁prohib	-7097
incoln	-7098
▁Reading	-7099
He	-7100
▁turb	-7101
▁islands	-7102
▁investigation	-7103
▁Desc	-7104
▁branches	-7105
▁Mah	-7106
▁informed	-7107
▁phosph	-7108
eren	-7109
heimer	-7110
ptions	-7111
rowing	-7112
▁proved	-7113
▁treating	-7114
▁targets	-7115
▁dealing	-7116
▁effectiveness	-7117
▁Muslim	-7118
▁healing	-7119
▁spin	-7120
▁inher	-7121
▁Scientists	-7122
▁Perhaps	-7123
▁mineral	-7124
istical	-7125
▁Coast	-7126
▁cleaning	-7127
▁Light	-7128
▁prominent	-7129
▁exclus	-7130
▁spectrum	-7131
▁crew	-7132
▁AM	-7133
▁passing	-7134
▁fairly	-7135
▁serves	-7136
▁session	-7137
▁Pakistan	-7138
▁assigned	-7139
▁Tim	-7140
▁minute	-7141
eli	-7142
▁Kar	-7143
▁temple	-7144
essions	-7145
▁knowing	-7146
▁Er	-7147
▁400	-7148
▁py	-7149
▁empt	-7150
rav	-7151
ounce	-7152
▁cooking	-7153
▁encouraged	-7154
▁guard	-7155
▁heating	-7156
▁innovation	-7157
▁difficulties	-7158
ano	-7159
aska	-7160
▁Treatment	-7161
outs	-7162
▁Cell	-7163
▁Liter	-7164
▁compound	-7165
▁hormone	-7166
▁teams	-7167
▁asthma	-7168
▁interpre	-7169
▁MD	-7170
▁formula	-7171
▁structural	-7172
▁disaster	-7173
▁printed	-7174
▁roads	-7175
nut	-7176
▁unw	-7177
illa	-7178
▁Oper	-7179
▁transact	-7180
▁chest	-7181
▁sales	-7182
▁claimed	-7183
▁Dev	-7184
▁bomb	-7185
▁deeper	-7186
/0	-7187
bec	-7188
lishing	-7189
▁poem	-7190
▁eliminate	-7191
▁2:	-7192
▁assume	-7193
ommod	-7194
▁writers	-7195
▁Online	-7196
▁modified	-7197
medi	-7198
▁nitrogen	-7199
▁fest	-7200
▁falls	-7201
▁Sund	-7202
▁Ut	-7203
▁gained	-7204
▁elected	-7205
▁comfortable	-7206
▁evil	-7207
▁panel	-7208
▁Contin	-7209
▁diameter	-7210
Ar	-7211
HD	-7212
chen	-7213
amics	-7214
▁Cast	-7215
▁breed	-7216
▁Tom	-7217
▁variation	-7218
▁lights	-7219
▁microsc	-7220
▁fed	-7221
▁galax	-7222
▁senior	-7223
▁threats	-7224
▁holes	-7225
▁insert	-7226
▁imagine	-7227
▁Swed	-7228
An	-7229
opic	-7230
▁defense	-7231
▁outer	-7232
mes	-7233
iana	-7234
▁Remember	-7235
sell	-7236
▁Neu	-7237
▁Hand	-7238
▁learners	-7239
▁scar	-7240
uality	-7241
▁listening	-7242
▁concerning	-7243
▁subt	-7244
▁wine	-7245
▁demands	-7246
:10.	-7247
%.	-7248
▁criminal	-7249
vin	-7250
atively	-7251
▁ordered	-7252
▁interpretation	-7253
gence	-7254
▁usual	-7255
▁Windows	-7256
▁television	-7257
▁adm	-7258
ilation	-7259
ogether	-7260
▁screening	-7261
▁statements	-7262
rison	-7263
▁Engineering	-7264
rox	-7265
▁Having	-7266
▁Ident	-7267
44	-7268
iat	-7269
iary	-7270
▁errors	-7271
▁mg	-7272
bles	-7273
▁laid	-7274
▁Organization	-7275
▁Nov	-7276
American	-7277
▁complications	-7278
▁recover	-7279
▁anywhere	-7280
▁happening	-7281
ontal	-7282
▁Cross	-7283
▁substantial	-7284
▁remed	-7285
ograp	-7286
IDS	-7287
haust	-7288
▁initially	-7289
▁consideration	-7290
▁cham	-7291
▁suffered	-7292
▁Sar	-7293
▁delivered	-7294
▁rose	-7295
coming	-7296
alm	-7297
ima	-7298
net	-7299
▁Imp	-7300
▁maybe	-7301
▁roughly	-7302
abeth	-7303
▁fishing	-7304
▁decreased	-7305
▁hazard	-7306
%)	-7307
ricts	-7308
▁filter	-7309
▁unusual	-7310
▁brush	-7311
▁Math	-7312
▁marks	-7313
77	-7314
▁mold	-7315
▁pestic	-7316
AA	-7317
▁satisf	-7318
▁hosp	-7319
▁warning	-7320
▁bigger	-7321
▁gro	-7322
▁lie	-7323
▁Rh	-7324
riend	-7325
▁intent	-7326
Ph	-7327
mm	-7328
ipedia	-7329
▁plane	-7330
▁trends	-7331
▁Columbia	-7332
▁decor	-7333
▁neuro	-7334
▁remind	-7335
▁Ur	-7336
tles	-7337
▁reward	-7338
▁earliest	-7339
otal	-7340
▁sport	-7341
▁encoun	-7342
▁Ven	-7343
▁channel	-7344
▁Again	-7345
▁examined	-7346
▁split	-7347
▁Following	-7348
▁conj	-7349
▁identification	-7350
▁flour	-7351
▁observe	-7352
▁compens	-7353
ultane	-7354
▁literacy	-7355
▁manifest	-7356
▁heavily	-7357
▁Init	-7358
▁trigger	-7359
▁Wall	-7360
▁slave	-7361
▁Pur	-7362
▁pit	-7363
onal	-7364
▁cab	-7365
▁Prevention	-7366
▁Jeff	-7367
▁plot	-7368
▁sus	-7369
▁neighborhood	-7370
▁grid	-7371
rane	-7372
EE	-7373
▁Eliz	-7374
itarian	-7375
▁detected	-7376
▁indigenous	-7377
ieval	-7378
▁kilomet	-7379
class	-7380
▁Iran	-7381
▁Lincoln	-7382
▁1950	-7383
▁provider	-7384
▁physician	-7385
▁observation	-7386
▁Sand	-7387
▁corner	-7388
sm	-7389
▁printing	-7390
▁cash	-7391
▁videos	-7392
▁duty	-7393
▁Polit	-7394
▁dynamic	-7395
▁Fire	-7396
▁driven	-7397
▁defend	-7398
ucky	-7399
▁View	-7400
▁stations	-7401
▁adds	-7402
▁config	-7403
elfare	-7404
cient	-7405
▁cort	-7406
▁stead	-7407
▁Based	-7408
▁tropical	-7409
▁epis	-7410
▁accompan	-7411
▁Ins	-7412
ioxid	-7413
oric	-7414
▁traditions	-7415
icing	-7416
▁terror	-7417
▁Boston	-7418
▁evolved	-7419
▁stability	-7420
▁functioning	-7421
▁isolated	-7422
▁Business	-7423
riz	-7424
▁dates	-7425
fts	-7426
uten	-7427
otype	-7428
▁(5	-7429
atial	-7430
▁reveal	-7431
▁Ol	-7432
▁conqu	-7433
▁Assess	-7434
▁correctly	-7435
▁array	-7436
▁disrupt	-7437
▁translation	-7438
▁Vitamin	-7439
oured	-7440
ura	-7441
▁Ask	-7442
igate	-7443
rance	-7444
▁antibiotics	-7445
ishop	-7446
▁aged	-7447
▁faced	-7448
▁Indeed	-7449
▁caught	-7450
▁amazing	-7451
including	-7452
va	-7453
▁grain	-7454
▁editor	-7455
ali	-7456
onym	-7457
ostic	-7458
semb	-7459
▁agent	-7460
ersonal	-7461
▁worship	-7462
igue	-7463
CT	-7464
effect	-7465
▁soul	-7466
unicip	-7467
▁alter	-7468
▁driver	-7469
▁orbit	-7470
▁uncom	-7471
ustain	-7472
▁finished	-7473
▁schedule	-7474
▁writes	-7475
vania	-7476
▁Heart	-7477
▁concluded	-7478
▁consume	-7479
▁accommod	-7480
▁reaching	-7481
▁TO	-7482
▁brows	-7483
▁strengthen	-7484
▁inequ	-7485
▁Parent	-7486
▁measuring	-7487
▁;	-7488
▁flows	-7489
▁objectives	-7490
ude	-7491
▁ye	-7492
▁Did	-7493
▁Minister	-7494
▁suscept	-7495
▁bacterial	-7496
▁sitting	-7497
▁biom	-7498
▁finds	-7499
▁coverage	-7500
▁Mot	-7501
▁asc	-7502
▁Scotland	-7503
▁intensity	-7504
icy	-7505
▁peoples	-7506
▁coc	-7507
▁Supreme	-7508
▁concentrations	-7509
46	-7510
▁union	-7511
▁overcome	-7512
etary	-7513
95	-7514
▁Alz	-7515
▁slaves	-7516
▁ceremon	-7517
▁Bul	-7518
▁rab	-7519
▁engineers	-7520
▁client	-7521
▁conference	-7522
ba	-7523
▁Hor	-7524
▁Lead	-7525
▁decay	-7526
▁dietary	-7527
▁Pen	-7528
▁stuff	-7529
▁player	-7530
▁stores	-7531
-20	-7532
▁Incre	-7533
▁Unlike	-7534
▁windows	-7535
▁innovative	-7536
▁superior	-7537
▁giant	-7538
cking	-7539
▁regulation	-7540
syl	-7541
▁6,	-7542
▁granted	-7543
asant	-7544
night	-7545
▁sunlight	-7546
▁CP	-7547
▁honey	-7548
▁Edward	-7549
▁Being	-7550
▁alph	-7551
acent	-7552
▁Conservation	-7553
▁extend	-7554
▁victim	-7555
enger	-7556
▁rac	-7557
ested	-7558
▁pros	-7559
▁pin	-7560
▁commitment	-7561
▁vocabulary	-7562
▁Play	-7563
▁exception	-7564
▁contribution	-7565
soft	-7566
angle	-7567
itual	-7568
▁wheat	-7569
▁ampl	-7570
just	-7571
▁Due	-7572
▁Ohio	-7573
▁colonial	-7574
angered	-7575
▁grows	-7576
▁Hospital	-7577
▁hence	-7578
century	-7579
▁Division	-7580
▁imaging	-7581
mers	-7582
▁hardware	-7583
31	-7584
▁occurring	-7585
▁van	-7586
▁narrative	-7587
rays	-7588
▁disabilities	-7589
▁Thanks	-7590
▁uniform	-7591
▁Christians	-7592
yer	-7593
icted	-7594
▁heads	-7595
▁Hebrew	-7596
▁emphasis	-7597
▁Star	-7598
▁Obs	-7599
▁sup	-7600
▁viewed	-7601
ogenic	-7602
▁Avoid	-7603
▁quantity	-7604
▁enorm	-7605
▁wheel	-7606
▁hidden	-7607
ansas	-7608
▁descript	-7609
HA	-7610
▁Lee	-7611
▁Cambridge	-7612
orted	-7613
▁acres	-7614
▁Spring	-7615
spect	-7616
76	-7617
▁IV	-7618
▁Survey	-7619
▁inspired	-7620
▁Ly	-7621
▁adverse	-7622
▁Far	-7623
asm	-7624
▁identifying	-7625
▁experiencing	-7626
▁automatically	-7627
▁covering	-7628
▁bees	-7629
▁lymph	-7630
▁directed	-7631
oids	-7632
produ	-7633
▁Blue	-7634
▁Way	-7635
▁authent	-7636
▁vitamins	-7637
▁drought	-7638
▁psychology	-7639
writ	-7640
▁parameters	-7641
▁Alzheimer	-7642
inf	-7643
ette	-7644
▁les	-7645
gien	-7646
▁programme	-7647
▁Protection	-7648
▁meals	-7649
▁polar	-7650
▁providers	-7651
ENT	-7652
▁phrase	-7653
▁mir	-7654
▁laser	-7655
print	-7656
ographical	-7657
▁strain	-7658
otherapy	-7659
▁musical	-7660
▁planting	-7661
▁bag	-7662
▁Corn	-7663
▁characteristic	-7664
▁processed	-7665
▁quantum	-7666
MP	-7667
▁finger	-7668
list	-7669
▁moderate	-7670
▁coron	-7671
▁addressed	-7672
▁supplements	-7673
?"	-7674
oli	-7675
▁literary	-7676
iture	-7677
▁regardless	-7678
▁athlet	-7679
▁worst	-7680
▁oldest	-7681
▁enables	-7682
▁fatty	-7683
▁conserv	-7684
▁Father	-7685
▁advent	-7686
▁overwhel	-7687
▁representation	-7688
▁Him	-7689
from	-7690
trans	-7691
rolled	-7692
▁seat	-7693
▁paragraph	-7694
▁protecting	-7695
▁2004	-7696
▁perm	-7697
▁Michigan	-7698
▁autism	-7699
▁Books	-7700
▁mathematical	-7701
▁protective	-7702
sylvania	-7703
▁mine	-7704
ulpt	-7705
▁profit	-7706
▁democracy	-7707
▁Georgia	-7708
apor	-7709
ercury	-7710
▁exhaust	-7711
athered	-7712
▁Facebook	-7713
▁regarded	-7714
▁weakness	-7715
ruit	-7716
▁abilities	-7717
▁forming	-7718
▁nice	-7719
▁Queen	-7720
▁preced	-7721
▁sensitivity	-7722
itory	-7723
▁Road	-7724
▁affecting	-7725
allow	-7726
plete	-7727
▁inhabit	-7728
asts	-7729
▁relie	-7730
igare	-7731
▁elder	-7732
▁DO	-7733
acts	-7734
▁thereby	-7735
▁Korea	-7736
▁cattle	-7737
▁calling	-7738
▁personality	-7739
▁acquired	-7740
▁perception	-7741
▁tob	-7742
dr	-7743
▁38	-7744
▁Force	-7745
irth	-7746
▁Iss	-7747
▁taxes	-7748
▁48	-7749
▁Model	-7750
▁stake	-7751
▁rect	-7752
door	-7753
▁Wal	-7754
holders	-7755
▁SS	-7756
isco	-7757
▁lip	-7758
▁Dutch	-7759
▁Battle	-7760
▁sensors	-7761
▁contributed	-7762
▁productivity	-7763
▁bless	-7764
▁thermal	-7765
▁summary	-7766
▁Impro	-7767
HS	-7768
▁lungs	-7769
ailable	-7770
▁deficiency	-7771
▁vel	-7772
▁falling	-7773
▁pandemic	-7774
▁appointed	-7775
▁buried	-7776
▁mountains	-7777
rection	-7778
▁simultane	-7779
▁Head	-7780
▁customer	-7781
▁argue	-7782
▁technological	-7783
▁Scholar	-7784
▁vaccines	-7785
▁scores	-7786
▁abstract	-7787
▁Elizabeth	-7788
▁IT	-7789
usive	-7790
▁farms	-7791
▁mixture	-7792
▁AL	-7793
▁Policy	-7794
▁versions	-7795
▁vertical	-7796
brid	-7797
▁calculated	-7798
▁availability	-7799
New	-7800
▁(1)	-7801
▁robot	-7802
lines	-7803
▁Card	-7804
▁illegal	-7805
▁interactive	-7806
▁herb	-7807
▁desert	-7808
alities	-7809
▁analyze	-7810
▁reporting	-7811
azon	-7812
uset	-7813
ptom	-7814
ician	-7815
▁advis	-7816
▁quiet	-7817
rical	-7818
▁visited	-7819
▁क	-7820
▁Analysis	-7821
hea	-7822
▁dress	-7823
▁Point	-7824
▁counsel	-7825
▁insight	-7826
▁settlement	-7827
▁managing	-7828
▁cure	-7829
advant	-7830
▁steam	-7831
▁tumor	-7832
▁exploration	-7833
▁lens	-7834
▁Consider	-7835
▁tor	-7836
▁interface	-7837
▁educators	-7838
▁rational	-7839
▁gases	-7840
▁researcher	-7841
▁tables	-7842
▁Invest	-7843
▁cas	-7844
har	-7845
ao	-7846
▁quarter	-7847
▁65	-7848
ogs	-7849
ema	-7850
▁computing	-7851
▁pla	-7852
▁surge	-7853
▁smell	-7854
▁comprom	-7855
',	-7856
usetts	-7857
▁wisdom	-7858
▁Small	-7859
▁carbohyd	-7860
ymes	-7861
achusetts	-7862
▁girl	-7863
▁Circ	-7864
▁cotton	-7865
▁equation	-7866
CA	-7867
▁McC	-7868
▁Pennsylvania	-7869
quir	-7870
▁spr	-7871
▁cooling	-7872
icular	-7873
ricted	-7874
▁assets	-7875
▁heritage	-7876
pled	-7877
reated	-7878
▁neutral	-7879
▁officer	-7880
▁proceed	-7881
▁tobacco	-7882
▁cardiovascular	-7883
▁shoot	-7884
▁linear	-7885
▁separated	-7886
▁mosquit	-7887
Un	-7888
▁believes	-7889
-12	-7890
▁Lim	-7891
TP	-7892
iments	-7893
▁killing	-7894
▁Palest	-7895
▁ordinary	-7896
▁urine	-7897
neys	-7898
▁gast	-7899
real	-7900
▁pointed	-7901
],	-7902
adow	-7903
▁interventions	-7904
Sp	-7905
▁trauma	-7906
▁resid	-7907
▁Writing	-7908
▁alive	-7909
ourse	-7910
▁aimed	-7911
.).	-7912
▁Spirit	-7913
▁Harvard	-7914
▁chances	-7915
▁Later	-7916
una	-7917
▁improvements	-7918
archy	-7919
▁batteries	-7920
▁introduce	-7921
▁chemistry	-7922
berry	-7923
▁humanity	-7924
irms	-7925
▁ton	-7926
usalem	-7927
▁Help	-7928
aws	-7929
▁towns	-7930
▁updated	-7931
▁manufacturers	-7932
▁myst	-7933
▁flash	-7934
hus	-7935
▁losses	-7936
▁charged	-7937
▁Lin	-7938
▁initiative	-7939
html	-7940
opher	-7941
▁Section	-7942
▁pH	-7943
▁panels	-7944
▁Colorado	-7945
▁exciting	-7946
▁expanded	-7947
▁lock	-7948
▁adolesc	-7949
def	-7950
▁Gar	-7951
▁ran	-7952
▁stopped	-7953
▁substit	-7954
▁ensuring	-7955
▁migration	-7956
▁variations	-7957
▁£	-7958
▁propag	-7959
▁Justice	-7960
▁harder	-7961
▁dimens	-7962
▁geomet	-7963
▁ven	-7964
▁embra	-7965
▁irrig	-7966
▁75	-7967
▁cyber	-7968
▁performing	-7969
▁clock	-7970
▁Islamic	-7971
▁sched	-7972
NS	-7973
▁argued	-7974
▁dramatic	-7975
▁elsewhere	-7976
adel	-7977
▁CH	-7978
▁Drug	-7979
▁cord	-7980
Med	-7981
▁waiting	-7982
▁eru	-7983
▁sizes	-7984
▁sentences	-7985
▁owned	-7986
▁stones	-7987
▁consumed	-7988
▁emerging	-7989
▁Massachusetts	-7990
▁ritual	-7991
▁?	-7992
zer	-7993
▁lists	-7994
erty	-7995
▁Ira	-7996
▁fra	-7997
forest	-7998
bean	-7999
▁poetry	-8000
atal	-8001
▁antioxid	-8002
▁boundaries	-8003
mann	-8004
▁Solar	-8005
▁chap	-8006
▁rhyth	-8007
▁2003	-8008
urches	-8009
▁Often	-8010
▁1)	-8011
How	-8012
▁orders	-8013
▁Digital	-8014
▁mothers	-8015
▁styles	-8016
▁nutrient	-8017
▁34	-8018
CE	-8019
▁flexible	-8020
66	-8021
▁Hawai	-8022
▁achievement	-8023
ami	-8024
▁AR	-8025
▁Mur	-8026
htt	-8027
ivest	-8028
▁dism	-8029
▁Mach	-8030
▁preserve	-8031
▁disability	-8032
▁emotion	-8033
▁hunting	-8034
amine	-8035
iger	-8036
▁Max	-8037
uther	-8038
▁societies	-8039
▁tong	-8040
▁tribes	-8041
ugg	-8042
BT	-8043
iva	-8044
▁resil	-8045
▁Arctic	-8046
▁Alexander	-8047
▁ease	-8048
▁button	-8049
▁wonderful	-8050
▁engaging	-8051
▁Within	-8052
▁Confed	-8053
▁fellow	-8054
▁Philipp	-8055
quar	-8056
▁Building	-8057
▁promoting	-8058
▁Little	-8059
amps	-8060
▁Gener	-8061
▁faces	-8062
▁royal	-8063
▁arguments	-8064
▁metals	-8065
▁sevent	-8066
▁capabilities	-8067
▁Stan	-8068
ependent	-8069
▁reverse	-8070
sor	-8071
omer	-8072
ket	-8073
▁compost	-8074
▁ethical	-8075
▁focusing	-8076
▁scr	-8077
▁Crit	-8078
aren	-8079
aints	-8080
anger	-8081
▁boat	-8082
erman	-8083
▁behavioral	-8084
EF	-8085
▁sensor	-8086
ptic	-8087
▁communications	-8088
esh	-8089
▁degrad	-8090
▁ecological	-8091
uum	-8092
▁2019	-8093
▁attitude	-8094
▁temporary	-8095
▁entertain	-8096
▁executive	-8097
▁classified	-8098
▁tick	-8099
▁extension	-8100
▁asp	-8101
▁exhibit	-8102
idal	-8103
▁Right	-8104
▁33	-8105
▁opposition	-8106
▁NO	-8107
▁evening	-8108
▁scope	-8109
▁lowest	-8110
▁expectations	-8111
▁reasonable	-8112
▁integration	-8113
DS	-8114
▁DC	-8115
▁container	-8116
ipher	-8117
▁spray	-8118
▁Jerusalem	-8119
rob	-8120
▁Var	-8121
▁Systems	-8122
▁plain	-8123
▁planets	-8124
▁Level	-8125
lete	-8126
▁permission	-8127
oul	-8128
rix	-8129
▁oxid	-8130
▁1,000	-8131
▁drivers	-8132
▁consciousness	-8133
▁Physical	-8134
▁Ve	-8135
▁Kids	-8136
▁Process	-8137
55	-8138
▁dance	-8139
endment	-8140
▁7,	-8141
eting	-8142
▁streets	-8143
▁investigate	-8144
uits	-8145
▁Cub	-8146
▁Behav	-8147
▁dominant	-8148
▁Christianity	-8149
▁duration	-8150
▁Ok	-8151
asma	-8152
▁gent	-8153
▁attach	-8154
▁tap	-8155
▁hall	-8156
▁painful	-8157
.'	-8158
urning	-8159
iations	-8160
▁recycling	-8161
▁EPA	-8162
eor	-8163
istant	-8164
▁safely	-8165
▁threatened	-8166
▁Li	-8167
▁Sunday	-8168
▁fisher	-8169
lights	-8170
rize	-8171
▁tip	-8172
ecess	-8173
▁Bang	-8174
utation	-8175
▁genome	-8176
▁Economic	-8177
▁colonies	-8178
▁Laboratory	-8179
▁cancers	-8180
79	-8181
▁flying	-8182
▁labour	-8183
▁classical	-8184
▁Page	-8185
▁fats	-8186
▁logic	-8187
iner	-8188
▁Still	-8189
▁deeply	-8190
lims	-8191
▁vegetation	-8192
▁tens	-8193
▁households	-8194
▁Diet	-8195
▁Saint	-8196
▁shaped	-8197
▁Ice	-8198
▁determining	-8199
▁spoken	-8200
▁SP	-8201
erts	-8202
▁grains	-8203
▁settled	-8204
▁keeps	-8205
▁incident	-8206
▁universities	-8207
cut	-8208
MA	-8209
asy	-8210
top	-8211
▁dim	-8212
▁Parliament	-8213
▁Agriculture	-8214
anted	-8215
icity	-8216
▁cann	-8217
▁Pass	-8218
▁fought	-8219
▁kingdom	-8220
▁Between	-8221
▁websites	-8222
49	-8223
elve	-8224
agen	-8225
borne	-8226
ivestock	-8227
▁ranging	-8228
▁corresponding	-8229
bell	-8230
▁entering	-8231
▁creatures	-8232
▁directions	-8233
gr	-8234
For	-8235
▁definitely	-8236
▁RNA	-8237
fulness	-8238
▁evident	-8239
hire	-8240
▁membrane	-8241
▁Hum	-8242
▁contributions	-8243
▁ecosystems	-8244
▁integr	-8245
kind	-8246
▁Navy	-8247
▁dies	-8248
▁transmit	-8249
▁watching	-8250
▁marketing	-8251
▁Place	-8252
▁movie	-8253
▁differ	-8254
▁interior	-8255
cyclopedia	-8256
▁Hard	-8257
▁committee	-8258
▁raising	-8259
▁lighting	-8260
▁audio	-8261
▁Symptoms	-8262
CP	-8263
▁Ram	-8264
▁fuels	-8265
uris	-8266
zo	-8267
▁assumed	-8268
ouds	-8269
▁acting	-8270
▁applying	-8271
▁chair	-8272
▁gravity	-8273
amination	-8274
▁fing	-8275
▁Farm	-8276
▁reign	-8277
▁fatigue	-8278
agan	-8279
▁wider	-8280
▁establishment	-8281
And	-8282
▁engines	-8283
▁Wildlife	-8284
▁Mond	-8285
EG	-8286
▁exped	-8287
▁hormones	-8288
▁physically	-8289
▁feels	-8290
▁saved	-8291
▁continuing	-8292
▁||	-8293
▁sculpt	-8294
▁Put	-8295
▁preferred	-8296
ati	-8297
▁priority	-8298
lu	-8299
rh	-8300
▁courts	-8301
▁Copyright	-8302
▁manager	-8303
▁equality	-8304
▁libr	-8305
▁2)	-8306
▁differently	-8307
▁rh	-8308
Ex	-8309
▁remarkable	-8310
aka	-8311
▁Iraq	-8312
edu	-8313
thon	-8314
▁districts	-8315
unc	-8316
▁Chem	-8317
▁spots	-8318
▁attribut	-8319
eping	-8320
▁begun	-8321
▁conclus	-8322
neum	-8323
▁celebrated	-8324
▁CE	-8325
▁infants	-8326
▁(2)	-8327
▁prey	-8328
▁intr	-8329
▁wearing	-8330
▁10,	-8331
ipe	-8332
▁empty	-8333
ila	-8334
▁sodium	-8335
▁perceived	-8336
▁3:	-8337
words	-8338
mod	-8339
▁accompanied	-8340
▁assembly	-8341
▁requirement	-8342
▁trick	-8343
▁telling	-8344
▁Ha	-8345
enced	-8346
▁Standard	-8347
▁craft	-8348
▁2001	-8349
mented	-8350
▁manual	-8351
▁tempor	-8352
▁explicit	-8353
▁Hindu	-8354
▁Cost	-8355
▁gly	-8356
▁tack	-8357
▁dating	-8358
▁MA	-8359
▁profile	-8360
▁beat	-8361
▁saving	-8362
mia	-8363
▁bare	-8364
▁buff	-8365
▁parad	-8366
▁thread	-8367
▁heaven	-8368
▁cul	-8369
▁Frid	-8370
▁Daniel	-8371
▁Portug	-8372
▁clothes	-8373
gener	-8374
▁Conference	-8375
86	-8376
▁grounds	-8377
▁Fred	-8378
▁Ott	-8379
raham	-8380
ranean	-8381
▁newspaper	-8382
▁dairy	-8383
▁embry	-8384
▁appeal	-8385
▁fires	-8386
▁occas	-8387
▁convey	-8388
▁hypothesis	-8389
▁UV	-8390
▁Van	-8391
▁cough	-8392
ailed	-8393
▁Similarly	-8394
encing	-8395
CH	-8396
▁Fil	-8397
▁Capt	-8398
▁Examples	-8399
box	-8400
ogy	-8401
▁Gall	-8402
▁removing	-8403
▁addiction	-8404
jo	-8405
ols	-8406
▁verb	-8407
▁promise	-8408
▁violent	-8409
▁8,	-8410
▁Pu	-8411
▁sad	-8412
▁probability	-8413
wan	-8414
▁Arts	-8415
zyme	-8416
▁fur	-8417
▁joints	-8418
orig	-8419
▁shed	-8420
▁converted	-8421
▁guess	-8422
▁viral	-8423
▁traits	-8424
ifice	-8425
elescope	-8426
▁limitations	-8427
mentation	-8428
▁Ba	-8429
▁clients	-8430
foot	-8431
▁sustainability	-8432
▁ID	-8433
▁pupils	-8434
▁enormous	-8435
▁fet	-8436
olk	-8437
▁Norm	-8438
▁Proble	-8439
▁entit	-8440
▁balanced	-8441
▁barriers	-8442
thod	-8443
▁passion	-8444
▁pill	-8445
▁Given	-8446
▁1930	-8447
ackson	-8448
thew	-8449
▁strike	-8450
▁discussions	-8451
▁fo	-8452
▁Code	-8453
▁minds	-8454
▁grades	-8455
▁Support	-8456
iop	-8457
▁targeted	-8458
▁medicines	-8459
▁atoms	-8460
IF	-8461
▁Major	-8462
hal	-8463
▁Blood	-8464
▁thesis	-8465
agnetic	-8466
▁emerged	-8467
▁37	-8468
▁Los	-8469
obile	-8470
▁pilot	-8471
▁Testament	-8472
47	-8473
▁losing	-8474
▁dense	-8475
▁hat	-8476
▁solving	-8477
operative	-8478
▁resc	-8479
▁Offic	-8480
▁Indones	-8481
▁bleeding	-8482
uan	-8483
▁Interest	-8484
▁disadvant	-8485
▁Dictionary	-8486
ashes	-8487
▁dil	-8488
▁Material	-8489
▁versus	-8490
▁cow	-8491
▁Chief	-8492
▁spinal	-8493
ologically	-8494
When	-8495
inois	-8496
▁orb	-8497
▁sulf	-8498
▁sessions	-8499
▁attitudes	-8500
gon	-8501
▁Islands	-8502
▁Gulf	-8503
▁Pain	-8504
▁Hence	-8505
▁loose	-8506
▁convert	-8507
▁nutritional	-8508
Google	-8509
▁accord	-8510
▁stood	-8511
▁weigh	-8512
▁origins	-8513
▁outbreak	-8514
▁hospitals	-8515
disc	-8516
OM	-8517
▁trem	-8518
▁expertise	-8519
▁suit	-8520
▁circulation	-8521
▁existed	-8522
▁handling	-8523
▁digestive	-8524
'.	-8525
▁assert	-8526
▁devast	-8527
mentia	-8528
▁recre	-8529
▁Andrew	-8530
CR	-8531
books	-8532
eutic	-8533
▁mature	-8534
Sh	-8535
▁marg	-8536
ocolate	-8537
▁hygien	-8538
oto	-8539
▁Emer	-8540
▁acknowled	-8541
uscript	-8542
▁Amazon	-8543
▁biodiversity	-8544
chain	-8545
▁Understanding	-8546
85	-8547
▁Fig	-8548
▁engagement	-8549
▁references	-8550
▁Ast	-8551
▁drinks	-8552
▁Historical	-8553
AB	-8554
▁photographs	-8555
▁Much	-8556
▁gods	-8557
▁Field	-8558
flamm	-8559
▁province	-8560
▁transc	-8561
esium	-8562
▁Short	-8563
▁symbols	-8564
▁Squ	-8565
▁Mid	-8566
▁peer	-8567
play	-8568
▁Nob	-8569
▁aging	-8570
▁planted	-8571
▁vegetable	-8572
▁replacement	-8573
lymp	-8574
▁Media	-8575
▁immigrants	-8576
▁ham	-8577
▁facilitate	-8578
▁myself	-8579
▁readily	-8580
▁scenario	-8581
▁Bal	-8582
▁mouse	-8583
▁aggressive	-8584
▁actively	-8585
▁adapted	-8586
▁unn	-8587
raine	-8588
▁Should	-8589
olves	-8590
▁gum	-8591
▁cooperation	-8592
▁pel	-8593
▁pione	-8594
▁develops	-8595
▁virtually	-8596
▁precip	-8597
▁Muslims	-8598
▁lifetime	-8599
▁Local	-8600
▁wars	-8601
▁colony	-8602
plo	-8603
▁Self	-8604
▁obst	-8605
section	-8606
▁welfare	-8607
▁complexity	-8608
▁council	-8609
▁transmitted	-8610
olt	-8611
▁tact	-8612
▁anticip	-8613
▁2012.	-8614
▁celebrate	-8615
endar	-8616
▁diarr	-8617
▁scheme	-8618
▁savings	-8619
▁controlling	-8620
roud	-8621
▁chose	-8622
▁varies	-8623
▁shore	-8624
▁gathered	-8625
▁seriously	-8626
▁Introduction	-8627
▁Trust	-8628
▁chromos	-8629
▁apparently	-8630
▁default	-8631
▁optimal	-8632
▁Town	-8633
▁notion	-8634
▁Music	-8635
▁orange	-8636
▁holiday	-8637
▁withdraw	-8638
oves	-8639
▁Bureau	-8640
oded	-8641
▁sale	-8642
▁tends	-8643
umer	-8644
earch	-8645
▁beans	-8646
▁intention	-8647
OD	-8648
▁frust	-8649
%,	-8650
▁Call	-8651
▁Francisco	-8652
▁Mess	-8653
▁displayed	-8654
▁prevalence	-8655
eath	-8656
▁12.	-8657
▁Poly	-8658
▁spoke	-8659
▁Vietnam	-8660
fast	-8661
▁11,	-8662
They	-8663
▁victory	-8664
▁strategic	-8665
itting	-8666
▁happiness	-8667
▁Colon	-8668
▁prime	-8669
▁wouldn	-8670
▁persu	-8671
▁meaningful	-8672
Cl	-8673
▁Prim	-8674
▁municip	-8675
oons	-8676
▁Lew	-8677
▁Wikipedia	-8678
▁collective	-8679
cin	-8680
▁purchased	-8681
swe	-8682
▁uncle	-8683
▁opinions	-8684
▁resistant	-8685
▁joy	-8686
▁club	-8687
▁cub	-8688
▁pets	-8689
▁occupied	-8690
▁powder	-8691
▁breaking	-8692
▁soph	-8693
▁Biology	-8694
▁Occ	-8695
▁Tri	-8696
▁absorb	-8697
Gen	-8698
▁specified	-8699
tw	-8700
▁crown	-8701
▁(6	-8702
▁wat	-8703
▁2002	-8704
▁tone	-8705
▁Watch	-8706
▁anger	-8707
▁sheep	-8708
▁specialized	-8709
▁Const	-8710
▁shorter	-8711
▁$1	-8712
▁Move	-8713
assium	-8714
▁Secretary	-8715
plate	-8716
▁realized	-8717
made	-8718
▁Different	-8719
▁Hyd	-8720
world	-8721
▁auto	-8722
▁Aff	-8723
▁arise	-8724
▁Select	-8725
▁Jackson	-8726
▁specialist	-8727
▁Ell	-8728
▁Nutrition	-8729
▁restaur	-8730
▁graduate	-8731
▁habitats	-8732
▁representative	-8733
▁returns	-8734
ilst	-8735
zymes	-8736
uity	-8737
▁Mexican	-8738
TH	-8739
rus	-8740
▁cheap	-8741
▁dict	-8742
issance	-8743
▁ash	-8744
imp	-8745
friend	-8746
▁influences	-8747
ceans	-8748
izers	-8749
▁Third	-8750
▁armed	-8751
▁insights	-8752
adelph	-8753
▁neurons	-8754
▁representing	-8755
▁tu	-8756
▁workplace	-8757
▁involvement	-8758
ais	-8759
▁reveals	-8760
atus	-8761
urrent	-8762
▁songs	-8763
▁hal	-8764
▁haven	-8765
▁Greece	-8766
▁restore	-8767
▁Illinois	-8768
!”	-8769
▁ears	-8770
▁trace	-8771
specific	-8772
▁reaches	-8773
▁spacecraft	-8774
▁currency	-8775
RNA	-8776
▁Jacob	-8777
▁tension	-8778
▁annually	-8779
▁literally	-8780
aya	-8781
▁associate	-8782
▁accurately	-8783
▁personnel	-8784
▁1920	-8785
icking	-8786
▁juice	-8787
▁soils	-8788
▁refused	-8789
▁enthus	-8790
▁prayer	-8791
▁transferred	-8792
▁dropped	-8793
▁Friday	-8794
▁competitive	-8795
▁clay	-8796
▁Olymp	-8797
▁draft	-8798
ois	-8799
▁varied	-8800
▁Microsoft	-8801
▁discipline	-8802
eries	-8803
▁39	-8804
▁privile	-8805
▁till	-8806
▁Century	-8807
▁everywhere	-8808
ensed	-8809
▁thyroid	-8810
▁Kent	-8811
▁pairs	-8812
sex	-8813
ocated	-8814
▁noticed	-8815
bel	-8816
▁Senate	-8817
▁paintings	-8818
▁11.	-8819
▁prescribed	-8820
icating	-8821
▁predicted	-8822
▁gif	-8823
▁throat	-8824
EA	-8825
reens	-8826
▁Temple	-8827
isations	-8828
ogens	-8829
▁choosing	-8830
▁Print	-8831
▁globe	-8832
▁Action	-8833
▁friendly	-8834
▁accomplish	-8835
▁gift	-8836
▁analyzed	-8837
akespe	-8838
▁addresses	-8839
Sc	-8840
▁veloc	-8841
▁Abraham	-8842
▁basically	-8843
▁2011.	-8844
▁practition	-8845
lock	-8846
▁tab	-8847
▁indirect	-8848
cule	-8849
▁span	-8850
▁sciences	-8851
▁assignment	-8852
ught	-8853
▁dipl	-8854
▁Image	-8855
▁classic	-8856
▁Ministry	-8857
▁overview	-8858
flu	-8859
▁Rab	-8860
▁creativity	-8861
▁sees	-8862
▁advances	-8863
▁contents	-8864
bury	-8865
urable	-8866
▁alarm	-8867
▁Fish	-8868
shaped	-8869
▁179	-8870
▁qualities	-8871
icts	-8872
issipp	-8873
▁pollut	-8874
▁severity	-8875
▁prox	-8876
▁Computer	-8877
akespeare	-8878
▁restoration	-8879
▁Near	-8880
▁Ide	-8881
▁compass	-8882
▁CA	-8883
▁pace	-8884
▁barrier	-8885
▁gardens	-8886
▁reflected	-8887
awn	-8888
requ	-8889
unning	-8890
outheast	-8891
▁bears	-8892
▁divine	-8893
▁judgment	-8894
▁Convention	-8895
avirus	-8896
▁oils	-8897
▁preparing	-8898
ker	-8899
aware	-8900
▁forecast	-8901
▁glac	-8902
▁scat	-8903
▁recording	-8904
▁metabolism	-8905
▁coat	-8906
▁buying	-8907
awa	-8908
▁Paper	-8909
▁Working	-8910
▁maxim	-8911
izz	-8912
▁Connect	-8913
▁instances	-8914
▁Week	-8915
▁Creek	-8916
adelphia	-8917
aternal	-8918
▁permit	-8919
▁developments	-8920
▁paying	-8921
UL	-8922
▁spatial	-8923
▁candidate	-8924
▁profound	-8925
▁Rest	-8926
▁Sustain	-8927
▁minimal	-8928
▁privacy	-8929
▁caps	-8930
▁sacred	-8931
▁crypt	-8932
▁Marine	-8933
▁livestock	-8934
▁wash	-8935
▁ho	-8936
▁2010.	-8937
▁Product	-8938
▁Dam	-8939
▁Relig	-8940
▁ion	-8941
▁oste	-8942
▁2013.	-8943
▁posts	-8944
▁burden	-8945
Ad	-8946
▁ol	-8947
▁penet	-8948
▁funded	-8949
ometer	-8950
▁breaks	-8951
▁addressing	-8952
▁theoretical	-8953
88	-8954
through	-8955
▁copyright	-8956
▁Tit	-8957
▁Prom	-8958
42	-8959
ifer	-8960
▁Master	-8961
claim	-8962
▁Moses	-8963
▁curve	-8964
▁deploy	-8965
▁payment	-8966
▁analyses	-8967
▁conversion	-8968
sembly	-8969
▁legit	-8970
▁(“	-8971
▁mask	-8972
▁Gh	-8973
bered	-8974
▁tongue	-8975
ghan	-8976
mond	-8977
▁fraction	-8978
▁sug	-8979
▁bias	-8980
▁constra	-8981
▁OS	-8982
text	-8983
▁lakes	-8984
▁identical	-8985
▁cellular	-8986
▁ownership	-8987
▁preserved	-8988
▁churches	-8989
▁Fed	-8990
reprene	-8991
▁Ancient	-8992
▁Heritage	-8993
▁revers	-8994
▁sister	-8995
▁unlikely	-8996
▁productive	-8997
▁kg	-8998
rait	-8999
▁couldn	-9000
▁invention	-9001
43	-9002
▁120	-9003
▁encl	-9004
▁optical	-9005
apes	-9006
▁illnesses	-9007
▁ster	-9008
▁underground	-9009
▁Fair	-9010
▁Clean	-9011
▁logical	-9012
▁calculate	-9013
But	-9014
ref	-9015
worth	-9016
▁chicken	-9017
▁particle	-9018
▁Rather	-9019
▁soy	-9020
vation	-9021
▁enjoyed	-9022
▁incidence	-9023
▁Rail	-9024
▁Wed	-9025
▁tomat	-9026
▁dimin	-9027
▁meetings	-9028
▁surgical	-9029
▁CDC	-9030
▁Best	-9031
▁suddenly	-9032
▁Altern	-9033
▁ultimate	-9034
▁themes	-9035
▁Import	-9036
▁tom	-9037
▁strange	-9038
apped	-9039
otypes	-9040
▁bee	-9041
▁conflicts	-9042
oked	-9043
▁PDF	-9044
▁minority	-9045
▁dimensions	-9046
▁evolutionary	-9047
▁Think	-9048
▁ft	-9049
▁bought	-9050
▁Hit	-9051
▁incent	-9052
▁55	-9053
▁perfectly	-9054
rue	-9055
▁vibr	-9056
▁managers	-9057
▁Tradition	-9058
▁Antar	-9059
▁statistical	-9060
green	-9061
▁Typ	-9062
▁documented	-9063
▁susceptible	-9064
▁nom	-9065
▁teens	-9066
▁Garden	-9067
)||	-9068
▁Ult	-9069
elect	-9070
▁flexibility	-9071
ifier	-9072
rowth	-9073
onents	-9074
▁disturb	-9075
▁minimize	-9076
mble	-9077
iterranean	-9078
▁acceptable	-9079
thur	-9080
▁Obama	-9081
▁embed	-9082
elly	-9083
▁Brain	-9084
▁regime	-9085
▁motivation	-9086
regon	-9087
▁neglect	-9088
▁absolutely	-9089
▁adopt	-9090
▁beneath	-9091
▁transplant	-9092
▁sons	-9093
▁Monday	-9094
▁streams	-9095
▁villages	-9096
▁restricted	-9097
child	-9098
aneous	-9099
▁registered	-9100
▁shr	-9101
▁quantities	-9102
▁subsc	-9103
▁mammals	-9104
▁Clinical	-9105
▁12,	-9106
▁Sus	-9107
▁vig	-9108
▁Mind	-9109
irable	-9110
▁puts	-9111
issippi	-9112
▁Egyptian	-9113
▁distinguish	-9114
uled	-9115
▁wooden	-9116
▁Station	-9117
Ps	-9118
mega	-9119
▁15,	-9120
▁wal	-9121
1/	-9122
▁Neg	-9123
▁calm	-9124
▁hydro	-9125
▁contributing	-9126
▁Teachers	-9127
▁exploring	-9128
iders	-9129
▁impair	-9130
▁regulate	-9131
▁ranges	-9132
1:	-9133
oca	-9134
rypt	-9135
▁borrow	-9136
▁package	-9137
▁NOT	-9138
▁fifth	-9139
▁volunteers	-9140
▁FDA	-9141
▁Walk	-9142
▁reserved	-9143
▁Nevertheless	-9144
imm	-9145
▁wing	-9146
▁Commons	-9147
inth	-9148
▁descend	-9149
inces	-9150
▁Bern	-9151
▁suicide	-9152
▁accounting	-9153
▁restrictions	-9154
▁noun	-9155
▁Contact	-9156
press	-9157
▁bonds	-9158
▁bron	-9159
regular	-9160
▁Ren	-9161
▁varying	-9162
▁initiatives	-9163
▁amino	-9164
quality	-9165
▁Sud	-9166
▁elementary	-9167
▁Answ	-9168
▁sleeping	-9169
▁algorithm	-9170
dep	-9171
▁ruled	-9172
▁9,	-9173
▁Log	-9174
▁Unt	-9175
▁cited	-9176
▁wise	-9177
▁sending	-9178
sk	-9179
oler	-9180
OW	-9181
▁Lu	-9182
astics	-9183
▁Full	-9184
▁puzz	-9185
▁0.0	-9186
ospel	-9187
▁designated	-9188
▁PL	-9189
▁Area	-9190
▁Son	-9191
gments	-9192
▁developmental	-9193
aved	-9194
▁simultaneously	-9195
89	-9196
iblical	-9197
▁978	-9198
ceive	-9199
▁exclud	-9200
▁worker	-9201
▁electrons	-9202
▁rib	-9203
▁swelling	-9204
▁provision	-9205
▁corporate	-9206
▁Practice	-9207
▁Uk	-9208
▁Die	-9209
▁applies	-9210
▁distant	-9211
▁Teaching	-9212
omed	-9213
▁reef	-9214
▁rooms	-9215
▁transformation	-9216
▁CT	-9217
▁finish	-9218
▁channels	-9219
▁attributed	-9220
▁Text	-9221
▁utility	-9222
▁philosoph	-9223
▁inhabitants	-9224
▁hier	-9225
▁proposal	-9226
▁revenue	-9227
▁3-	-9228
▁memor	-9229
▁dish	-9230
▁lingu	-9231
▁Philadelphia	-9232
vi	-9233
▁Individual	-9234
▁passes	-9235
▁Essay	-9236
▁Scientific	-9237
▁separation	-9238
acles	-9239
▁Assessment	-9240
▁alternatives	-9241
▁eleph	-9242
▁Origin	-9243
▁Luc	-9244
▁winds	-9245
▁requiring	-9246
▁installation	-9247
▁summar	-9248
▁medieval	-9249
▁isolation	-9250
▁Aud	-9251
▁2014.	-9252
▁consent	-9253
▁Apple	-9254
▁gate	-9255
▁possibilities	-9256
jud	-9257
▁50%	-9258
▁prosper	-9259
▁Ent	-9260
terior	-9261
▁zones	-9262
▁segment	-9263
▁Hem	-9264
emies	-9265
▁blank	-9266
▁diagram	-9267
▁Tar	-9268
▁cycles	-9269
▁Schools	-9270
▁Mediterranean	-9271
rics	-9272
▁Others	-9273
igned	-9274
▁consequence	-9275
▁merch	-9276
▁Oregon	-9277
▁Line	-9278
▁abundance	-9279
▁inch	-9280
ologic	-9281
▁wings	-9282
▁manuscript	-9283
▁module	-9284
ceptions	-9285
▁inev	-9286
▁aside	-9287
▁surprise	-9288
ateral	-9289
▁thank	-9290
▁subsid	-9291
▁elevated	-9292
orus	-9293
▁hopes	-9294
▁arthritis	-9295
▁systematic	-9296
western	-9297
▁Univers	-9298
▁stere	-9299
aine	-9300
▁diets	-9301
▁copies	-9302
▁suggesting	-9303
▁partnership	-9304
▁Tool	-9305
BM	-9306
▁citizen	-9307
abling	-9308
orters	-9309
▁employee	-9310
▁magnitude	-9311
▁compos	-9312
ika	-9313
power	-9314
▁herself	-9315
ouri	-9316
▁Ariz	-9317
▁juris	-9318
----	-9319
▁absorption	-9320
amil	-9321
▁perpet	-9322
▁metabolic	-9323
:||	-9324
▁pert	-9325
rose	-9326
▁preserv	-9327
▁Williams	-9328
▁clouds	-9329
rub	-9330
▁Ont	-9331
PR	-9332
▁dramatically	-9333
▁classification	-9334
▁Map	-9335
▁rod	-9336
iano	-9337
Figure	-9338
▁favour	-9339
▁alert	-9340
zone	-9341
▁tort	-9342
▁2010,	-9343
▁peers	-9344
▁discharge	-9345
▁worksheets	-9346
▁encouraging	-9347
▁Proper	-9348
▁Mississippi	-9349
iler	-9350
▁remem	-9351
▁elections	-9352
▁knee	-9353
▁entitled	-9354
▁efficiently	-9355
after	-9356
▁outdoor	-9357
▁Ho	-9358
▁2015.	-9359
▁Alaska	-9360
▁1000	-9361
▁Santa	-9362
▁amongst	-9363
▁inherent	-9364
▁irrigation	-9365
▁phones	-9366
▁Fer	-9367
urd	-9368
▁Applic	-9369
▁stabil	-9370
/201	-9371
▁Need	-9372
▁Mountain	-9373
▁broke	-9374
▁ES	-9375
▁legend	-9376
▁scholar	-9377
▁satisfact	-9378
▁hurt	-9379
bow	-9380
▁nuts	-9381
▁fascinating	-9382
▁incorporate	-9383
▁prol	-9384
▁Wales	-9385
▁democratic	-9386
ouses	-9387
▁invasion	-9388
▁invasive	-9389
▁Nic	-9390
▁intra	-9391
▁honest	-9392
pdf	-9393
rin	-9394
▁sediment	-9395
▁folk	-9396
▁abandoned	-9397
oline	-9398
eem	-9399
▁ow	-9400
▁alumin	-9401
imensional	-9402
▁visits	-9403
function	-9404
▁dementia	-9405
▁tendency	-9406
ocial	-9407
economic	-9408
ictions	-9409
▁alongside	-9410
▁neural	-9411
mail	-9412
▁PhD	-9413
▁Write	-9414
▁ending	-9415
▁lecture	-9416
▁gest	-9417
▁estate	-9418
▁enforcement	-9419
▁Ash	-9420
▁Wilson	-9421
ethe	-9422
▁hybrid	-9423
▁symptom	-9424
▁SC	-9425
ador	-9426
ivation	-9427
▁pipe	-9428
▁unem	-9429
▁burned	-9430
▁expanding	-9431
▁1.5	-9432
profit	-9433
▁integrity	-9434
▁endangered	-9435
▁popularity	-9436
▁es	-9437
anz	-9438
cho	-9439
▁Number	-9440
▁collections	-9441
▁distinction	-9442
▁establishing	-9443
▁engineer	-9444
▁precisely	-9445
▁punishment	-9446
▁deer	-9447
nia	-9448
enter	-9449
▁brains	-9450
▁sectors	-9451
▁Spe	-9452
▁Below	-9453
▁partial	-9454
▁spreading	-9455
▁incorporated	-9456
enda	-9457
eller	-9458
▁attempted	-9459
▁penal	-9460
▁totally	-9461
69	-9462
ji	-9463
▁Training	-9464
▁rainfall	-9465
▁Encyclopedia	-9466
itic	-9467
▁grams	-9468
.1	-9469
▁encounter	-9470
2),	-9471
▁Isa	-9472
ATION	-9473
▁visiting	-9474
▁excav	-9475
duction	-9476
▁ancestors	-9477
ffe	-9478
▁Turn	-9479
▁resemb	-9480
▁Berlin	-9481
▁salmon	-9482
▁reproductive	-9483
No	-9484
▁straw	-9485
.),	-9486
▁germ	-9487
▁organism	-9488
▁allergies	-9489
▁spons	-9490
▁Student	-9491
olph	-9492
▁elderly	-9493
▁tumors	-9494
▁Indigenous	-9495
▁~	-9496
uct	-9497
worm	-9498
)|	-9499
▁Hig	-9500
urse	-9501
▁Turkey	-9502
▁faculty	-9503
▁abundant	-9504
–19	-9505
▁attractive	-9506
isted	-9507
▁earthquake	-9508
▁250	-9509
▁hol	-9510
▁Matthew	-9511
▁Stephen	-9512
▁combine	-9513
▁sensory	-9514
▁Future	-9515
▁surrounded	-9516
ighth	-9517
▁glob	-9518
▁morph	-9519
▁guarantee	-9520
rint	-9521
▁debris	-9522
▁exceed	-9523
▁bull	-9524
▁enzyme	-9525
▁reflection	-9526
▁partly	-9527
▁suggestions	-9528
▁enzymes	-9529
▁certific	-9530
▁magazine	-9531
▁contamination	-9532
▁wage	-9533
▁reflects	-9534
▁Theory	-9535
▁confusion	-9536
▁Charl	-9537
▁relate	-9538
▁Arizona	-9539
▁homework	-9540
▁pesticides	-9541
▁whenever	-9542
DL	-9543
http	-9544
▁deposits	-9545
▁dynamics	-9546
▁rays	-9547
itches	-9548
▁vom	-9549
▁Mrs	-9550
rible	-9551
▁hygiene	-9552
▁achieving	-9553
▁1999	-9554
▁apps	-9555
▁binding	-9556
▁minister	-9557
▁Sn	-9558
▁neighb	-9559
▁civilization	-9560
elihood	-9561
▁Bol	-9562
▁anthrop	-9563
stru	-9564
▁Marc	-9565
▁throw	-9566
▁robust	-9567
▁scales	-9568
▁Angeles	-9569
mal	-9570
▁CS	-9571
ricane	-9572
▁mutations	-9573
1),	-9574
ieth	-9575
▁Name	-9576
▁width	-9577
▁thirty	-9578
etically	-9579
▁complement	-9580
▁doors	-9581
▁Corpor	-9582
ependence	-9583
▁cyl	-9584
▁murder	-9585
▁sovere	-9586
efficient	-9587
▁repet	-9588
▁rough	-9589
▁empire	-9590
▁conclusions	-9591
▁BM	-9592
▁Jr	-9593
▁surprising	-9594
ugs	-9595
▁weaken	-9596
▁extraord	-9597
▁physicians	-9598
▁holy	-9599
▁Luther	-9600
▁Jones	-9601
sters	-9602
ideo	-9603
▁broader	-9604
▁algorithms	-9605
▁celeb	-9606
▁arrival	-9607
▁speaker	-9608
▁Redu	-9609
▁plates	-9610
▁factory	-9611
▁chocolate	-9612
aven	-9613
▁("	-9614
▁Bh	-9615
▁register	-9616
▁Meanwhile	-9617
▁canal	-9618
di	-9619
quiry	-9620
▁synthetic	-9621
pos	-9622
best	-9623
!!	-9624
▁contaminated	-9625
▁Fac	-9626
▁crimes	-9627
▁lob	-9628
mental	-9629
▁Exerc	-9630
▁occasionally	-9631
")	-9632
▁Adam	-9633
▁Real	-9634
▁doses	-9635
▁fitness	-9636
▁containers	-9637
ashed	-9638
▁Event	-9639
▁infectious	-9640
OP	-9641
arten	-9642
▁tough	-9643
eras	-9644
▁panc	-9645
▁equipped	-9646
▁GDP	-9647
▁Defin	-9648
▁10,000	-9649
▁strains	-9650
▁lun	-9651
▁2012,	-9652
▁enhanced	-9653
▁predomin	-9654
▁Integ	-9655
▁shares	-9656
▁cream	-9657
▁surveys	-9658
page	-9659
▁incom	-9660
▁consisting	-9661
yt	-9662
stic	-9663
inery	-9664
▁nursing	-9665
▁neurolog	-9666
▁spine	-9667
▁Besides	-9668
▁attended	-9669
▁healthier	-9670
▁Cook	-9671
▁disag	-9672
ivities	-9673
▁600	-9674
▁Photo	-9675
▁Twitter	-9676
▁mistakes	-9677
▁numer	-9678
▁contrad	-9679
▁continent	-9680
▁collapse	-9681
▁survived	-9682
▁officially	-9683
▁LED	-9684
▁Sem	-9685
▁Assembly	-9686
▁operated	-9687
▁diagnostic	-9688
▁Doc	-9689
▁muc	-9690
itzer	-9691
ropol	-9692
▁erect	-9693
▁adolescents	-9694
pre	-9695
▁improves	-9696
▁NY	-9697
▁pale	-9698
▁Object	-9699
▁regulatory	-9700
▁%	-9701
▁loop	-9702
▁cable	-9703
▁platforms	-9704
athan	-9705
▁selling	-9706
▁prevents	-9707
67	-9708
▁twelve	-9709
wa	-9710
▁rom	-9711
▁onset	-9712
▁retain	-9713
▁relating	-9714
▁Jim	-9715
▁describing	-9716
even	-9717
▁cuts	-9718
▁collecting	-9719
59	-9720
▁Bell	-9721
▁producers	-9722
▁translated	-9723
also	-9724
▁14,	-9725
▁socio	-9726
▁adoption	-9727
imic	-9728
reshold	-9729
▁injured	-9730
▁therapeutic	-9731
iph	-9732
▁Dyn	-9733
▁Turk	-9734
owered	-9735
▁repeat	-9736
▁candidates	-9737
▁Cond	-9738
▁Nether	-9739
velength	-9740
redit	-9741
▁pneum	-9742
▁divide	-9743
▁NE	-9744
▁crack	-9745
▁molecule	-9746
▁hung	-9747
▁Culture	-9748
▁reputation	-9749
▁grad	-9750
▁trading	-9751
▁returning	-9752
bage	-9753
▁radi	-9754
▁adjacent	-9755
▁schem	-9756
▁Making	-9757
▁landing	-9758
▁striking	-9759
Pl	-9760
▁Hot	-9761
▁valve	-9762
▁dying	-9763
▁Animal	-9764
▁influenza	-9765
GE	-9766
:00	-9767
illance	-9768
▁beach	-9769
▁42	-9770
▁absorbed	-9771
ori	-9772
▁Maryland	-9773
▁evaluated	-9774
▁reasoning	-9775
Os	-9776
Ind	-9777
▁velocity	-9778
▁Questions	-9779
▁consistently	-9780
itus	-9781
▁disk	-9782
▁Benef	-9783
▁films	-9784
▁definitions	-9785
ela	-9786
▁accidents	-9787
▁export	-9788
▁memories	-9789
ctu	-9790
▁20,	-9791
▁oceans	-9792
▁painted	-9793
▁assessments	-9794
▁Mother	-9795
▁horizontal	-9796
On	-9797
arks	-9798
imen	-9799
▁Kn	-9800
▁busy	-9801
isting	-9802
▁chamber	-9803
▁Sav	-9804
▁Risk	-9805
▁eaten	-9806
▁seiz	-9807
▁acquire	-9808
▁kitchen	-9809
▁likelihood	-9810
▁ul	-9811
gebra	-9812
▁Order	-9813
▁welcome	-9814
▁Enter	-9815
▁dried	-9816
▁abol	-9817
▁duties	-9818
▁bags	-9819
▁cigare	-9820
▁bottle	-9821
▁attacked	-9822
▁Story	-9823
▁Standards	-9824
▁vaccination	-9825
akh	-9826
▁developers	-9827
fly	-9828
▁Talk	-9829
author	-9830
▁finance	-9831
▁sampling	-9832
▁pine	-9833
▁drops	-9834
▁Minnes	-9835
▁invented	-9836
▁semi	-9837
▁grammar	-9838
▁prolong	-9839
▁Available	-9840
eling	-9841
▁verte	-9842
▁administrative	-9843
▁fingers	-9844
▁Guard	-9845
▁CR	-9846
obic	-9847
oving	-9848
▁fant	-9849
▁erosion	-9850
▁assistant	-9851
.:	-9852
engers	-9853
orious	-9854
▁Peace	-9855
▁Hitler	-9856
▁bullying	-9857
▁Pope	-9858
▁fiction	-9859
▁allergic	-9860
istically	-9861
64	-9862
▁appointment	-9863
▁tracking	-9864
▁Bio	-9865
rimin	-9866
▁Iron	-9867
isticated	-9868
da	-9869
▁displays	-9870
▁vag	-9871
ctors	-9872
▁Tenn	-9873
▁utilized	-9874
▁atmospheric	-9875
▁sheets	-9876
▁shelter	-9877
▁partially	-9878
ipation	-9879
▁dentist	-9880
▁entrance	-9881
▁Poland	-9882
▁economics	-9883
ods	-9884
▁Na	-9885
▁Create	-9886
▁surviv	-9887
▁Java	-9888
▁Death	-9889
68	-9890
rium	-9891
arios	-9892
▁confident	-9893
▁predators	-9894
you	-9895
▁Chall	-9896
▁Parents	-9897
duate	-9898
ricks	-9899
▁rent	-9900
▁retail	-9901
uts	-9902
▁valley	-9903
▁awarded	-9904
▁sequences	-9905
pert	-9906
▁Sleep	-9907
▁Philos	-9908
▁fibers	-9909
▁spark	-9910
ilitation	-9911
▁residential	-9912
▁bite	-9913
isition	-9914
▁gentle	-9915
▁fan	-9916
▁imagination	-9917
▁Living	-9918
acle	-9919
▁elabor	-9920
▁brothers	-9921
▁Jack	-9922
forced	-9923
▁Missouri	-9924
▁ber	-9925
yan	-9926
expected	-9927
See	-9928
▁struck	-9929
▁license	-9930
▁outline	-9931
▁approval	-9932
atoes	-9933
▁Large	-9934
▁Script	-9935
▁Ele	-9936
▁bell	-9937
▁codes	-9938
▁multipl	-9939
▁bub	-9940
▁assault	-9941
▁reviewed	-9942
▁nic	-9943
▁Grade	-9944
▁edges	-9945
ayer	-9946
▁Hab	-9947
▁offices	-9948
antine	-9949
▁fault	-9950
▁aggreg	-9951
▁prisoners	-9952
▁1900	-9953
▁shoes	-9954
▁ON	-9955
olds	-9956
rons	-9957
adequ	-9958
utical	-9959
▁Jersey	-9960
▁inflation	-9961
▁Shakespeare	-9962
Be	-9963
▁loan	-9964
▁camps	-9965
▁termin	-9966
erb	-9967
▁emit	-9968
▁Chemical	-9969
▁subsequently	-9970
▁potassium	-9971
ylon	-9972
▁mile	-9973
▁Francis	-9974
▁GM	-9975
▁avoiding	-9976
▁mail	-9977
▁proud	-9978
▁circular	-9979
To	-9980
▁Hu	-9981
▁plasma	-9982
▁Arm	-9983
▁hazards	-9984
grade	-9985
berries	-9986
ineteenth	-9987
▁fluor	-9988
▁PR	-9989
aping	-9990
nea	-9991
▁investments	-9992
▁Mental	-9993
orer	-9994
▁tag	-9995
▁pose	-9996
▁worn	-9997
▁charges	-9998
▁Minnesota	-9999
dess	-10000
▁Path	-10001
▁fertilizer	-10002
▁wake	-10003
▁posted	-10004
▁decreases	-10005
▁liberal	-10006
▁malaria	-10007
▁independently	-10008
▁Gre	-10009
▁Jun	-10010
▁Jon	-10011
▁implementing	-10012
-201	-10013
▁affairs	-10014
▁1998	-10015
▁beet	-10016
▁Prince	-10017
▁consuming	-10018
▁phenomena	-10019
inch	-10020
▁seal	-10021
▁reviews	-10022
▁receives	-10023
▁jurisd	-10024
▁attributes	-10025
▁wireless	-10026
▁kilometers	-10027
estone	-10028
▁parks	-10029
▁flavor	-10030
▁speeds	-10031
esthetic	-10032
▁athletes	-10033
▁convenient	-10034
▁Priv	-10035
▁Protest	-10036
▁Hur	-10037
otion	-10038
▁grace	-10039
▁recall	-10040
oning	-10041
found	-10042
▁submit	-10043
▁shoulder	-10044
▁Afghan	-10045
gregation	-10046
▁tolerance	-10047
▁Six	-10048
iances	-10049
▁campus	-10050
▁cheese	-10051
▁myster	-10052
▁excited	-10053
ceeding	-10054
▁swimming	-10055
▁entreprene	-10056
▁Unit	-10057
▁depr	-10058
▁2011,	-10059
▁Daily	-10060
▁seasonal	-10061
▁sew	-10062
enh	-10063
▁dispers	-10064
▁indicating	-10065
▁Ah	-10066
osaur	-10067
▁pleasure	-10068
▁refugees	-10069
▁orientation	-10070
PDF	-10071
▁Dun	-10072
ermat	-10073
▁altered	-10074
1–	-10075
BD	-10076
▁4:	-10077
▁deliber	-10078
▁Patients	-10079
▁Samuel	-10080
ulates	-10081
burn	-10082
▁diver	-10083
▁10%	-10084
▁Flow	-10085
▁Carib	-10086
▁Ontario	-10087
▁13,	-10088
▁speakers	-10089
▁borders	-10090
▁adaptation	-10091
▁”	-10092
▁183	-10093
▁Nep	-10094
oting	-10095
healthy	-10096
▁Electric	-10097
▁Cit	-10098
▁prescription	-10099
▁stretch	-10100
▁humidity	-10101
ques	-10102
formed	-10103
▁stems	-10104
▁refrig	-10105
▁monthly	-10106
AF	-10107
uro	-10108
anol	-10109
ushing	-10110
▁2016.	-10111
▁cave	-10112
▁gran	-10113
▁toxins	-10114
▁representatives	-10115
,’	-10116
date	-10117
▁Case	-10118
▁axis	-10119
▁pest	-10120
▁exhibition	-10121
73	-10122
thodox	-10123
▁antibodies	-10124
▁Tay	-10125
isons	-10126
itate	-10127
▁Club	-10128
▁178	-10129
▁nodes	-10130
compass	-10131
All	-10132
▁2009,	-10133
▁libraries	-10134
▁highlights	-10135
▁13.	-10136
▁browser	-10137
cled	-10138
emor	-10139
▁Netherlands	-10140
iac	-10141
▁inequality	-10142
▁importantly	-10143
▁arc	-10144
▁prevented	-10145
▁vice	-10146
▁Lewis	-10147
▁immunity	-10148
▁argues	-10149
▁Present	-10150
Our	-10151
han	-10152
▁WW	-10153
fire	-10154
achel	-10155
▁Allah	-10156
CL	-10157
▁Mes	-10158
▁update	-10159
▁somewhere	-10160
▁progressive	-10161
▁rehab	-10162
▁password	-10163
▁tower	-10164
conn	-10165
▁discl	-10166
▁trail	-10167
▁workshop	-10168
▁teaches	-10169
▁intensive	-10170
▁traveling	-10171
Ed	-10172
▁lasting	-10173
▁pock	-10174
▁synthesis	-10175
III	-10176
000.	-10177
▁anat	-10178
▁gray	-10179
▁intermedi	-10180
pany	-10181
▁broadcast	-10182
step	-10183
▁cosm	-10184
▁hill	-10185
▁Scottish	-10186
▁calendar	-10187
▁Five	-10188
▁sacrifice	-10189
atin	-10190
▁protest	-10191
▁Question	-10192
▁missions	-10193
nings	-10194
▁100%	-10195
▁ADHD	-10196
▁Currently	-10197
▁18,	-10198
chnology	-10199
▁capability	-10200
yes	-10201
▁hide	-10202
▁freely	-10203
▁pursue	-10204
▁placing	-10205
▁appreciate	-10206
Fig	-10207
▁bark	-10208
▁indoor	-10209
▁Governor	-10210
otten	-10211
▁fles	-10212
▁operational	-10213
▁femin	-10214
”)	-10215
▁Sab	-10216
angel	-10217
▁mirror	-10218
▁weekly	-10219
▁2008.	-10220
BA	-10221
▁jew	-10222
▁contrary	-10223
▁loud	-10224
friendly	-10225
▁diarrhea	-10226
▁portray	-10227
about	-10228
▁prone	-10229
▁shade	-10230
▁Korean	-10231
original	-10232
▁assessed	-10233
▁Buddh	-10234
▁fatal	-10235
▁flooding	-10236
BI	-10237
▁publ	-10238
bul	-10239
▁Has	-10240
▁struggling	-10241
▁organisations	-10242
aze	-10243
▁Du	-10244
▁impressive	-10245
▁historians	-10246
▁Num	-10247
▁Certain	-10248
▁forever	-10249
effective	-10250
▁Fa	-10251
▁16,	-10252
onsin	-10253
▁Bush	-10254
▁commod	-10255
▁2009.	-10256
▁modeling	-10257
▁reservoir	-10258
▁irregular	-10259
▁sophisticated	-10260
74	-10261
▁Behavior	-10262
▁prospect	-10263
▁boundary	-10264
▁Hop	-10265
▁educated	-10266
▁cycl	-10267
arians	-10268
sequently	-10269
▁2008,	-10270
▁exch	-10271
isconsin	-10272
▁carries	-10273
▁milit	-10274
▁hardly	-10275
▁affordable	-10276
▁Davis	-10277
▁Cut	-10278
▁Sep	-10279
▁mapping	-10280
thal	-10281
▁(10	-10282
▁treaty	-10283
▁extinction	-10284
plex	-10285
raid	-10286
▁17,	-10287
▁mini	-10288
▁wages	-10289
▁earned	-10290
aceutical	-10291
▁connecting	-10292
▁occupation	-10293
▁imperial	-10294
aver	-10295
▁artistic	-10296
▁therapies	-10297
▁wavelength	-10298
▁misc	-10299
▁perf	-10300
▁Depending	-10301
▁Carl	-10302
▁rats	-10303
▁Thurs	-10304
300	-10305
▁beam	-10306
▁elig	-10307
▁Trade	-10308
▁arrive	-10309
omal	-10310
▁enlar	-10311
▁Germans	-10312
▁Until	-10313
PD	-10314
▁tanks	-10315
▁tremend	-10316
▁threshold	-10317
▁intelligent	-10318
▁cluster	-10319
generation	-10320
▁completion	-10321
anium	-10322
▁verse	-10323
▁distinguished	-10324
▁Centers	-10325
Pro	-10326
▁44	-10327
▁cloth	-10328
▁encourages	-10329
▁notable	-10330
▁concentrated	-10331
chron	-10332
▁avoided	-10333
▁participating	-10334
▁Econom	-10335
▁Statistics	-10336
▁resolve	-10337
▁Bit	-10338
▁Cra	-10339
▁rebu	-10340
▁settlers	-10341
▁thoroughly	-10342
▁Hay	-10343
▁cyt	-10344
▁Satur	-10345
▁priest	-10346
▁arranged	-10347
▁comparing	-10348
▁accomplished	-10349
TA	-10350
commun	-10351
▁pond	-10352
▁ought	-10353
▁Nation	-10354
ontin	-10355
▁STEM	-10356
atories	-10357
▁hypert	-10358
▁Mathemat	-10359
▁promising	-10360
▁namely	-10361
▁dialogue	-10362
▁bind	-10363
▁enabled	-10364
▁drives	-10365
▁correlation	-10366
2-	-10367
-15	-10368
▁undergo	-10369
▁qualified	-10370
dd	-10371
▁Cold	-10372
▁Darwin	-10373
▁Zh	-10374
▁mi	-10375
▁blo	-10376
▁Emperor	-10377
▁°	-10378
▁rejected	-10379
▁expressions	-10380
▁Opt	-10381
▁dow	-10382
▁mobility	-10383
▁Indonesia	-10384
▁NG	-10385
▁divers	-10386
▁patent	-10387
▁Discuss	-10388
ogram	-10389
ttes	-10390
▁emission	-10391
▁thickness	-10392
▁relatives	-10393
arer	-10394
▁Ten	-10395
▁Ak	-10396
▁gaps	-10397
swered	-10398
▁render	-10399
azz	-10400
umns	-10401
▁Anne	-10402
▁Core	-10403
▁Example	-10404
▁Diabetes	-10405
▁Earl	-10406
PV	-10407
atre	-10408
▁Hom	-10409
▁Democratic	-10410
▁traditionally	-10411
▁boxes	-10412
iy	-10413
thood	-10414
▁Romans	-10415
▁defines	-10416
▁Sher	-10417
▁Tues	-10418
burgh	-10419
▁desk	-10420
▁harsh	-10421
coin	-10422
▁meditation	-10423
▁Hung	-10424
▁Corps	-10425
▁fallen	-10426
▁routes	-10427
▁criticism	-10428
▁submitted	-10429
case	-10430
▁loyal	-10431
▁washing	-10432
▁heal	-10433
▁Lower	-10434
▁Yellow	-10435
▁tourism	-10436
▁asks	-10437
spring	-10438
▁drainage	-10439
▁Soft	-10440
action	-10441
▁devoted	-10442
iosity	-10443
▁robots	-10444
▁proport	-10445
▁equations	-10446
▁organisation	-10447
uv	-10448
▁Tro	-10449
▁founder	-10450
vy	-10451
▁CN	-10452
▁Psychology	-10453
▁provisions	-10454
▁Quality	-10455
ez	-10456
▁pou	-10457
▁vine	-10458
▁doctrine	-10459
▁Cape	-10460
▁deadly	-10461
▁historian	-10462
▁progression	-10463
▁meter	-10464
▁toile	-10465
▁jaw	-10466
dominal	-10467
▁distances	-10468
aning	-10469
▁appet	-10470
▁reson	-10471
▁pink	-10472
ergarten	-10473
▁injection	-10474
▁Search	-10475
arium	-10476
▁Mand	-10477
▁Begin	-10478
▁Additional	-10479
▁symb	-10480
▁discom	-10481
▁Jefferson	-10482
▁Wisconsin	-10483
▁manufacturer	-10484
uns	-10485
▁bin	-10486
▁sle	-10487
inflamm	-10488
▁thrive	-10489
▁administered	-10490
▁Mos	-10491
▁gains	-10492
▁destination	-10493
▁confused	-10494
▁meteor	-10495
▁bearing	-10496
▁carbohydrates	-10497
▁Enc	-10498
arded	-10499
▁featured	-10500
▁illustrated	-10501
▁rend	-10502
▁rubber	-10503
▁Generally	-10504
▁designing	-10505
RL	-10506
▁opens	-10507
entieth	-10508
▁multip	-10509
▁perspectives	-10510
▁Pap	-10511
▁wed	-10512
▁mart	-10513
▁transformed	-10514
Le	-10515
IST	-10516
doi	-10517
▁legacy	-10518
▁scenarios	-10519
▁courage	-10520
▁Han	-10521
▁Nazi	-10522
▁Rose	-10523
2:	-10524
ERS	-10525
▁colored	-10526
▁persistent	-10527
owa	-10528
▁distract	-10529
income	-10530
oa	-10531
▁utilize	-10532
▁celebration	-10533
▁1997	-10534
iative	-10535
▁Hon	-10536
▁bills	-10537
▁regen	-10538
▁nerves	-10539
law	-10540
▁ethics	-10541
▁configuration	-10542
▁explored	-10543
ceeds	-10544
dimensional	-10545
▁spir	-10546
▁distinctive	-10547
▁Poll	-10548
QL	-10549
▁(9	-10550
atile	-10551
uclear	-10552
▁allergy	-10553
▁Caribbean	-10554
▁overwhelming	-10555
inian	-10556
istent	-10557
▁aster	-10558
ecessary	-10559
▁unexpected	-10560
▁MP	-10561
omon	-10562
▁Give	-10563
▁guns	-10564
▁safer	-10565
▁Kansas	-10566
▁governor	-10567
▁monument	-10568
gged	-10569
▁Grant	-10570
▁promotes	-10571
▁accompany	-10572
uine	-10573
ooked	-10574
▁Marx	-10575
▁poorly	-10576
/10.	-10577
▁confront	-10578
▁WHO	-10579
▁Date	-10580
▁tribe	-10581
▁shallow	-10582
▁obviously	-10583
▁Guid	-10584
▁locally	-10585
cal	-10586
▁succeeded	-10587
RS	-10588
▁racism	-10589
▁algae	-10590
▁League	-10591
▁alike	-10592
▁obser	-10593
▁pediatric	-10594
ja	-10595
▁Along	-10596
▁indicators	-10597
onin	-10598
▁Exec	-10599
▁bits	-10600
▁attain	-10601
psy	-10602
▁Wars	-10603
▁fluids	-10604
▁pushed	-10605
▁embedded	-10606
▁controversial	-10607
Bl	-10608
▁pap	-10609
▁@	-10610
▁artif	-10611
▁distribut	-10612
▁Throughout	-10613
Pub	-10614
▁deleg	-10615
▁defects	-10616
▁magnesium	-10617
▁μ	-10618
▁PA	-10619
icting	-10620
emet	-10621
▁genus	-10622
FC	-10623
▁3)	-10624
▁sel	-10625
▁tape	-10626
enders	-10627
▁pests	-10628
▁answered	-10629
▁AT	-10630
LS	-10631
▁brid	-10632
iatric	-10633
onomous	-10634
nedy	-10635
▁sperm	-10636
quarters	-10637
▁generating	-10638
▁leak	-10639
▁Thursday	-10640
rip	-10641
▁talks	-10642
▁Franklin	-10643
▁Ford	-10644
▁Sens	-10645
insula	-10646
▁instant	-10647
▁Os	-10648
▁Balt	-10649
▁gear	-10650
▁Published	-10651
▁14.	-10652
verages	-10653
iversary	-10654
▁PH	-10655
▁bladder	-10656
▁precision	-10657
othy	-10658
▁atomic	-10659
▁gathering	-10660
vae	-10661
▁Types	-10662
▁golden	-10663
▁writings	-10664
▁Jean	-10665
▁Species	-10666
▁inflammatory	-10667
▁fate	-10668
▁Prime	-10669
▁vacuum	-10670
▁mercury	-10671
▁parliament	-10672
▁anten	-10673
▁Things	-10674
▁Month	-10675
▁Years	-10676
▁Usually	-10677
▁implies	-10678
▁mystery	-10679
▁Kim	-10680
▁Oil	-10681
▁nort	-10682
▁zinc	-10683
▁heter	-10684
▁Very	-10685
▁Stone	-10686
▁acknowledge	-10687
type	-10688
▁reserves	-10689
lings	-10690
▁tracks	-10691
▁antibiotic	-10692
▁tied	-10693
▁21,	-10694
▁Rub	-10695
▁mes	-10696
anas	-10697
sized	-10698
aft	-10699
▁Basic	-10700
▁Download	-10701
▁demonstrates	-10702
idae	-10703
▁investigated	-10704
▁Bad	-10705
▁Bor	-10706
▁Tuesday	-10707
▁influential	-10708
seud	-10709
▁empower	-10710
▁distress	-10711
▁accordance	-10712
▁counterpart	-10713
▁associations	-10714
storm	-10715
▁Imag	-10716
▁ride	-10717
▁employers	-10718
▁preservation	-10719
fare	-10720
▁Intellig	-10721
▁thorough	-10722
▁Particip	-10723
▁execution	-10724
▁immigration	-10725
▁Linux	-10726
reement	-10727
▁Observ	-10728
▁Tib	-10729
▁Duke	-10730
▁nick	-10731
teenth	-10732
▁Recent	-10733
nals	-10734
▁epidemic	-10735
▁43	-10736
▁Comb	-10737
rophic	-10738
▁extrem	-10739
▁vector	-10740
▁inadequ	-10741
▁reproduction	-10742
▁constitutional	-10743
▁49	-10744
▁tubes	-10745
stration	-10746
▁keys	-10747
ishers	-10748
▁skull	-10749
▁Wednes	-10750
▁por	-10751
▁cerv	-10752
▁magnet	-10753
▁rotation	-10754
▁Jane	-10755
▁Physics	-10756
▁declined	-10757
▁severely	-10758
▁revolutionary	-10759
iotic	-10760
▁assumptions	-10761
▁NS	-10762
▁Tree	-10763
▁storms	-10764
▁specimens	-10765
▁extraordinary	-10766
Hz	-10767
▁Win	-10768
osity	-10769
▁mira	-10770
That	-10771
rels	-10772
▁infin	-10773
▁labels	-10774
▁considerably	-10775
▁coins	-10776
My	-10777
▁yes	-10778
Co	-10779
▁Anim	-10780
▁Show	-10781
onics	-10782
icides	-10783
urated	-10784
▁inspiration	-10785
rared	-10786
▁coral	-10787
▁territories	-10788
agle	-10789
▁Opp	-10790
▁feather	-10791
DR	-10792
▁Ce	-10793
this	-10794
▁Qur	-10795
▁mistake	-10796
▁Body	-10797
▁weapon	-10798
▁methane	-10799
▁occurrence	-10800
ynt	-10801
▁Carbon	-10802
▁Sweden	-10803
▁sustained	-10804
▁`	-10805
ronaut	-10806
▁emerge	-10807
acon	-10808
agger	-10809
▁Fall	-10810
▁Python	-10811
▁Fem	-10812
▁steady	-10813
▁Victoria	-10814
cult	-10815
▁Volume	-10816
▁pathways	-10817
▁800	-10818
▁alk	-10819
▁30,	-10820
▁cope	-10821
▁shouldn	-10822
▁vomiting	-10823
▁Dom	-10824
asses	-10825
▁afraid	-10826
▁swallow	-10827
UC	-10828
▁Index	-10829
▁packaging	-10830
▁electronics	-10831
▁hip	-10832
doors	-10833
▁hang	-10834
▁discomfort	-10835
▁lift	-10836
▁substr	-10837
ognition	-10838
▁Perform	-10839
▁Depression	-10840
▁2007.	-10841
▁Front	-10842
▁permitted	-10843
▁(8	-10844
▁NC	-10845
▁(3)	-10846
▁suspect	-10847
▁spelling	-10848
Ref	-10849
front	-10850
gered	-10851
iking	-10852
auc	-10853
▁rocket	-10854
▁von	-10855
▁timing	-10856
▁surprised	-10857
1-	-10858
alog	-10859
▁suspected	-10860
De	-10861
lam	-10862
▁Greg	-10863
▁chron	-10864
▁cameras	-10865
▁Leon	-10866
cor	-10867
▁uncertainty	-10868
vol	-10869
▁defeat	-10870
▁Represent	-10871
▁expenses	-10872
▁peripher	-10873
icked	-10874
▁enemies	-10875
▁rear	-10876
▁dollar	-10877
▁19,	-10878
At	-10879
▁irre	-10880
▁fertility	-10881
▁transactions	-10882
arter	-10883
ocent	-10884
▁torn	-10885
▁Healthy	-10886
▁categor	-10887
▁cataly	-10888
▁executed	-10889
▁integral	-10890
▁recommends	-10891
dated	-10892
phones	-10893
ulsion	-10894
emetery	-10895
▁Lind	-10896
▁Magn	-10897
▁masses	-10898
▁searching	-10899
▁gau	-10900
▁yard	-10901
▁arrangement	-10902
▁metres	-10903
▁essence	-10904
▁classrooms	-10905
mn	-10906
phal	-10907
pson	-10908
▁enabling	-10909
▁160	-10910
▁Sa	-10911
▁entity	-10912
▁Pay	-10913
▁Dougl	-10914
▁buck	-10915
hester	-10916
▁restored	-10917
▁stakeholders	-10918
▁2015,	-10919
▁coinc	-10920
▁hills	-10921
▁nurse	-10922
▁hazardous	-10923
igm	-10924
uble	-10925
▁acceptance	-10926
3),	-10927
velt	-10928
▁Primary	-10929
▁filters	-10930
▁Transport	-10931
▁2017.	-10932
▁conducting	-10933
▁Ty	-10934
▁situated	-10935
ivals	-10936
▁toys	-10937
▁matrix	-10938
▁contributes	-10939
sub	-10940
uting	-10941
▁frog	-10942
▁Kennedy	-10943
▁counties	-10944
feeding	-10945
▁Tax	-10946
▁ignore	-10947
▁compliance	-10948
▁Rand	-10949
▁frozen	-10950
▁Educational	-10951
oved	-10952
▁1995	-10953
▁prevalent	-10954
hard	-10955
erness	-10956
▁stops	-10957
▁Always	-10958
▁columns	-10959
▁pathogens	-10960
▁lying	-10961
▁seasons	-10962
▁continuously	-10963
rust	-10964
▁1800	-10965
▁insu	-10966
▁voting	-10967
actic	-10968
school	-10969
▁volumes	-10970
▁dominated	-10971
▁46	-10972
human	-10973
▁exclusively	-10974
7%	-10975
▁solely	-10976
▁originated	-10977
yard	-10978
▁Results	-10979
▁Marg	-10980
▁facial	-10981
▁behalf	-10982
grad	-10983
▁nas	-10984
▁advertising	-10985
role	-10986
▁2007,	-10987
▁2013,	-10988
▁ruling	-10989
▁calculations	-10990
cts	-10991
▁1940	-10992
▁firms	-10993
▁simulation	-10994
▁bulk	-10995
▁horn	-10996
▁IC	-10997
owners	-10998
▁dangers	-10999
▁satellites	-11000
▁patri	-11001
▁publications	-11002
▁Sac	-11003
▁inspect	-11004
▁markers	-11005
▁enact	-11006
▁chapters	-11007
ropriate	-11008
▁crust	-11009
▁supplied	-11010
▁Conc	-11011
▁scal	-11012
uster	-11013
▁Urban	-11014
▁encompass	-11015
anth	-11016
▁determination	-11017
▁casual	-11018
▁thinks	-11019
▁Materials	-11020
▁Wednesday	-11021
3–	-11022
▁64	-11023
develop	-11024
▁economies	-11025
range	-11026
▁Bridge	-11027
▁expend	-11028
▁Mit	-11029
▁Sex	-11030
ountered	-11031
▁Industrial	-11032
GS	-11033
▁institutional	-11034
▁Belg	-11035
▁poems	-11036
▁hunger	-11037
▁circles	-11038
▁ensures	-11039
oil	-11040
uty	-11041
▁Trump	-11042
osevelt	-11043
▁Mu	-11044
▁Period	-11045
**	-11046
▁Rus	-11047
fold	-11048
▁Ban	-11049
▁Ger	-11050
▁stiff	-11051
▁Es	-11052
▁25,	-11053
ko	-11054
▁Arabic	-11055
▁AIDS	-11056
▁Job	-11057
▁Ray	-11058
▁politicians	-11059
▁ma	-11060
onymous	-11061
ammad	-11062
▁liberty	-11063
▁Evolution	-11064
▁newspapers	-11065
rell	-11066
▁apple	-11067
▁Monitor	-11068
▁diagnose	-11069
▁referring	-11070
orks	-11071
▁2021	-11072
▁Polish	-11073
▁disappear	-11074
eav	-11075
▁Arthur	-11076
▁cardiac	-11077
▁Gir	-11078
neg	-11079
▁Ib	-11080
▁transf	-11081
▁whilst	-11082
▁educate	-11083
56	-11084
omatic	-11085
riction	-11086
heastern	-11087
▁Pear	-11088
▁node	-11089
▁Imper	-11090
▁dispar	-11091
▁festival	-11092
▁inclusion	-11093
iors	-11094
▁anch	-11095
▁loans	-11096
▁foster	-11097
▁invited	-11098
▁Republican	-11099
hedral	-11100
essional	-11101
▁attracted	-11102
▁precipitation	-11103
▁Ni	-11104
▁encountered	-11105
▁manufactured	-11106
▁Bow	-11107
eared	-11108
▁explaining	-11109
onent	-11110
ECT	-11111
acher	-11112
▁viewing	-11113
98	-11114
▁Hal	-11115
▁catast	-11116
▁gastro	-11117
rac	-11118
▁SM	-11119
▁Az	-11120
▁OR	-11121
▁investors	-11122
rise	-11123
▁Miller	-11124
▁incredibly	-11125
▁yields	-11126
▁incorrect	-11127
inea	-11128
▁Prior	-11129
▁hepat	-11130
▁stressed	-11131
flies	-11132
▁Thank	-11133
▁dehyd	-11134
▁fifty	-11135
▁chains	-11136
▁picked	-11137
afe	-11138
▁Deep	-11139
Re	-11140
ochond	-11141
▁moments	-11142
▁preschool	-11143
2/	-11144
▁gland	-11145
▁genuine	-11146
▁pride	-11147
▁pathway	-11148
high	-11149
▁caffe	-11150
bro	-11151
▁Inv	-11152
▁fears	-11153
▁Collect	-11154
pm	-11155
▁protects	-11156
▁expedition	-11157
▁philosophical	-11158
emed	-11159
▁Census	-11160
▁24,	-11161
▁Buddha	-11162
▁prostate	-11163
rat	-11164
▁Rog	-11165
▁Architect	-11166
yo	-11167
▁Ark	-11168
▁palm	-11169
▁Marsh	-11170
ternoon	-11171
▁genetically	-11172
▁RE	-11173
▁payments	-11174
▁orn	-11175
▁Chap	-11176
▁metap	-11177
thening	-11178
▁coordination	-11179
▁compat	-11180
▁Reserve	-11181
2%	-11182
▁Was	-11183
ysical	-11184
▁impression	-11185
▁overweight	-11186
▁conservative	-11187
▁WH	-11188
▁20%	-11189
▁consensus	-11190
▁receptors	-11191
▁extraction	-11192
▁lunch	-11193
▁limiting	-11194
▁2014,	-11195
▁tired	-11196
▁discussing	-11197
1%	-11198
▁census	-11199
▁expense	-11200
▁Political	-11201
▁23,	-11202
orient	-11203
iki	-11204
wall	-11205
▁subtle	-11206
▁aluminum	-11207
▁belonging	-11208
▁1996	-11209
asures	-11210
atching	-11211
▁filling	-11212
▁Mission	-11213
▁Jup	-11214
▁Flu	-11215
▁Pict	-11216
▁necessity	-11217
58	-11218
▁Taylor	-11219
▁^	-11220
▁Vers	-11221
▁quad	-11222
▁unity	-11223
▁abroad	-11224
!)	-11225
ikes	-11226
▁Fle	-11227
▁Barb	-11228
▁Series	-11229
▁determines	-11230
who	-11231
▁tang	-11232
▁incredible	-11233
run	-11234
PL	-11235
▁Lt	-11236
▁FOR	-11237
iating	-11238
▁brill	-11239
▁Visual	-11240
▁phrases	-11241
tte	-11242
▁5:	-11243
inton	-11244
orney	-11245
▁reserve	-11246
▁deterior	-11247
▁Eval	-11248
▁whales	-11249
▁texture	-11250
▁Philippines	-11251
TER	-11252
igma	-11253
▁mud	-11254
▁condem	-11255
UM	-11256
▁inver	-11257
▁senses	-11258
▁organize	-11259
▁Roosevelt	-11260
▁realistic	-11261
upp	-11262
▁presum	-11263
▁precious	-11264
▁Knowledge	-11265
leton	-11266
▁Overall	-11267
▁genetics	-11268
ancial	-11269
osphere	-11270
▁phases	-11271
▁departments	-11272
▁Account	-11273
▁shipping	-11274
vals	-11275
father	-11276
▁Teacher	-11277
▁Movement	-11278
▁Syria	-11279
▁discusses	-11280
▁syll	-11281
▁meets	-11282
▁repeatedly	-11283
▁EM	-11284
▁geographic	-11285
▁descriptions	-11286
57	-11287
▁22,	-11288
ausea	-11289
▁sket	-11290
asa	-11291
lear	-11292
▁spell	-11293
▁Advanced	-11294
▁Cultural	-11295
400	-11296
aug	-11297
▁unemployment	-11298
▁combust	-11299
▁disposal	-11300
ón	-11301
olly	-11302
▁colleges	-11303
▁stimulate	-11304
there	-11305
▁Fram	-11306
▁epidem	-11307
▁chip	-11308
TC	-11309
▁wra	-11310
▁seeks	-11311
Se	-11312
▁Dor	-11313
▁respective	-11314
▁participated	-11315
eous	-11316
ordan	-11317
▁hack	-11318
▁crash	-11319
▁pries	-11320
▁analog	-11321
▁explos	-11322
▁Requ	-11323
▁surveillance	-11324
security	-11325
▁curious	-11326
▁alien	-11327
▁viable	-11328
▁Mountains	-11329
▁considerations	-11330
▁Bru	-11331
▁damaging	-11332
▁telescope	-11333
▁compassion	-11334
▁28,	-11335
▁Had	-11336
▁Captain	-11337
arth	-11338
▁Buddhist	-11339
▁conclude	-11340
orie	-11341
▁Compar	-11342
TML	-11343
iley	-11344
▁pitch	-11345
▁dinner	-11346
▁100,000	-11347
▁applicable	-11348
▁Taking	-11349
▁boards	-11350
41	-11351
lessly	-11352
▁Hispan	-11353
▁gaining	-11354
arts	-11355
▁2005,	-11356
ructive	-11357
▁portions	-11358
▁Plants	-11359
▁entities	-11360
▁assignments	-11361
▁Draw	-11362
▁rhythm	-11363
▁accessed	-11364
▁physiological	-11365
-200	-11366
▁Cro	-11367
▁surre	-11368
iolet	-11369
▁dign	-11370
3:	-11371
▁soap	-11372
▁uter	-11373
▁skilled	-11374
▁commands	-11375
▁discoveries	-11376
▁Site	-11377
▁timber	-11378
▁Kat	-11379
▁Rout	-11380
ocaust	-11381
,'	-11382
.-	-11383
▁march	-11384
▁bor	-11385
▁flesh	-11386
▁blacks	-11387
▁dishes	-11388
▁strand	-11389
▁football	-11390
▁marginal	-11391
▁conversations	-11392
▁dictionary	-11393
▁illustrate	-11394
inflammatory	-11395
▁Nig	-11396
rying	-11397
▁sorts	-11398
▁nurses	-11399
▁galaxies	-11400
▁nineteenth	-11401
▁EN	-11402
▁costly	-11403
▁dismiss	-11404
▁Dat	-11405
▁atom	-11406
▁gums	-11407
▁mounted	-11408
▁Sustainable	-11409
▁architectural	-11410
▁Ra	-11411
▁Vo	-11412
igration	-11413
▁episode	-11414
▁Archived	-11415
▁telephone	-11416
inator	-11417
▁admitted	-11418
▁electrom	-11419
▁Amendment	-11420
▁pupp	-11421
▁bands	-11422
▁kings	-11423
arest	-11424
▁beds	-11425
restrial	-11426
▁disasters	-11427
▁Related	-11428
▁recycled	-11429
▁shopping	-11430
hour	-11431
▁cha	-11432
▁2006,	-11433
▁yeast	-11434
▁Archae	-11435
weet	-11436
▁lig	-11437
▁Rod	-11438
▁Team	-11439
▁Arist	-11440
instein	-11441
▁vow	-11442
▁Freedom	-11443
▁degradation	-11444
lob	-11445
▁protocols	-11446
▁snake	-11447
▁flowing	-11448
▁Benefits	-11449
▁ic	-11450
▁Boy	-11451
makers	-11452
▁disput	-11453
▁assumption	-11454
▁bowel	-11455
▁larvae	-11456
▁Relations	-11457
anna	-11458
illy	-11459
▁herbs	-11460
▁quote	-11461
oxide	-11462
▁relieve	-11463
hr	-11464
▁pec	-11465
essee	-11466
▁conce	-11467
▁cooked	-11468
▁Defense	-11469
▁passive	-11470
▁powered	-11471
▁mutation	-11472
▁specialists	-11473
bral	-11474
▁Love	-11475
▁resilience	-11476
▁substitute	-11477
empl	-11478
imedia	-11479
▁graphic	-11480
▁examining	-11481
▁Pas	-11482
▁careg	-11483
▁voices	-11484
▁appetite	-11485
dis	-11486
▁kin	-11487
ailing	-11488
arding	-11489
▁enters	-11490
iplinary	-11491
▁Pow	-11492
▁Utah	-11493
▁Choose	-11494
▁comparable	-11495
▁Nap	-11496
isible	-11497
▁Argent	-11498
▁induced	-11499
▁sau	-11500
▁frequencies	-11501
FS	-11502
ilton	-11503
▁menu	-11504
estion	-11505
▁warmer	-11506
▁pharmac	-11507
▁odd	-11508
▁shadow	-11509
▁Therapy	-11510
▁battles	-11511
▁Communication	-11512
▁Bot	-11513
▁Effects	-11514
▁inherited	-11515
▁motivated	-11516
sl	-11517
▁PMID	-11518
ographer	-11519
▁alphabet	-11520
▁stack	-11521
▁scenes	-11522
▁machinery	-11523
govern	-11524
▁Smart	-11525
▁guided	-11526
ilty	-11527
rage	-11528
▁Ethiop	-11529
▁galaxy	-11530
sur	-11531
hops	-11532
ogene	-11533
▁tunnel	-11534
▁shortly	-11535
▁groundwater	-11536
cm	-11537
4),	-11538
▁Tips	-11539
3%	-11540
irs	-11541
opt	-11542
▁verbal	-11543
▁globally	-11544
▁traveled	-11545
▁prolonged	-11546
▁programmes	-11547
▁SO	-11548
plan	-11549
▁deals	-11550
▁mainstream	-11551
onald	-11552
▁farmer	-11553
▁fulfill	-11554
▁Saturday	-11555
▁26,	-11556
isphere	-11557
▁decomp	-11558
▁Edition	-11559
▁ignored	-11560
away	-11561
▁coin	-11562
▁digit	-11563
▁grants	-11564
▁potatoes	-11565
▁headaches	-11566
▁announce	-11567
▁smallest	-11568
egu	-11569
fn	-11570
pur	-11571
▁Pit	-11572
▁Summer	-11573
▁shield	-11574
▁recovered	-11575
▁worksheet	-11576
aki	-11577
▁lect	-11578
▁retire	-11579
▁automatic	-11580
▁methodology	-11581
▁Ball	-11582
▁oxide	-11583
▁forb	-11584
asting	-11585
▁Tibet	-11586
▁singing	-11587
▁enterprise	-11588
.2	-11589
▁bom	-11590
▁bold	-11591
▁cavity	-11592
▁pulled	-11593
▁checked	-11594
▁resur	-11595
▁Jupiter	-11596
alo	-11597
uis	-11598
▁177	-11599
▁Ages	-11600
▁attempting	-11601
▁photography	-11602
ML	-11603
eld	-11604
eland	-11605
▁Virt	-11606
▁needle	-11607
▁aquatic	-11608
▁efficacy	-11609
▁Bob	-11610
▁arbit	-11611
▁Independence	-11612
▁Imm	-11613
▁Creative	-11614
▁interpreted	-11615
arse	-11616
▁ceremony	-11617
▁Cham	-11618
▁FA	-11619
lation	-11620
▁propos	-11621
▁immense	-11622
gress	-11623
▁beta	-11624
ochemical	-11625
▁disin	-11626
▁stuck	-11627
▁Includ	-11628
onto	-11629
elson	-11630
▁Clear	-11631
▁hearts	-11632
iro	-11633
rets	-11634
▁Muh	-11635
▁datas	-11636
▁Albert	-11637
▁operators	-11638
▁SD	-11639
olith	-11640
white	-11641
▁publicly	-11642
▁indicator	-11643
▁devastating	-11644
▁static	-11645
▁Pa	-11646
natural	-11647
▁Around	-11648
▁defeated	-11649
▁campaigns	-11650
▁initiated	-11651
EST	-11652
▁prophe	-11653
▁republic	-11654
▁bay	-11655
shore	-11656
▁Bapt	-11657
▁Maria	-11658
▁Personal	-11659
▁crossing	-11660
▁historically	-11661
▁brick	-11662
▁extends	-11663
▁meanings	-11664
▁tremendous	-11665
▁ric	-11666
▁pipes	-11667
▁Eating	-11668
host	-11669
▁flies	-11670
▁gross	-11671
▁wealthy	-11672
▁pollen	-11673
▁Louisiana	-11674
▁compact	-11675
▁outdoors	-11676
One	-11677
ibli	-11678
▁rises	-11679
▁guides	-11680
▁Strateg	-11681
ilib	-11682
▁Video	-11683
▁afternoon	-11684
▁conjunction	-11685
10,	-11686
otyp	-11687
rup	-11688
▁2-	-11689
▁Build	-11690
▁Everyone	-11691
▁quantitative	-11692
▁LG	-11693
▁yoga	-11694
▁gifts	-11695
▁Freder	-11696
▁overse	-11697
▁promoted	-11698
▁residence	-11699
▁obsc	-11700
▁Hawaii	-11701
▁Impact	-11702
▁staying	-11703
▁collaborative	-11704
▁Dur	-11705
▁Nat	-11706
▁Chile	-11707
▁angles	-11708
▁mutual	-11709
▁Confederate	-11710
sun	-11711
▁makers	-11712
▁Foreign	-11713
▁ingredient	-11714
agus	-11715
▁Diagn	-11716
▁angry	-11717
▁promised	-11718
uana	-11719
▁181	-11720
▁Pil	-11721
annel	-11722
lades	-11723
▁vapor	-11724
▁Norway	-11725
▁advised	-11726
▁fled	-11727
▁Credit	-11728
▁conceptual	-11729
▁documentation	-11730
keys	-11731
scill	-11732
▁2,000	-11733
▁analyzing	-11734
warf	-11735
▁27,	-11736
▁adul	-11737
▁grey	-11738
▁Facts	-11739
▁anniversary	-11740
osex	-11741
▁grave	-11742
▁Fisher	-11743
▁affil	-11744
▁Hub	-11745
inced	-11746
▁breathe	-11747
▁volcanic	-11748
▁furniture	-11749
▁Analy	-11750
▁rings	-11751
▁Golden	-11752
▁Philip	-11753
▁arteries	-11754
▁digestion	-11755
▁hind	-11756
▁profits	-11757
lyn	-11758
▁Maybe	-11759
▁drawings	-11760
acular	-11761
▁basin	-11762
ulative	-11763
▁practitioners	-11764
▁aids	-11765
▁plaque	-11766
▁Tennessee	-11767
6%	-11768
600	-11769
comp	-11770
bestos	-11771
These	-11772
laration	-11773
orb	-11774
▁Bon	-11775
▁dreams	-11776
conf	-11777
letter	-11778
▁seemingly	-11779
▁bugs	-11780
▁fluctu	-11781
▁suppress	-11782
▁Afghanistan	-11783
apore	-11784
▁neighbors	-11785
▁15.	-11786
▁Moh	-11787
etry	-11788
▁Chen	-11789
▁counting	-11790
▁Dub	-11791
▁Pra	-11792
▁Stress	-11793
▁patch	-11794
▁movies	-11795
▁abdominal	-11796
▁2016,	-11797
▁Issue	-11798
▁Exercise	-11799
non	-11800
▁unto	-11801
▁Treaty	-11802
▁decent	-11803
▁denied	-11804
▁pushing	-11805
▁personally	-11806
▁Rap	-11807
opathy	-11808
▁Market	-11809
▁interviews	-11810
Us	-11811
imeter	-11812
monary	-11813
osaurs	-11814
▁religions	-11815
sets	-11816
▁2.5	-11817
▁rou	-11818
ococc	-11819
▁fleet	-11820
▁absent	-11821
▁Raj	-11822
▁ren	-11823
▁Anti	-11824
▁Clark	-11825
▁fungi	-11826
▁Lesson	-11827
activity	-11828
▁Previous	-11829
▁clusters	-11830
!"	-11831
uese	-11832
▁tech	-11833
etheless	-11834
▁circuits	-11835
▁membership	-11836
▁UC	-11837
olis	-11838
▁Hunt	-11839
▁boats	-11840
▁replacing	-11841
▁$2	-11842
▁Lie	-11843
▁basics	-11844
▁cannab	-11845
▁colours	-11846
▁compress	-11847
▁designers	-11848
▁transparent	-11849
▁beer	-11850
▁imbal	-11851
▁unnecessary	-11852
▁que	-11853
▁Block	-11854
▁equity	-11855
▁poisoning	-11856
Con	-11857
▁prosec	-11858
ilateral	-11859
▁aspir	-11860
▁updates	-11861
▁refriger	-11862
▁compensation	-11863
▁Tai	-11864
▁carcin	-11865
izational	-11866
IO	-11867
▁Tal	-11868
▁cher	-11869
rology	-11870
urally	-11871
oub	-11872
▁Hind	-11873
▁Total	-11874
▁archaeological	-11875
ESS	-11876
▁BBC	-11877
▁lith	-11878
▁purple	-11879
▁basket	-11880
plus	-11881
▁Evidence	-11882
▁consisted	-11883
lah	-11884
▁(197	-11885
▁endeav	-11886
▁Memorial	-11887
▁forty	-11888
lastname	-11889
▁caffeine	-11890
▁cer	-11891
▁closest	-11892
▁structured	-11893
▁butt	-11894
WS	-11895
itored	-11896
▁paths	-11897
▁governance	-11898
▁Cust	-11899
▁nucleus	-11900
▁checking	-11901
▁blockchain	-11902
ARS	-11903
▁Fri	-11904
▁Nort	-11905
▁tender	-11906
▁Command	-11907
▁arrested	-11908
uming	-11909
▁united	-11910
▁accumulation	-11911
▁47	-11912
jamin	-11913
▁strengths	-11914
▁possession	-11915
aret	-11916
athic	-11917
▁Prize	-11918
▁empir	-11919
▁Military	-11920
link	-11921
▁Sche	-11922
abetic	-11923
▁fragments	-11924
▁scheduled	-11925
▁predictions	-11926
kh	-11927
ART	-11928
▁85	-11929
▁builds	-11930
▁defining	-11931
▁interrupt	-11932
ltry	-11933
▁Nich	-11934
▁chips	-11935
▁speaks	-11936
oen	-11937
▁beef	-11938
▁overt	-11939
▁Lawrence	-11940
▁informal	-11941
▁contracts	-11942
vity	-11943
mouth	-11944
▁weren	-11945
▁voters	-11946
▁highlighted	-11947
okes	-11948
▁chim	-11949
▁counts	-11950
▁polymer	-11951
▁responded	-11952
good	-11953
▁Rain	-11954
▁emergence	-11955
▁pressures	-11956
igs	-11957
▁Fun	-11958
▁Gil	-11959
▁Iowa	-11960
▁Rena	-11961
roleum	-11962
▁Radio	-11963
96	-11964
▁panic	-11965
▁tempt	-11966
▁soldier	-11967
▁convinced	-11968
▁navigation	-11969
▁pollutants	-11970
▁breakfast	-11971
aund	-11972
▁cro	-11973
aying	-11974
▁belt	-11975
▁commemor	-11976
PC	-11977
abama	-11978
▁fails	-11979
ibration	-11980
▁cheaper	-11981
▁slide	-11982
▁castle	-11983
▁locate	-11984
▁receptor	-11985
97	-11986
angers	-11987
▁offspring	-11988
iser	-11989
first	-11990
▁Lady	-11991
▁McG	-11992
▁dual	-11993
▁magic	-11994
▁Aqu	-11995
roach	-11996
Do	-11997
▁fraud	-11998
▁biomass	-11999
▁Literature	-12000
▁Od	-12001
aments	-12002
induced	-12003
▁terminal	-12004
esy	-12005
eton	-12006
▁Persian	-12007
▁premature	-12008
8%	-12009
▁feas	-12010
▁twentieth	-12011
▁Publishing	-12012
▁alb	-12013
▁Bird	-12014
▁operator	-12015
▁projected	-12016
▁explanations	-12017
▁raises	-12018
olescent	-12019
▁dimension	-12020
▁geographical	-12021
▁Gas	-12022
▁rescue	-12023
▁relates	-12024
▁corporations	-12025
cr	-12026
fat	-12027
▁Bah	-12028
iencies	-12029
keley	-12030
▁Planning	-12031
▁Banglades	-12032
▁Typically	-12033
▁substantially	-12034
▁Commer	-12035
▁Historic	-12036
▁floating	-12037
▁neighbour	-12038
onge	-12039
▁kidneys	-12040
▁licensed	-12041
▁certified	-12042
▁mines	-12043
▁Resource	-12044
ushes	-12045
▁Definition	-12046
they	-12047
▁drag	-12048
orship	-12049
▁deple	-12050
▁traged	-12051
▁worried	-12052
▁Kentucky	-12053
▁CL	-12054
▁Person	-12055
olecular	-12056
▁unclear	-12057
organisms	-12058
▁insulation	-12059
▁glory	-12060
▁explores	-12061
▁Hell	-12062
▁hosts	-12063
▁pound	-12064
estinal	-12065
▁margin	-12066
▁geography	-12067
▁acquisition	-12068
▁SE	-12069
asis	-12070
weed	-12071
▁sore	-12072
▁regulated	-12073
▁hypertension	-12074
arma	-12075
▁lapt	-12076
▁artery	-12077
▁virtue	-12078
▁Together	-12079
▁advocate	-12080
▁presidential	-12081
▁Cert	-12082
▁Coal	-12083
▁bars	-12084
iously	-12085
graduate	-12086
.]	-12087
supp	-12088
▁Sri	-12089
urred	-12090
otechnology	-12091
▁demonstration	-12092
▁pod	-12093
▁lacking	-12094
▁consp	-12095
ovenant	-12096
▁winning	-12097
▁Cru	-12098
▁pix	-12099
screen	-12100
▁affirm	-12101
▁prejud	-12102
▁bases	-12103
▁Affairs	-12104
▁Austria	-12105
▁Tele	-12106
▁labeled	-12107
▁observing	-12108
▁illustrations	-12109
PM	-12110
▁carp	-12111
▁icon	-12112
3/	-12113
▁Appl	-12114
inates	-12115
▁Adams	-12116
▁admit	-12117
▁reads	-12118
▁Almost	-12119
▁Stanford	-12120
▁indication	-12121
fficiency	-12122
▁dirt	-12123
▁Regional	-12124
oths	-12125
▁ger	-12126
▁Past	-12127
▁Answer	-12128
unciation	-12129
▁inadequate	-12130
▁Deb	-12131
▁Executive	-12132
▁astronaut	-12133
9%	-12134
▁Hong	-12135
▁imagery	-12136
▁menstru	-12137
▁Corporation	-12138
gic	-12139
▁2006.	-12140
▁obese	-12141
ationally	-12142
▁challenged	-12143
▁Dak	-12144
▁Joh	-12145
▁Sant	-12146
▁monitored	-12147
▁corruption	-12148
▁Nobel	-12149
▁retreat	-12150
▁purchasing	-12151
▁Declaration	-12152
whe	-12153
appy	-12154
risk	-12155
▁sho	-12156
▁consultation	-12157
icul	-12158
▁Sci	-12159
assment	-12160
rasound	-12161
▁talked	-12162
▁breakdown	-12163
▁practicing	-12164
▁reliability	-12165
py	-12166
spe	-12167
▁Innov	-12168
▁Jordan	-12169
▁defect	-12170
▁headed	-12171
▁Character	-12172
▁satisfaction	-12173
jan	-12174
▁Syn	-12175
▁ignor	-12176
ighters	-12177
▁editing	-12178
▁darkness	-12179
▁integrate	-12180
▁completing	-12181
look	-12182
▁murd	-12183
▁alleged	-12184
ikh	-12185
▁symmet	-12186
▁sacrific	-12187
▁introducing	-12188
mill	-12189
heres	-12190
iasis	-12191
ulses	-12192
▁throne	-12193
ietal	-12194
▁Chemistry	-12195
attle	-12196
▁drew	-12197
▁Prevent	-12198
▁Imperial	-12199
▁radioactive	-12200
exts	-12201
odge	-12202
▁fee	-12203
▁Tour	-12204
eterm	-12205
▁Beyond	-12206
▁interference	-12207
▁Buddhism	-12208
▁socially	-12209
▁inability	-12210
▁Renaissance	-12211
▁combinations	-12212
▁pulse	-12213
▁Collection	-12214
▁steep	-12215
▁persec	-12216
▁enthusi	-12217
View	-12218
▁Youth	-12219
forward	-12220
▁shifts	-12221
▁thrown	-12222
▁emperor	-12223
▁imposed	-12224
▁rebell	-12225
▁Whit	-12226
▁tribal	-12227
▁accused	-12228
▁founding	-12229
bits	-12230
▁fart	-12231
▁bottles	-12232
itzerland	-12233
So	-12234
▁eligible	-12235
▁epit	-12236
▁evac	-12237
▁explosion	-12238
▁dated	-12239
▁vocal	-12240
▁banking	-12241
▁constitu	-12242
▁Diego	-12243
▁provinces	-12244
▁Population	-12245
▁Armen	-12246
▁whites	-12247
▁reforms	-12248
4%	-12249
▁Mechan	-12250
▁testim	-12251
▁modules	-12252
▁Astronom	-12253
▁extending	-12254
▁90%	-12255
▁Tok	-12256
▁cod	-12257
▁wax	-12258
▁trap	-12259
▁Focus	-12260
▁unders	-12261
▁Fat	-12262
▁tomb	-12263
▁edited	-12264
▁conform	-12265
▁geometry	-12266
▁AB	-12267
▁2000,	-12268
▁suited	-12269
hot	-12270
▁bes	-12271
rosis	-12272
▁noble	-12273
▁actors	-12274
▁Alabama	-12275
▁confined	-12276
▁currents	-12277
▁Veter	-12278
▁heated	-12279
▁Indiana	-12280
▁Prophet	-12281
▁Singapore	-12282
▁databases	-12283
▁elevation	-12284
AV	-12285
▁hate	-12286
▁Kenya	-12287
tics	-12288
▁HTML	-12289
▁Dental	-12290
▁belongs	-12291
▁maternal	-12292
▁intervals	-12293
fol	-12294
▁cows	-12295
▁Broad	-12296
▁crowd	-12297
▁followers	-12298
iens	-12299
▁Mong	-12300
▁searc	-12301
▁Portuguese	-12302
▁Sound	-12303
▁Looking	-12304
▁individ	-12305
▁releases	-12306
▁feat	-12307
▁quot	-12308
▁lunar	-12309
▁Protect	-12310
▁microbes	-12311
▁artifacts	-12312
▁extracted	-12313
▁volunteer	-12314
0.0	-12315
hend	-12316
adays	-12317
ewater	-12318
▁relies	-12319
▁comprehension	-12320
▁Ze	-12321
▁jun	-12322
▁USDA	-12323
▁loads	-12324
▁Country	-12325
▁inherit	-12326
▁contexts	-12327
▁brilliant	-12328
▁incidents	-12329
▁investigations	-12330
▁blame	-12331
▁Fortunately	-12332
▁grat	-12333
▁mankind	-12334
▁railway	-12335
▁स	-12336
▁exert	-12337
▁caution	-12338
▁Box	-12339
▁omega	-12340
▁bitter	-12341
▁foundations	-12342
▁Prote	-12343
▁cement	-12344
▁ED	-12345
▁Vill	-12346
▁glands	-12347
▁182	-12348
▁Kong	-12349
▁intu	-12350
▁Machine	-12351
▁veterin	-12352
▁preference	-12353
▁radar	-12354
▁compression	-12355
arb	-12356
▁surely	-12357
▁Aboriginal	-12358
▁Consequently	-12359
▁6:	-12360
▁Nurs	-12361
▁Share	-12362
▁coding	-12363
▁olive	-12364
▁evaluating	-12365
acre	-12366
pton	-12367
▁Images	-12368
▁Winter	-12369
olas	-12370
▁Words	-12371
▁Cass	-12372
▁fees	-12373
access	-12374
▁Travel	-12375
▁Syndrome	-12376
▁attending	-12377
▁passengers	-12378
▁controversy	-12379
▁Eat	-12380
iotics	-12381
87	-12382
VD	-12383
▁Pi	-12384
▁missed	-12385
▁Benjamin	-12386
oT	-12387
lav	-12388
▁wool	-12389
▁Staff	-12390
▁customs	-12391
▁constitute	-12392
▁1-	-12393
▁Si	-12394
▁bicy	-12395
▁rows	-12396
▁median	-12397
▁Activity	-12398
▁practiced	-12399
▁Les	-12400
▁sphere	-12401
▁titles	-12402
angular	-12403
iciency	-12404
▁intestinal	-12405
▁↑	-12406
▁caring	-12407
▁carrier	-12408
▁railroad	-12409
▁terrible	-12410
▁Games	-12411
▁wells	-12412
▁combining	-12413
▁intermediate	-12414
▁GP	-12415
zens	-12416
▁delight	-12417
lementary	-12418
▁Intelligence	-12419
▁95	-12420
▁jet	-12421
▁headache	-12422
▁systemic	-12423
▁survivors	-12424
▁Mas	-12425
giving	-12426
▁lining	-12427
▁melan	-12428
▁peaceful	-12429
▁promotion	-12430
ni	-12431
edge	-12432
▁Loc	-12433
▁melt	-12434
ijuana	-12435
incial	-12436
▁Editor	-12437
ilibrium	-12438
▁compete	-12439
ulent	-12440
▁fool	-12441
▁lesser	-12442
▁interval	-12443
3-	-12444
:10.10	-12445
▁Kings	-12446
▁juven	-12447
istence	-12448
▁slower	-12449
five	-12450
writing	-12451
▁Patrick	-12452
▁melting	-12453
arbon	-12454
▁asset	-12455
cription	-12456
velation	-12457
▁implant	-12458
ropolitan	-12459
▁Archives	-12460
▁impacted	-12461
▁disciplines	-12462
▁18.	-12463
▁Cab	-12464
▁commander	-12465
po	-12466
▁Hope	-12467
▁tackle	-12468
▁forgotten	-12469
▁convention	-12470
▁Bed	-12471
▁ions	-12472
▁lenses	-12473
▁Pediatric	-12474
▁biof	-12475
▁2017,	-12476
▁ozone	-12477
▁tuber	-12478
........	-12479
▁Holocaust	-12480
▁Alf	-12481
▁recru	-12482
▁2004,	-12483
▁Immun	-12484
▁warrant	-12485
▁graphics	-12486
▁symbolic	-12487
▁similarly	-12488
ochem	-12489
▁Trib	-12490
▁screw	-12491
▁nausea	-12492
▁notably	-12493
backs	-12494
▁chat	-12495
▁Visit	-12496
▁norms	-12497
▁tries	-12498
▁Alcohol	-12499
▁wounded	-12500
▁Protocol	-12501
▁triggers	-12502
.||	-12503
▁abd	-12504
▁bore	-12505
▁tear	-12506
▁Frequ	-12507
▁recur	-12508
▁revised	-12509
▁hepatitis	-12510
▁Switzerland	-12511
asted	-12512
▁Getting	-12513
▁servers	-12514
▁CF	-12515
ova	-12516
▁dozen	-12517
▁slope	-12518
▁Compan	-12519
▁occasions	-12520
▁Gro	-12521
▁champ	-12522
tically	-12523
▁intact	-12524
▁freshwater	-12525
▁’	-12526
icut	-12527
▁Castle	-12528
▁automated	-12529
▁saturated	-12530
▁spont	-12531
pective	-12532
▁Success	-12533
▁lesions	-12534
▁unhealthy	-12535
▁pharmaceutical	-12536
▁segments	-12537
▁ह	-12538
▁Wy	-12539
arms	-12540
▁80%	-12541
version	-12542
▁resident	-12543
16/	-12544
▁Brad	-12545
▁modest	-12546
▁sugars	-12547
▁lateral	-12548
▁4-	-12549
▁mixing	-12550
▁decreasing	-12551
asia	-12552
▁29,	-12553
▁Kit	-12554
immune	-12555
osures	-12556
▁Genesis	-12557
vance	-12558
▁Hans	-12559
was	-12560
▁Tu	-12561
▁Newton	-12562
▁briefly	-12563
▁voluntary	-12564
▁presenting	-12565
▁Ross	-12566
▁Financial	-12567
▁PS	-12568
▁Hun	-12569
▁inh	-12570
▁Wolf	-12571
▁pigs	-12572
▁pyram	-12573
▁subur	-12574
▁Workshe	-12575
▁Diseases	-12576
▁altogether	-12577
▁antioxidants	-12578
En	-12579
uate	-12580
▁Capital	-12581
▁inquiry	-12582
UD	-12583
▁veins	-12584
▁agenda	-12585
▁imported	-12586
matic	-12587
▁constraints	-12588
iffs	-12589
▁Upon	-12590
▁Conserv	-12591
▁proclaim	-12592
▁travels	-12593
▁fundament	-12594
▁remembered	-12595
▁citizenship	-12596
▁(7	-12597
Read	-12598
held	-12599
▁lean	-12600
▁ties	-12601
▁exams	-12602
▁seats	-12603
▁»	-12604
▁ink	-12605
▁Stock	-12606
imb	-12607
▁YO	-12608
amma	-12609
▁crystal	-12610
▁agreements	-12611
▁TB	-12612
itar	-12613
iscal	-12614
ingham	-12615
▁crossed	-12616
▁insufficient	-12617
nty	-12618
▁Kal	-12619
rosion	-12620
▁longest	-12621
forestation	-12622
▁pronounced	-12623
▁stimulation	-12624
▁tale	-12625
▁trips	-12626
▁surviving	-12627
▁modes	-12628
▁certificate	-12629
▁Lic	-12630
▁Mosc	-12631
lict	-12632
▁Tell	-12633
▁lact	-12634
▁selecting	-12635
▁concentrate	-12636
▁Anth	-12637
▁scattered	-12638
month	-12639
▁todd	-12640
▁2018.	-12641
▁thumb	-12642
▁Agricultural	-12643
▁CM	-12644
▁advocates	-12645
▁placement	-12646
▁Protestant	-12647
▁eliminated	-12648
HT	-12649
arp	-12650
▁certification	-12651
dig	-12652
erenn	-12653
imity	-12654
▁contra	-12655
▁negatively	-12656
▁Ay	-12657
▁Link	-12658
▁Allen	-12659
▁Testing	-12660
▁careers	-12661
▁creature	-12662
▁Ps	-12663
▁Song	-12664
▁landf	-12665
▁declar	-12666
▁mul	-12667
▁cups	-12668
▁activation	-12669
▁gang	-12670
ollo	-12671
▁spite	-12672
▁Nigeria	-12673
lies	-12674
▁Malays	-12675
▁Reference	-12676
▁assessing	-12677
zech	-12678
▁marker	-12679
atherine	-12680
▁legislative	-12681
lux	-12682
arity	-12683
▁airpl	-12684
▁bulbs	-12685
▁Democr	-12686
▁altitude	-12687
▁ly	-12688
▁Bangladesh	-12689
▁cultivation	-12690
energy	-12691
▁Medic	-12692
▁bridges	-12693
▁coupled	-12694
▁journals	-12695
▁legitimate	-12696
▁chemotherapy	-12697
regn	-12698
venue	-12699
▁Ground	-12700
▁banned	-12701
▁delayed	-12702
▁mosquito	-12703
▁standardized	-12704
reas	-12705
aline	-12706
reced	-12707
▁silicon	-12708
▁readings	-12709
▁activated	-12710
▁firstname	-12711
▁footprint	-12712
▁entertainment	-12713
eu	-12714
▁5-	-12715
▁odds	-12716
▁smok	-12717
▁dwell	-12718
▁inputs	-12719
▁ecology	-12720
▁variability	-12721
rea	-12722
▁competing	-12723
rade	-12724
▁Upper	-12725
▁operates	-12726
▁exclusive	-12727
▁pneumonia	-12728
PP	-12729
mus	-12730
▁cock	-12731
▁unst	-12732
▁Israeli	-12733
▁preferences	-12734
kg	-12735
▁Territ	-12736
▁extinct	-12737
▁pencil	-12738
▁newborn	-12739
▁Cuba	-12740
▁loaded	-12741
▁uncons	-12742
oping	-12743
▁deemed	-12744
▁discrimin	-12745
mates	-12746
▁artic	-12747
aughters	-12748
▁Eventually	-12749
▁opio	-12750
usions	-12751
▁admin	-12752
▁divor	-12753
▁silent	-12754
▁impaired	-12755
appropriate	-12756
illery	-12757
▁(2010	-12758
▁Greeks	-12759
dam	-12760
▁lets	-12761
▁truck	-12762
resistant	-12763
▁environmentally	-12764
ryption	-12765
▁traces	-12766
▁Biological	-12767
▁GPS	-12768
▁bip	-12769
▁bowl	-12770
▁Simon	-12771
▁legally	-12772
▁desirable	-12773
▁inclusive	-12774
▁autonomous	-12775
wind	-12776
▁MIT	-12777
▁algebra	-12778
olia	-12779
▁1994	-12780
ashing	-12781
▁descendants	-12782
▁Ku	-12783
▁Methods	-12784
ellar	-12785
▁bapt	-12786
▁pole	-12787
parent	-12788
▁realm	-12789
ierce	-12790
▁Soil	-12791
▁peas	-12792
▁triggered	-12793
▁positively	-12794
▁Kir	-12795
▁edit	-12796
▁desper	-12797
▁titled	-12798
▁requests	-12799
▁workforce	-12800
▁calculation	-12801
opter	-12802
▁Function	-12803
intestinal	-12804
letal	-12805
▁bike	-12806
▁judges	-12807
▁Parkinson	-12808
▁teachings	-12809
▁41	-12810
▁worms	-12811
()	-12812
52	-12813
54	-12814
▁Gi	-12815
▁Ara	-12816
▁Hou	-12817
▁layout	-12818
▁attribute	-12819
▁individually	-12820
▁Ye	-12821
▁closing	-12822
▁identifies	-12823
▁knock	-12824
▁stayed	-12825
▁recognised	-12826
▁undertaken	-12827
ixed	-12828
▁divisions	-12829
eman	-12830
▁naval	-12831
▁safegu	-12832
▁Domin	-12833
fortable	-12834
▁Leaders	-12835
▁secular	-12836
▁generator	-12837
▁neurological	-12838
▁Wel	-12839
▁sor	-12840
▁ruler	-12841
▁Improve	-12842
▁explicitly	-12843
▁Mathematics	-12844
▁similarities	-12845
▁sink	-12846
▁sixth	-12847
▁lighter	-12848
▁navigate	-12849
▁Dal	-12850
▁Course	-12851
▁pointing	-12852
▁retained	-12853
▁activists	-12854
▁microbial	-12855
▁sensation	-12856
▁registration	-12857
800	-12858
▁Sin	-12859
names	-12860
▁strip	-12861
▁wounds	-12862
▁employer	-12863
▁wetlands	-12864
bet	-12865
▁inspection	-12866
▁EC	-12867
▁paste	-12868
▁Berkeley	-12869
▁extensively	-12870
▁Burn	-12871
▁Kind	-12872
▁statue	-12873
▁screens	-12874
▁interfere	-12875
▁instructional	-12876
May	-12877
uma	-12878
cery	-12879
▁16.	-12880
▁10.10	-12881
▁Turkish	-12882
▁comprised	-12883
ocytes	-12884
▁Ros	-12885
▁Tech	-12886
▁damp	-12887
▁indo	-12888
▁luck	-12889
PubMed	-12890
▁2003,	-12891
▁Toronto	-12892
▁workshops	-12893
▁rehabilitation	-12894
▁Esp	-12895
▁Determ	-12896
▁refined	-12897
▁disabled	-12898
-11	-12899
▁Viol	-12900
▁mast	-12901
▁ports	-12902
▁votes	-12903
▁obstacles	-12904
▁coronavirus	-12905
▁2020.	-12906
isa	-12907
▁Ow	-12908
ugar	-12909
▁Would	-12910
▁Accessed	-12911
vo	-12912
▁brut	-12913
▁fits	-12914
▁proc	-12915
▁Anderson	-12916
53	-12917
amel	-12918
▁potent	-12919
▁coating	-12920
▁synthes	-12921
▁monetary	-12922
▁antioxidant	-12923
bled	-12924
bone	-12925
oard	-12926
▁Game	-12927
itational	-12928
▁parasites	-12929
bird	-12930
▁lawn	-12931
▁stir	-12932
▁Excel	-12933
olutions	-12934
▁patches	-12935
▁permits	-12936
▁tet	-12937
▁vic	-12938
rained	-12939
▁collaps	-12940
▁continually	-12941
▁wast	-12942
esteem	-12943
▁scrap	-12944
▁underm	-12945
▁probe	-12946
▁guilty	-12947
▁rating	-12948
▁inspire	-12949
Col	-12950
▁Dog	-12951
▁Sel	-12952
▁template	-12953
Eng	-12954
ben	-12955
▁gel	-12956
▁checks	-12957
▁Regular	-12958
▁Orthodox	-12959
▁strictly	-12960
rans	-12961
▁Walter	-12962
▁besides	-12963
▁dispute	-12964
▁dependence	-12965
▁withdrawal	-12966
▁ok	-12967
pers	-12968
▁lasted	-12969
▁retrie	-12970
▁worlds	-12971
▁Brook	-12972
▁cruel	-12973
▁Better	-12974
▁Police	-12975
erto	-12976
sens	-12977
▁downt	-12978
▁offset	-12979
▁strikes	-12980
▁DS	-12981
▁Pack	-12982
▁wires	-12983
▁mitochond	-12984
▁outstanding	-12985
rubs	-12986
▁Douglas	-12987
▁destructive	-12988
LC	-12989
roups	-12990
▁Prob	-12991
▁Anton	-12992
▁sends	-12993
▁Easter	-12994
▁consolid	-12995
▁considers	-12996
▁700	-12997
▁Skin	-12998
▁diesel	-12999
▁functionality	-13000
62	-13001
ambo	-13002
eech	-13003
▁orth	-13004
▁Maine	-13005
▁charts	-13006
▁reinforce	-13007
▁separately	-13008
▁upset	-13009
▁modify	-13010
▁Initiative	-13011
▁130	-13012
▁Syd	-13013
lahoma	-13014
▁Alliance	-13015
-17	-13016
▁behave	-13017
▁shells	-13018
▁ty	-13019
▁Higher	-13020
▁unpreced	-13021
▁mosquitoes	-13022
▁Return	-13023
▁warned	-13024
▁Muhammad	-13025
▁Title	-13026
▁plastics	-13027
▁dissolved	-13028
▁surroundings	-13029
olit	-13030
rock	-13031
▁toll	-13032
▁joining	-13033
▁depicted	-13034
▁transported	-13035
xic	-13036
▁Fif	-13037
▁Luke	-13038
itives	-13039
obacter	-13040
▁blocked	-13041
▁Recently	-13042
▁prosperity	-13043
▁threatening	-13044
km	-13045
▁sake	-13046
▁Causes	-13047
▁landscapes	-13048
▁unprecedented	-13049
7/	-13050
▁MRI	-13051
▁watched	-13052
▁acknowledged	-13053
▁economically	-13054
owed	-13055
ucks	-13056
▁Pos	-13057
▁harmony	-13058
heum	-13059
▁Hart	-13060
person	-13061
▁Annual	-13062
▁Moscow	-13063
▁displace	-13064
▁Technical	-13065
▁conception	-13066
7–	-13067
phen	-13068
▁Aer	-13069
▁sword	-13070
▁autumn	-13071
▁oscill	-13072
▁scarce	-13073
▁accommodate	-13074
MD	-13075
amous	-13076
▁sanct	-13077
▁tablets	-13078
▁Industry	-13079
▁Software	-13080
▁Torah	-13081
▁critics	-13082
▁dysfunction	-13083
▁cous	-13084
▁Award	-13085
▁transit	-13086
▁uncommon	-13087
▁Authority	-13088
▁settlements	-13089
yers	-13090
▁Aristot	-13091
rish	-13092
▁Beng	-13093
▁poultry	-13094
▁warfare	-13095
▁transaction	-13096
▁mush	-13097
▁snakes	-13098
▁mechanics	-13099
▁Wright	-13100
▁floods	-13101
▁peripheral	-13102
▁disappeared	-13103
nee	-13104
proof	-13105
▁Night	-13106
otional	-13107
▁therapist	-13108
aga	-13109
▁Haz	-13110
▁ore	-13111
wealth	-13112
▁Imagine	-13113
▁Hyp	-13114
▁ate	-13115
▁inval	-13116
▁millenn	-13117
Im	-13118
▁2005.	-13119
▁breeds	-13120
▁exploitation	-13121
▁Bud	-13122
▁amph	-13123
▁Nuclear	-13124
▁instructor	-13125
▁Myth	-13126
▁(2011	-13127
▁rash	-13128
cat	-13129
▁grab	-13130
arency	-13131
▁freed	-13132
▁Skills	-13133
▁remedy	-13134
▁flowering	-13135
eps	-13136
▁Pred	-13137
▁erad	-13138
▁nurt	-13139
onduct	-13140
▁regards	-13141
▁Einstein	-13142
▁eliminating	-13143
▁Ms	-13144
▁Roc	-13145
▁ank	-13146
▁bod	-13147
▁seas	-13148
▁gay	-13149
▁info	-13150
▁drill	-13151
▁ranks	-13152
▁plural	-13153
OV	-13154
▁]	-13155
▁elaborate	-13156
post	-13157
itime	-13158
▁Salt	-13159
ancies	-13160
▁grasp	-13161
▁planes	-13162
▁Emergency	-13163
▁jurisdiction	-13164
▁lux	-13165
▁combustion	-13166
rones	-13167
▁Loss	-13168
▁burial	-13169
▁intens	-13170
▁critically	-13171
▁phon	-13172
ometric	-13173
▁glasses	-13174
htm	-13175
▁AF	-13176
aran	-13177
▁crafts	-13178
▁Swedish	-13179
▁fossils	-13180
▁maintains	-13181
educ	-13182
▁outbreaks	-13183
unes	-13184
izoph	-13185
▁pumps	-13186
▁priests	-13187
▁baseline	-13188
▁Southeast	-13189
alin	-13190
▁Hug	-13191
esthes	-13192
▁binary	-13193
▁prediction	-13194
▁Ts	-13195
third	-13196
▁Gram	-13197
▁liber	-13198
▁tutorial	-13199
▁alleg	-13200
▁embrace	-13201
aus	-13202
uated	-13203
ricular	-13204
▁strings	-13205
▁connects	-13206
▁struggles	-13207
Com	-13208
oglob	-13209
▁strat	-13210
▁delivering	-13211
lan	-13212
▁Lanc	-13213
▁intrig	-13214
▁RF	-13215
Tube	-13216
▁Term	-13217
▁races	-13218
powered	-13219
▁Oklahoma	-13220
▁triangle	-13221
▁questionna	-13222
erk	-13223
len	-13224
four	-13225
▁unsu	-13226
▁gluten	-13227
imination	-13228
idel	-13229
▁oct	-13230
▁Hamilton	-13231
▁untreated	-13232
▁stretching	-13233
▁unwanted	-13234
chi	-13235
idth	-13236
oriented	-13237
▁Palestine	-13238
▁Connecticut	-13239
opor	-13240
▁yog	-13241
▁Beach	-13242
▁variants	-13243
▁sufficiently	-13244
▁investigating	-13245
▁Dick	-13246
▁evolve	-13247
▁Heat	-13248
▁sour	-13249
hematic	-13250
▁afterwards	-13251
▁Traditional	-13252
▁dos	-13253
▁Vacc	-13254
▁plug	-13255
▁outlined	-13256
▁EV	-13257
▁Gand	-13258
▁bats	-13259
▁supportive	-13260
eded	-13261
▁PRO	-13262
othel	-13263
▁fired	-13264
▁hoped	-13265
▁cortex	-13266
▁enrich	-13267
▁Explain	-13268
▁Summary	-13269
▁drilling	-13270
▁tourists	-13271
▁gardening	-13272
▁Too	-13273
otive	-13274
▁Joint	-13275
acerb	-13276
▁Poor	-13277
▁dump	-13278
▁soda	-13279
▁inventory	-13280
▁40%	-13281
▁thou	-13282
▁bench	-13283
izophren	-13284
▁Weather	-13285
▁perceive	-13286
▁generates	-13287
▁subjected	-13288
▁Bishop	-13289
▁walked	-13290
▁watershed	-13291
▁harvesting	-13292
Pe	-13293
▁Lakes	-13294
▁everybody	-13295
▁impairment	-13296
▁unconscious	-13297
▁Weight	-13298
▁damages	-13299
▁inserted	-13300
▁linguistic	-13301
▁PV	-13302
▁10-	-13303
▁tomatoes	-13304
▁wellbeing	-13305
bound	-13306
▁Notes	-13307
▁consec	-13308
▁jack	-13309
▁toxicity	-13310
▁cultivated	-13311
▁electromagnetic	-13312
▁Publ	-13313
▁Sarah	-13314
▁Extension	-13315
dy	-13316
agu	-13317
vas	-13318
onut	-13319
stan	-13320
marks	-13321
▁stocks	-13322
▁Philosophy	-13323
▁VI	-13324
▁CON	-13325
▁Apart	-13326
▁valued	-13327
▁billions	-13328
▁passages	-13329
ORD	-13330
two	-13331
alling	-13332
▁cater	-13333
▁hungry	-13334
63	-13335
▁Dark	-13336
▁purely	-13337
▁Ukraine	-13338
▁empathy	-13339
▁prototype	-13340
▁negotiations	-13341
▁Oak	-13342
▁mant	-13343
▁Czech	-13344
▁dignity	-13345
▁examines	-13346
50,	-13347
ili	-13348
ilies	-13349
▁hasn	-13350
threat	-13351
▁gallons	-13352
▁surgeon	-13353
▁Could	-13354
▁fusion	-13355
▁inevitable	-13356
PE	-13357
ulture	-13358
articles	-13359
roscience	-13360
▁seizures	-13361
▁uncomfortable	-13362
aman	-13363
▁permanently	-13364
▁Fox	-13365
▁rival	-13366
▁recipe	-13367
▁forcing	-13368
▁parameter	-13369
▁achievements	-13370
▁packed	-13371
pher	-13372
rehend	-13373
▁myths	-13374
▁assass	-13375
▁failing	-13376
▁factories	-13377
▁q	-13378
▁Mun	-13379
ioned	-13380
▁invisible	-13381
▁primitive	-13382
▁cum	-13383
▁wheels	-13384
▁eternal	-13385
▁promises	-13386
▁Dry	-13387
▁quoted	-13388
ogenesis	-13389
▁Various	-13390
▁gasoline	-13391
bin	-13392
engu	-13393
▁lion	-13394
▁praise	-13395
▁Proceed	-13396
▁handful	-13397
▁Problems	-13398
▁restaurants	-13399
perature	-13400
▁deployed	-13401
▁acet	-13402
▁metall	-13403
▁potato	-13404
▁Universe	-13405
note	-13406
▁silk	-13407
▁Pharm	-13408
▁trunk	-13409
▁weeds	-13410
▁Members	-13411
Ab	-13412
▁TR	-13413
▁mas	-13414
▁orch	-13415
▁rhet	-13416
ennis	-13417
▁draws	-13418
Te	-13419
▁gently	-13420
▁solved	-13421
▁Chronic	-13422
▁priorit	-13423
▁voy	-13424
acity	-13425
▁somehow	-13426
▁episodes	-13427
▁traumatic	-13428
▁compromise	-13429
▁transcript	-13430
▁accordingly	-13431
▁rum	-13432
▁2001,	-13433
▁Fried	-13434
▁dozens	-13435
▁Growth	-13436
▁spirits	-13437
▁designer	-13438
▁publishing	-13439
Qu	-13440
oz	-13441
pler	-13442
wich	-13443
▁Multiple	-13444
▁illustrates	-13445
▁toilet	-13446
▁trains	-13447
▁centres	-13448
▁biblical	-13449
esar	-13450
imore	-13451
▁tears	-13452
▁clinic	-13453
▁Bitcoin	-13454
▁Description	-13455
raul	-13456
▁17.	-13457
▁Nan	-13458
▁hub	-13459
▁piano	-13460
▁whale	-13461
▁Sydney	-13462
▁immers	-13463
▁nationwide	-13464
▁aug	-13465
▁Venus	-13466
▁deficit	-13467
▁exacerb	-13468
▁terrain	-13469
▁directory	-13470
▁appliances	-13471
avy	-13472
▁delicate	-13473
▁earthquakes	-13474
▁ventilation	-13475
▁strengthening	-13476
ocide	-13477
▁Ever	-13478
imental	-13479
▁Region	-13480
▁Simple	-13481
▁enroll	-13482
path	-13483
▁True	-13484
▁cram	-13485
▁infrared	-13486
▁arrangements	-13487
adi	-13488
oni	-13489
▁seaf	-13490
▁sits	-13491
▁fungus	-13492
▁Denmark	-13493
▁matching	-13494
▁Camb	-13495
vasive	-13496
▁Basin	-13497
▁riding	-13498
▁publish	-13499
▁microscope	-13500
uction	-13501
▁Quant	-13502
▁innovations	-13503
▁modification	-13504
▁attachment	-13505
▁appreciation	-13506
Cs	-13507
▁isot	-13508
▁succ	-13509
▁Datab	-13510
▁Queens	-13511
▁witnessed	-13512
▁astronomers	-13513
4-	-13514
aux	-13515
cerpt	-13516
▁moder	-13517
▁frames	-13518
▁monarch	-13519
▁passenger	-13520
ipse	-13521
ierra	-13522
ifiers	-13523
▁alignment	-13524
▁reconstruct	-13525
▁Professional	-13526
Can	-13527
▁IL	-13528
test	-13529
PT	-13530
▁disse	-13531
▁posture	-13532
▁Hait	-13533
▁dece	-13534
▁apples	-13535
▁Eye	-13536
lihood	-13537
▁Saturn	-13538
▁schemes	-13539
▁exceptional	-13540
AND	-13541
▁170	-13542
▁Gib	-13543
▁landed	-13544
▁unions	-13545
▁Problem	-13546
▁authentic	-13547
sels	-13548
▁Der	-13549
atics	-13550
▁Stage	-13551
▁retention	-13552
▁requested	-13553
ania	-13554
▁Dakota	-13555
▁bureau	-13556
abs	-13557
log	-13558
With	-13559
anny	-13560
▁Chi	-13561
▁cel	-13562
▁rip	-13563
ignty	-13564
▁energ	-13565
▁rigid	-13566
▁Legisl	-13567
▁Animals	-13568
▁asbestos	-13569
▁OK	-13570
▁31,	-13571
▁Ens	-13572
▁mobil	-13573
▁stamp	-13574
Lear	-13575
rost	-13576
ulas	-13577
▁goddess	-13578
▁proposals	-13579
▁Activities	-13580
▁Brig	-13581
▁dwarf	-13582
▁anxious	-13583
4:	-13584
▁likes	-13585
▁parish	-13586
▁urgent	-13587
▁Moore	-13588
▁cervical	-13589
▁sexually	-13590
▁Economics	-13591
▁municipal	-13592
▁sequencing	-13593
▁ram	-13594
▁Live	-13595
▁bloom	-13596
▁elite	-13597
▁Gospel	-13598
tech	-13599
▁Dra	-13600
▁nasal	-13601
▁keyboard	-13602
▁sanitation	-13603
MM	-13604
▁30%	-13605
bling	-13606
▁drum	-13607
▁folks	-13608
▁stain	-13609
▁formerly	-13610
coma	-13611
expl	-13612
▁Run	-13613
rophy	-13614
▁palace	-13615
▁clarity	-13616
▁emphasize	-13617
▁counterparts	-13618
▁Ky	-13619
inar	-13620
▁queen	-13621
▁intestine	-13622
▁1/2	-13623
▁Joe	-13624
leans	-13625
▁rolling	-13626
▁suspended	-13627
▁weed	-13628
▁2002,	-13629
Or	-13630
don	-13631
▁excluded	-13632
⁄2	-13633
▁da	-13634
stud	-13635
▁Foot	-13636
autions	-13637
▁verify	-13638
▁56	-13639
▁Eu	-13640
rots	-13641
▁Cand	-13642
▁Howard	-13643
▁compiled	-13644
▁organizational	-13645
▁Ltd	-13646
▁Lank	-13647
▁clot	-13648
culosis	-13649
▁Sports	-13650
▁trapped	-13651
▁1).	-13652
▁utilizing	-13653
esty	-13654
▁Plus	-13655
dependent	-13656
▁Magazine	-13657
uliar	-13658
▁LGBT	-13659
▁frost	-13660
▁2000.	-13661
▁specify	-13662
="	-13663
BL	-13664
▁McK	-13665
▁lin	-13666
▁Prep	-13667
▁arom	-13668
▁stool	-13669
▁sulfur	-13670
▁companion	-13671
ipt	-13672
▁Pun	-13673
depth	-13674
amation	-13675
▁trillion	-13676
▁satisfied	-13677
hol	-13678
ante	-13679
iatry	-13680
▁apost	-13681
▁feathers	-13682
▁chromosome	-13683
▁arsen	-13684
ilingual	-13685
▁incentives	-13686
▁mad	-13687
▁prelim	-13688
▁YouTube	-13689
▁obtaining	-13690
▁philosopher	-13691
aza	-13692
▁Ka	-13693
emen	-13694
▁freezing	-13695
▁Fest	-13696
ulatory	-13697
▁induce	-13698
▁Wi	-13699
insic	-13700
▁shark	-13701
GA	-13702
mind	-13703
▁pour	-13704
▁Graph	-13705
▁allev	-13706
▁Europeans	-13707
▁mysterious	-13708
▁conditioning	-13709
pin	-13710
John	-13711
ardo	-13712
▁URL	-13713
▁microbi	-13714
adows	-13715
▁jewel	-13716
▁Alexand	-13717
▁berries	-13718
▁Partners	-13719
fin	-13720
▁hob	-13721
▁portable	-13722
▁approaching	-13723
▁vulnerability	-13724
▁7:	-13725
alry	-13726
▁20.	-13727
▁hes	-13728
▁ants	-13729
▁Anglo	-13730
▁adjusted	-13731
stock	-13732
Table	-13733
▁Parks	-13734
▁SA	-13735
pose	-13736
ysics	-13737
▁macro	-13738
▁Consult	-13739
▁defence	-13740
▁preliminary	-13741
dem	-13742
▁58	-13743
▁eager	-13744
▁traff	-13745
▁shooting	-13746
▁dot	-13747
overs	-13748
▁Delhi	-13749
ensions	-13750
▁Bron	-13751
▁Late	-13752
▁crystals	-13753
▁problematic	-13754
.(	-13755
driven	-13756
▁Snow	-13757
▁perenn	-13758
▁teenagers	-13759
aunt	-13760
via	-13761
ector	-13762
▁Join	-13763
▁Record	-13764
▁drying	-13765
▁investing	-13766
▁140	-13767
▁Citiz	-13768
▁blade	-13769
▁lowering	-13770
uter	-13771
▁Bos	-13772
▁Cos	-13773
▁Alph	-13774
ository	-13775
▁secured	-13776
▁friction	-13777
▁110	-13778
▁oak	-13779
▁sins	-13780
▁Changes	-13781
▁urinary	-13782
▁Antarctic	-13783
▁perceptions	-13784
▁variant	-13785
▁asym	-13786
▁Critical	-13787
▁offensive	-13788
ouch	-13789
upun	-13790
▁Ord	-13791
▁hay	-13792
▁burns	-13793
▁rulers	-13794
▁indoors	-13795
▁equilibrium	-13796
FA	-13797
▁×	-13798
▁Lef	-13799
▁ana	-13800
urities	-13801
▁Recomm	-13802
▁Orleans	-13803
▁pursuit	-13804
▁instinct	-13805
▁translate	-13806
▁Guidelines	-13807
sight	-13808
▁bulb	-13809
▁harness	-13810
▁Academic	-13811
▁analytical	-13812
▁recommendation	-13813
▁Bull	-13814
▁rept	-13815
▁2018,	-13816
▁Sudan	-13817
▁editors	-13818
▁heading	-13819
TSD	-13820
▁Nelson	-13821
▁learner	-13822
▁birthday	-13823
▁monaster	-13824
▁countless	-13825
▁abdomen	-13826
▁diamond	-13827
▁stopping	-13828
▁temporal	-13829
▁Agreement	-13830
bitious	-13831
hew	-13832
ulse	-13833
▁rust	-13834
▁adhes	-13835
▁shops	-13836
▁barely	-13837
▁remedies	-13838
▁resolved	-13839
▁interconn	-13840
▁medicinal	-13841
reach	-13842
arming	-13843
▁Harry	-13844
▁tourist	-13845
▁Complete	-13846
▁entrepreneurs	-13847
pack	-13848
ppers	-13849
second	-13850
▁balls	-13851
▁silence	-13852
▁respondents	-13853
only	-13854
estab	-13855
▁fans	-13856
▁civilian	-13857
pres	-13858
▁Lev	-13859
building	-13860
▁pressing	-13861
▁demanding	-13862
▁Federation	-13863
artz	-13864
vised	-13865
▁comprises	-13866
▁strongest	-13867
▁reflecting	-13868
▁upt	-13869
▁incons	-13870
▁descent	-13871
▁demanded	-13872
▁ministry	-13873
▁vascular	-13874
▁electroly	-13875
IH	-13876
obia	-13877
▁Wang	-13878
▁Content	-13879
▁temples	-13880
▁harvested	-13881
▁wilderness	-13882
▁consistency	-13883
▁oun	-13884
▁File	-13885
▁watering	-13886
▁Communist	-13887
▁epic	-13888
▁shame	-13889
▁Colomb	-13890
cellular	-13891
▁lectures	-13892
▁exceptions	-13893
▁pm	-13894
houses	-13895
retion	-13896
▁Brand	-13897
▁allies	-13898
▁Ottoman	-13899
▁Proceedings	-13900
irie	-13901
rians	-13902
▁Thor	-13903
oporosis	-13904
istle	-13905
▁Cart	-13906
▁fifteen	-13907
▁Northwest	-13908
▁substrate	-13909
▁breakthrough	-13910
▁abnormalities	-13911
some	-13912
▁dupl	-13913
▁retired	-13914
▁fracture	-13915
▁interven	-13916
▁likewise	-13917
▁daughters	-13918
▁specially	-13919
opsy	-13920
▁Juda	-13921
ynthesis	-13922
92	-13923
▁Tob	-13924
▁failures	-13925
▁wherever	-13926
▁membranes	-13927
vic	-13928
||1	-13929
▁appar	-13930
61	-13931
▁hoping	-13932
▁washed	-13933
▁Alt	-13934
▁Khan	-13935
▁ammon	-13936
▁Margaret	-13937
▁singular	-13938
▁aggression	-13939
SE	-13940
illes	-13941
▁Chair	-13942
▁cargo	-13943
▁Apollo	-13944
▁inferior	-13945
▁adventure	-13946
-30	-13947
▁reproduce	-13948
72	-13949
ige	-13950
▁jar	-13951
rator	-13952
▁timely	-13953
▁Religion	-13954
▁obligation	-13955
▁communicating	-13956
▁modifications	-13957
som	-13958
▁Cov	-13959
lighten	-13960
▁microw	-13961
▁Creating	-13962
▁Hold	-13963
▁Foods	-13964
▁horizon	-13965
SP	-13966
cha	-13967
▁EL	-13968
ificant	-13969
▁tragedy	-13970
▁Base	-13971
▁Gord	-13972
▁Cloud	-13973
▁woods	-13974
▁metaphor	-13975
etric	-13976
▁52	-13977
▁8:	-13978
▁Cas	-13979
▁USS	-13980
▁deny	-13981
▁flee	-13982
▁differs	-13983
▁beverages	-13984
▁underwater	-13985
▁supervision	-13986
IE	-13987
news	-13988
▁Gab	-13989
neath	-13990
▁yards	-13991
ativity	-13992
▁petition	-13993
lie	-13994
pit	-13995
orrh	-13996
▁Byz	-13997
▁Measure	-13998
axis	-13999
ylene	-14000
imated	-14001
▁pipeline	-14002
▁ket	-14003
icates	-14004
▁propri	-14005
▁submar	-14006
▁tonnes	-14007
▁kindergarten	-14008
▁Hi	-14009
mans	-14010
piece	-14011
▁Jenn	-14012
source	-14013
▁lawyer	-14014
astically	-14015
▁Christopher	-14016
9–	-14017
alg	-14018
elta	-14019
week	-14020
ocene	-14021
▁shelf	-14022
▁microorganisms	-14023
▁infest	-14024
51	-14025
▁Thom	-14026
▁spill	-14027
▁Michel	-14028
▁Planet	-14029
▁fathers	-14030
▁turtles	-14031
▁appropriately	-14032
▁Rot	-14033
▁Frederick	-14034
atis	-14035
▁wishes	-14036
▁charging	-14037
▁ecl	-14038
ophers	-14039
▁assembled	-14040
▁illustration	-14041
▁Napole	-14042
▁enhancing	-14043
▁righteous	-14044
▁iv	-14045
▁Used	-14046
▁Curriculum	-14047
▁supporters	-14048
tha	-14049
▁Ta	-14050
▁toy	-14051
▁Price	-14052
▁excite	-14053
▁curiosity	-14054
▁obligations	-14055
▁presentations	-14056
isan	-14057
ograms	-14058
herence	-14059
▁garlic	-14060
▁Babylon	-14061
▁trusted	-14062
izophrenia	-14063
▁friendship	-14064
▁DE	-14065
▁anemia	-14066
▁entries	-14067
▁adulthood	-14068
▁livelihood	-14069
▁1992	-14070
▁cookies	-14071
▁dynasty	-14072
▁Stra	-14073
▁burst	-14074
▁Clinton	-14075
▁resting	-14076
▁formally	-14077
▁peculiar	-14078
▁preserving	-14079
▁recreational	-14080
By	-14081
elle	-14082
▁lady	-14083
▁deriv	-14084
▁wastewater	-14085
▁dye	-14086
▁pile	-14087
▁drama	-14088
▁carved	-14089
▁easiest	-14090
▁farther	-14091
▁holidays	-14092
▁bug	-14093
▁acre	-14094
▁pseud	-14095
▁acidic	-14096
▁americ	-14097
▁Records	-14098
▁recipes	-14099
▁combines	-14100
▁stimulus	-14101
▁fisheries	-14102
▁4)	-14103
▁trash	-14104
▁grazing	-14105
▁revision	-14106
▁troubles	-14107
▁gravitational	-14108
nowned	-14109
▁masks	-14110
▁citation	-14111
▁colorful	-14112
▁ultrasound	-14113
-16	-14114
▁Bart	-14115
▁filed	-14116
▁worthy	-14117
▁intoler	-14118
▁proximity	-14119
▁smile	-14120
achelor	-14121
▁desires	-14122
▁mitigate	-14123
roximately	-14124
▁respected	-14125
antry	-14126
group	-14127
inters	-14128
▁Birth	-14129
▁arises	-14130
▁hanging	-14131
▁Disorder	-14132
▁CC	-14133
▁Batt	-14134
ivic	-14135
▁acted	-14136
versely	-14137
▁recruit	-14138
▁straightforward	-14139
Fi	-14140
▁Peru	-14141
▁storing	-14142
Ne	-14143
▁Nev	-14144
ifiable	-14145
▁cylinder	-14146
▁touching	-14147
serv	-14148
site	-14149
▁Sad	-14150
uning	-14151
▁glue	-14152
▁pean	-14153
▁lasts	-14154
▁Aristotle	-14155
▁sie	-14156
emics	-14157
▁Soon	-14158
▁Stay	-14159
▁hect	-14160
▁networking	-14161
▁priorities	-14162
▁prohibited	-14163
pop	-14164
▁Stop	-14165
▁stro	-14166
▁occasional	-14167
▁responding	-14168
uto	-14169
▁Ga	-14170
▁Say	-14171
▁Mort	-14172
▁Alber	-14173
▁fright	-14174
▁Explore	-14175
▁marijuana	-14176
enc	-14177
fram	-14178
▁Ori	-14179
endix	-14180
style	-14181
agrams	-14182
▁imped	-14183
▁adject	-14184
▁erected	-14185
▁letting	-14186
▁protests	-14187
▁Amb	-14188
▁Vien	-14189
keeping	-14190
▁Organic	-14191
▁Marshall	-14192
uz	-14193
limited	-14194
▁litter	-14195
brev	-14196
rative	-14197
▁crude	-14198
▁hotel	-14199
▁seism	-14200
expensive	-14201
▁parental	-14202
Res	-14203
leys	-14204
▁coh	-14205
▁Isaac	-14206
▁disappoint	-14207
laim	-14208
▁wre	-14209
width	-14210
▁dolph	-14211
▁Hopkins	-14212
▁Allow	-14213
▁noting	-14214
▁mandatory	-14215
▁neighboring	-14216
ATE	-14217
▁Lam	-14218
▁1991	-14219
▁Verm	-14220
▁tent	-14221
▁Cover	-14222
▁quotes	-14223
▁sharks	-14224
▁satisfy	-14225
/20	-14226
5),	-14227
igo	-14228
adian	-14229
▁Lang	-14230
▁dens	-14231
▁elephant	-14232
edic	-14233
▁charity	-14234
SD	-14235
▁rif	-14236
▁Square	-14237
▁maximize	-14238
hu	-14239
▁Abs	-14240
control	-14241
▁Calcul	-14242
▁contacts	-14243
▁Individuals	-14244
pub	-14245
iage	-14246
urate	-14247
▁snack	-14248
▁stresses	-14249
▁switching	-14250
▁..	-14251
prot	-14252
▁0.5	-14253
▁tie	-14254
▁gover	-14255
utenant	-14256
▁anyway	-14257
▁treasure	-14258
▁compelling	-14259
7:	-14260
alia	-14261
walk	-14262
onder	-14263
▁batt	-14264
▁rituals	-14265
▁Document	-14266
▁discourse	-14267
ti	-14268
zes	-14269
aden	-14270
ensing	-14271
▁coping	-14272
esterday	-14273
▁ambitious	-14274
▁Band	-14275
▁Athens	-14276
▁reluct	-14277
▁Concept	-14278
▁handled	-14279
▁tactics	-14280
▁organizing	-14281
▁±	-14282
▁25%	-14283
▁Rule	-14284
▁exit	-14285
▁Photos	-14286
▁disagree	-14287
home	-14288
▁Dead	-14289
▁tire	-14290
▁Simply	-14291
▁novels	-14292
▁producer	-14293
▁emphasized	-14294
▁Safe	-14295
▁pedest	-14296
▁kern	-14297
conscious	-14298
▁wellness	-14299
▁Programme	-14300
-14	-14301
▁bol	-14302
oubted	-14303
▁Adapt	-14304
▁dermat	-14305
▁aligned	-14306
▁homeless	-14307
▁surprisingly	-14308
▁radius	-14309
▁shower	-14310
▁Eve	-14311
▁Roberts	-14312
▁Subject	-14313
▁formats	-14314
▁judicial	-14315
▁empirical	-14316
▁favorable	-14317
ryst	-14318
▁McD	-14319
▁buffer	-14320
rod	-14321
odus	-14322
prises	-14323
▁Forum	-14324
▁Occup	-14325
▁Signs	-14326
▁Steve	-14327
▁clues	-14328
▁72	-14329
▁Few	-14330
▁bush	-14331
OG	-14332
lem	-14333
itated	-14334
▁alternate	-14335
erce	-14336
▁comparative	-14337
▁commissioned	-14338
▁→	-14339
▁mol	-14340
ridge	-14341
▁Born	-14342
▁stew	-14343
ardless	-14344
▁textbook	-14345
▁targeting	-14346
▁Saud	-14347
▁puzzle	-14348
▁Address	-14349
▁tomorrow	-14350
esthet	-14351
▁cubic	-14352
▁cosmic	-14353
▁Virtual	-14354
▁beaches	-14355
▁simpler	-14356
▁abortion	-14357
▁capitalism	-14358
▁simulations	-14359
▁temporarily	-14360
▁Hud	-14361
▁incub	-14362
▁Manufact	-14363
▁Argentina	-14364
▁Everything	-14365
▁authorized	-14366
3;	-14367
700	-14368
▁Eric	-14369
▁flags	-14370
▁Harris	-14371
▁salvation	-14372
▁phosphorus	-14373
▁humanitarian	-14374
▁portrait	-14375
▁2004.	-14376
▁Chris	-14377
▁Range	-14378
▁servants	-14379
▁shortage	-14380
ailand	-14381
▁scans	-14382
▁armies	-14383
▁Sah	-14384
ylogen	-14385
▁discount	-14386
▁NAT	-14387
▁Whatever	-14388
▁practically	-14389
doc	-14390
▁Ru	-14391
▁10:	-14392
▁seam	-14393
▁thir	-14394
▁Hyper	-14395
▁expressing	-14396
cost	-14397
ilage	-14398
ocate	-14399
▁1989	-14400
▁climb	-14401
▁resort	-14402
breaking	-14403
▁domains	-14404
▁stimuli	-14405
▁adaptive	-14406
▁profiles	-14407
▁declining	-14408
ymn	-14409
▁fost	-14410
▁limbs	-14411
▁Finland	-14412
▁depressed	-14413
aron	-14414
opard	-14415
esthesia	-14416
▁exports	-14417
▁claiming	-14418
▁Victorian	-14419
▁signaling	-14420
uru	-14421
▁HE	-14422
▁asleep	-14423
▁momentum	-14424
▁signature	-14425
chy	-14426
▁95%	-14427
▁Estab	-14428
▁intim	-14429
▁stays	-14430
interest	-14431
ctica	-14432
▁nearest	-14433
upuncture	-14434
▁infinite	-14435
ocur	-14436
▁flux	-14437
brates	-14438
▁retirement	-14439
▁प	-14440
▁ib	-14441
olen	-14442
▁Tow	-14443
▁Gender	-14444
▁fitted	-14445
▁Brother	-14446
▁corrupt	-14447
food	-14448
direct	-14449
ivated	-14450
▁runoff	-14451
ressions	-14452
▁elastic	-14453
▁foliage	-14454
▁restaurant	-14455
▁cruc	-14456
▁Manual	-14457
▁Memory	-14458
▁patron	-14459
threatening	-14460
▁documentary	-14461
tem	-14462
▁gig	-14463
orical	-14464
▁blend	-14465
▁voted	-14466
▁dinosaurs	-14467
▁petroleum	-14468
▁LE	-14469
acial	-14470
mother	-14471
▁reass	-14472
▁Guinea	-14473
orescent	-14474
▁reductions	-14475
▁Nag	-14476
charge	-14477
▁gauge	-14478
▁marry	-14479
▁Friends	-14480
eat	-14481
▁None	-14482
ulator	-14483
▁poses	-14484
icultural	-14485
▁maturity	-14486
▁Tel	-14487
▁spider	-14488
▁Respons	-14489
▁volcano	-14490
▁testimony	-14491
▁Performance	-14492
isol	-14493
odia	-14494
▁Flore	-14495
▁declare	-14496
▁pulmonary	-14497
▁subjective	-14498
1):	-14499
uce	-14500
ensis	-14501
▁hell	-14502
▁(2000	-14503
▁theor	-14504
▁congest	-14505
▁counseling	-14506
TR	-14507
▁54	-14508
ulph	-14509
▁hierarchy	-14510
▁participant	-14511
▁incorporating	-14512
▁Recon	-14513
▁sprou	-14514
▁metric	-14515
▁penalty	-14516
orse	-14517
otine	-14518
▁tide	-14519
▁bullet	-14520
▁Iceland	-14521
▁Baltimore	-14522
84	-14523
▁5%	-14524
chem	-14525
inge	-14526
▁bon	-14527
▁semic	-14528
▁tales	-14529
▁trucks	-14530
▁museums	-14531
▁memorial	-14532
▁upcoming	-14533
▁numerical	-14534
prof	-14535
atern	-14536
▁comply	-14537
▁gradual	-14538
▁justify	-14539
▁Spect	-14540
▁laugh	-14541
olithic	-14542
▁hollow	-14543
▁treats	-14544
▁autonomy	-14545
▁composite	-14546
▁definitive	-14547
▁sovereignty	-14548
ESCO	-14549
▁carn	-14550
▁keen	-14551
▁odor	-14552
▁qualitative	-14553
.3	-14554
gly	-14555
count	-14556
iguous	-14557
▁dealt	-14558
▁differential	-14559
▁Acts	-14560
▁Pick	-14561
aceous	-14562
▁2020,	-14563
▁Ethiopia	-14564
PN	-14565
्र	-14566
▁iP	-14567
olics	-14568
▁dorm	-14569
▁Houston	-14570
▁printer	-14571
▁selective	-14572
▁complaints	-14573
▁Communications	-14574
▁limb	-14575
▁utter	-14576
welling	-14577
▁advertise	-14578
Int	-14579
math	-14580
umph	-14581
ringe	-14582
rings	-14583
▁nights	-14584
▁nutrit	-14585
▁couples	-14586
▁synchron	-14587
▁aesthetic	-14588
hn	-14589
▁pad	-14590
▁evolving	-14591
▁Production	-14592
▁coordinate	-14593
▁neighborhoods	-14594
REE	-14595
isite	-14596
▁genre	-14597
▁Taiwan	-14598
▁brands	-14599
▁envelop	-14600
▁Originally	-14601
94	-14602
aro	-14603
▁Oral	-14604
▁curt	-14605
▁pear	-14606
▁5,000	-14607
ounding	-14608
▁Puerto	-14609
▁advise	-14610
▁cooler	-14611
lessness	-14612
▁shifting	-14613
▁bloodstream	-14614
sim	-14615
iller	-14616
▁sweat	-14617
▁baking	-14618
▁seventh	-14619
sea	-14620
/200	-14621
▁Nile	-14622
▁congress	-14623
▁EX	-14624
▁Tut	-14625
flower	-14626
▁Columbus	-14627
▁Titan	-14628
▁highway	-14629
▁irritation	-14630
birds	-14631
fting	-14632
▁craw	-14633
▁ceiling	-14634
itol	-14635
ollen	-14636
▁lamp	-14637
▁Nepal	-14638
▁Princeton	-14639
▁Universal	-14640
▁disciples	-14641
▁compatible	-14642
6),	-14643
ixty	-14644
▁Ped	-14645
▁Dogs	-14646
▁wolf	-14647
▁arose	-14648
▁Nearly	-14649
▁intric	-14650
▁headquarters	-14651
mith	-14652
speed	-14653
▁eleg	-14654
▁Bacter	-14655
oubtedly	-14656
▁enforce	-14657
▁linking	-14658
▁Likewise	-14659
▁determin	-14660
▁guaranteed	-14661
71	-14662
▁vein	-14663
▁Aware	-14664
▁serum	-14665
▁salary	-14666
▁fantastic	-14667
iw	-14668
▁cables	-14669
▁traced	-14670
▁Solomon	-14671
▁weekend	-14672
bot	-14673
ragon	-14674
▁glyc	-14675
▁Liver	-14676
▁tutor	-14677
▁uterus	-14678
▁shoulders	-14679
▁imperative	-14680
TO	-14681
▁RA	-14682
elong	-14683
▁geological	-14684
▁unfortunately	-14685
pen	-14686
▁Swiss	-14687
▁firmly	-14688
▁Baptist	-14689
▁confusing	-14690
disciplinary	-14691
▁deaf	-14692
▁reefs	-14693
▁underneath	-14694
je	-14695
▁glow	-14696
▁receiver	-14697
▁continental	-14698
▁contaminants	-14699
▁predominantly	-14700
Why	-14701
obi	-14702
urb	-14703
▁trim	-14704
market	-14705
▁978-0	-14706
▁herbal	-14707
▁aquarium	-14708
▁ideology	-14709
▁societal	-14710
▁astronomy	-14711
▁Principles	-14712
▁Institution	-14713
▁administrators	-14714
▁pocket	-14715
▁acceleration	-14716
dose	-14717
▁attorney	-14718
▁fox	-14719
▁Role	-14720
riages	-14721
▁fibre	-14722
▁Sources	-14723
▁destroying	-14724
CM	-14725
▁flame	-14726
▁lucky	-14727
▁Issues	-14728
▁wolves	-14729
▁relevance	-14730
ivia	-14731
gree	-14732
ilia	-14733
▁eco	-14734
▁Pent	-14735
▁abst	-14736
▁abandon	-14737
▁matches	-14738
▁Articles	-14739
▁transparency	-14740
▁Ig	-14741
omnia	-14742
▁acou	-14743
▁meta	-14744
imeters	-14745
▁Sierra	-14746
▁validity	-14747
▁appearing	-14748
bus	-14749
▁Influ	-14750
▁deposit	-14751
▁________	-14752
▁antibody	-14753
▁simplest	-14754
▁lightning	-14755
▁processor	-14756
▁Interestingly	-14757
▁Task	-14758
▁pist	-14759
ignant	-14760
▁ethanol	-14761
▁advocacy	-14762
▁asteroid	-14763
▁disruption	-14764
mel	-14765
opa	-14766
▁Tun	-14767
▁dirty	-14768
edience	-14769
▁fungal	-14770
▁Olympic	-14771
▁eruption	-14772
bes	-14773
▁(0.	-14774
▁HPV	-14775
▁crystall	-14776
▁periodic	-14777
▁consequently	-14778
▁IoT	-14779
ijing	-14780
▁fiscal	-14781
▁thrust	-14782
▁reactor	-14783
▁sculpture	-14784
▁adolescent	-14785
WA	-14786
▁na	-14787
▁fut	-14788
▁Want	-14789
▁boom	-14790
▁Truth	-14791
▁Provide	-14792
▁(196	-14793
▁spotted	-14794
▁Identify	-14795
▁inexpensive	-14796
weg	-14797
aders	-14798
▁Shel	-14799
▁Seven	-14800
▁liked	-14801
analysis	-14802
▁precautions	-14803
▁SH	-14804
ilepsy	-14805
▁Reports	-14806
▁debates	-14807
▁fluoride	-14808
▁approached	-14809
yg	-14810
▁vend	-14811
usually	-14812
▁refuse	-14813
▁Experts	-14814
▁Private	-14815
▁grocery	-14816
▁limestone	-14817
▁recognizing	-14818
án	-14819
icus	-14820
▁IBM	-14821
▁evapor	-14822
▁Ecology	-14823
▁concludes	-14824
▁plag	-14825
raulic	-14826
▁monop	-14827
▁contest	-14828
▁occupational	-14829
ERE	-14830
▁2003.	-14831
▁Thailand	-14832
▁exhibits	-14833
mi	-14834
mont	-14835
▁000	-14836
▁prophet	-14837
▁veterinarian	-14838
cap	-14839
ansk	-14840
odium	-14841
ousing	-14842
process	-14843
▁Arabia	-14844
▁turbine	-14845
system	-14846
▁neurop	-14847
▁Scripture	-14848
ulus	-14849
▁Rat	-14850
rades	-14851
▁Plat	-14852
▁lips	-14853
▁badly	-14854
▁nests	-14855
▁firing	-14856
▁termed	-14857
▁Database	-14858
▁pleasant	-14859
▁admission	-14860
▁preventive	-14861
▁Application	-14862
will	-14863
▁Silver	-14864
▁verses	-14865
▁Seattle	-14866
▁rewards	-14867
▁specimen	-14868
▁ER	-14869
▁Clinic	-14870
▁Molecular	-14871
▁introduces	-14872
▁relaxation	-14873
▁sticks	-14874
ondition	-14875
▁animation	-14876
▁autoimmune	-14877
▁exercising	-14878
▁athe	-14879
Christ	-14880
▁packages	-14881
alph	-14882
▁70%	-14883
izable	-14884
▁whereby	-14885
ACT	-14886
▁concert	-14887
▁juvenile	-14888
▁cigarettes	-14889
▁commercially	-14890
roit	-14891
▁Alb	-14892
▁SQL	-14893
▁Yale	-14894
▁Advis	-14895
▁prize	-14896
▁fractures	-14897
▁Egg	-14898
[...]
